{
  "version": "1.0",
  "truncation": null,
  "padding": null,
  "added_tokens": [
    {
      "id": 0,
      "content": "<|endoftext|>",
      "single_word": false,
      "lstrip": false,
      "rstrip": false,
      "normalized": false,
      "special": true
    },
    {
      "id": 1,
      "content": "<|pad|>",
      "single_word": false,
      "lstrip": false,
      "rstrip": false,
      "normalized": false,
      "special": true
    },
    {
      "id": 2,
      "content": "<|unk|>",
      "single_word": false,
      "lstrip": false,
      "rstrip": false,
      "normalized": false,
      "special": true
    }
  ],
  "normalizer": null,
  "pre_tokenizer": {
    "type": "ByteLevel",
    "add_prefix_space": false,
    "trim_offsets": true,
    "use_regex": true
  },
  "post_processor": null,
  "decoder": {
    "type": "ByteLevel",
    "add_prefix_space": true,
    "trim_offsets": true,
    "use_regex": true
  },
  "model": {
    "type": "BPE",
    "dropout": null,
    "unk_token": "<|unk|>",
    "continuing_subword_prefix": null,
    "end_of_word_suffix": null,
    "fuse_unk": false,
    "byte_fallback": false,
    "ignore_merges": false,
    "vocab": {
      "<|endoftext|>": 0,
      "<|pad|>": 1,
      "<|unk|>": 2,
      "!": 3,
      "\"": 4,
      "#": 5,
      "$": 6,
      "%": 7,
      "&": 8,
      "'": 9,
      "(": 10,
      ")": 11,
      "*": 12,
      "+": 13,
      ",": 14,
      "-": 15,
      ".": 16,
      "/": 17,
      "0": 18,
      "1": 19,
      "2": 20,
      "3": 21,
      "4": 22,
      "5": 23,
      "6": 24,
      "7": 25,
      "8": 26,
      "9": 27,
      ":": 28,
      ";": 29,
      "<": 30,
      "=": 31,
      ">": 32,
      "?": 33,
      "@": 34,
      "A": 35,
      "B": 36,
      "C": 37,
      "D": 38,
      "E": 39,
      "F": 40,
      "G": 41,
      "H": 42,
      "I": 43,
      "J": 44,
      "K": 45,
      "L": 46,
      "M": 47,
      "N": 48,
      "O": 49,
      "P": 50,
      "Q": 51,
      "R": 52,
      "S": 53,
      "T": 54,
      "U": 55,
      "V": 56,
      "W": 57,
      "X": 58,
      "Y": 59,
      "Z": 60,
      "[": 61,
      "\\": 62,
      "]": 63,
      "^": 64,
      "_": 65,
      "`": 66,
      "a": 67,
      "b": 68,
      "c": 69,
      "d": 70,
      "e": 71,
      "f": 72,
      "g": 73,
      "h": 74,
      "i": 75,
      "j": 76,
      "k": 77,
      "l": 78,
      "m": 79,
      "n": 80,
      "o": 81,
      "p": 82,
      "q": 83,
      "r": 84,
      "s": 85,
      "t": 86,
      "u": 87,
      "v": 88,
      "w": 89,
      "x": 90,
      "y": 91,
      "z": 92,
      "{": 93,
      "|": 94,
      "}": 95,
      "~": 96,
      "¡": 97,
      "¢": 98,
      "£": 99,
      "¤": 100,
      "¥": 101,
      "¦": 102,
      "§": 103,
      "¨": 104,
      "©": 105,
      "ª": 106,
      "«": 107,
      "¬": 108,
      "®": 109,
      "¯": 110,
      "°": 111,
      "±": 112,
      "²": 113,
      "³": 114,
      "´": 115,
      "µ": 116,
      "¶": 117,
      "·": 118,
      "¸": 119,
      "¹": 120,
      "º": 121,
      "»": 122,
      "¼": 123,
      "½": 124,
      "¾": 125,
      "¿": 126,
      "À": 127,
      "Á": 128,
      "Â": 129,
      "Ã": 130,
      "Ä": 131,
      "Å": 132,
      "Æ": 133,
      "Ç": 134,
      "È": 135,
      "É": 136,
      "Ê": 137,
      "Ë": 138,
      "Ì": 139,
      "Í": 140,
      "Î": 141,
      "Ï": 142,
      "Ð": 143,
      "Ñ": 144,
      "Ò": 145,
      "Ó": 146,
      "Ô": 147,
      "Õ": 148,
      "Ö": 149,
      "×": 150,
      "Ø": 151,
      "Ù": 152,
      "Ú": 153,
      "Û": 154,
      "Ü": 155,
      "Ý": 156,
      "Þ": 157,
      "ß": 158,
      "à": 159,
      "á": 160,
      "â": 161,
      "ã": 162,
      "ä": 163,
      "å": 164,
      "æ": 165,
      "ç": 166,
      "è": 167,
      "é": 168,
      "ê": 169,
      "ë": 170,
      "ì": 171,
      "í": 172,
      "î": 173,
      "ï": 174,
      "ð": 175,
      "ñ": 176,
      "ò": 177,
      "ó": 178,
      "ô": 179,
      "õ": 180,
      "ö": 181,
      "÷": 182,
      "ø": 183,
      "ù": 184,
      "ú": 185,
      "û": 186,
      "ü": 187,
      "ý": 188,
      "þ": 189,
      "ÿ": 190,
      "Ā": 191,
      "ā": 192,
      "Ă": 193,
      "ă": 194,
      "Ą": 195,
      "ą": 196,
      "Ć": 197,
      "ć": 198,
      "Ĉ": 199,
      "ĉ": 200,
      "Ċ": 201,
      "ċ": 202,
      "Č": 203,
      "č": 204,
      "Ď": 205,
      "ď": 206,
      "Đ": 207,
      "đ": 208,
      "Ē": 209,
      "ē": 210,
      "Ĕ": 211,
      "ĕ": 212,
      "Ė": 213,
      "ė": 214,
      "Ę": 215,
      "ę": 216,
      "Ě": 217,
      "ě": 218,
      "Ĝ": 219,
      "ĝ": 220,
      "Ğ": 221,
      "ğ": 222,
      "Ġ": 223,
      "ġ": 224,
      "Ģ": 225,
      "ģ": 226,
      "Ĥ": 227,
      "ĥ": 228,
      "Ħ": 229,
      "ħ": 230,
      "Ĩ": 231,
      "ĩ": 232,
      "Ī": 233,
      "ī": 234,
      "Ĭ": 235,
      "ĭ": 236,
      "Į": 237,
      "į": 238,
      "İ": 239,
      "ı": 240,
      "Ĳ": 241,
      "ĳ": 242,
      "Ĵ": 243,
      "ĵ": 244,
      "Ķ": 245,
      "ķ": 246,
      "ĸ": 247,
      "Ĺ": 248,
      "ĺ": 249,
      "Ļ": 250,
      "ļ": 251,
      "Ľ": 252,
      "ľ": 253,
      "Ŀ": 254,
      "ŀ": 255,
      "Ł": 256,
      "ł": 257,
      "Ń": 258,
      "Ġt": 259,
      "he": 260,
      "Ġa": 261,
      "in": 262,
      "Ġs": 263,
      "Ġw": 264,
      "re": 265,
      "ou": 266,
      "nd": 267,
      "Ġthe": 268,
      "Ġm": 269,
      "Ġo": 270,
      "Ġb": 271,
      "ing": 272,
      "er": 273,
      "ha": 274,
      "ed": 275,
      "Ġc": 276,
      "Ġf": 277,
      "it": 278,
      "Ġto": 279,
      "is": 280,
      "en": 281,
      "Ġp": 282,
      "Ġand": 283,
      "on": 284,
      "Ġhe": 285,
      "es": 286,
      "Ġd": 287,
      "Ġl": 288,
      "or": 289,
      "ĠI": 290,
      "ll": 291,
      "as": 292,
      "an": 293,
      "at": 294,
      "Ġin": 295,
      "Ġy": 296,
      "Ġh": 297,
      "Ġg": 298,
      "Ġof": 299,
      "om": 300,
      "ar": 301,
      "Ġyou": 302,
      "le": 303,
      "Ġn": 304,
      "âĢ": 305,
      "Ġha": 306,
      "Ġher": 307,
      "ck": 308,
      "hat": 309,
      "ot": 310,
      "ow": 311,
      "Ġbe": 312,
      "Ġe": 313,
      "us": 314,
      "ve": 315,
      "al": 316,
      "et": 317,
      "id": 318,
      "Ġon": 319,
      "ly": 320,
      "Ġth": 321,
      "im": 322,
      "Ġwas": 323,
      "ic": 324,
      "Ġre": 325,
      "ut": 326,
      "Ġmy": 327,
      "Ġthat": 328,
      "Ġas": 329,
      "gh": 330,
      "Ġit": 331,
      "ĠS": 332,
      "Ġst": 333,
      "ay": 334,
      "ion": 335,
      "ld": 336,
      "ir": 337,
      "ĠT": 338,
      "ver": 339,
      "ith": 340,
      "ent": 341,
      "ro": 342,
      "out": 343,
      "st": 344,
      "Ġwith": 345,
      "Ġfor": 346,
      "Ġu": 347,
      "ac": 348,
      "oo": 349,
      "ke": 350,
      "Ġis": 351,
      "Ġme": 352,
      "el": 353,
      "ad": 354,
      "Ġshe": 355,
      "Ġse": 356,
      "ri": 357,
      "Ġhis": 358,
      "ĠA": 359,
      "Ġwe": 360,
      "all": 361,
      "ght": 362,
      "Ġli": 363,
      "âĢĻ": 364,
      "am": 365,
      "Ġan": 366,
      "ur": 367,
      "ĠH": 368,
      "ould": 369,
      "se": 370,
      "pp": 371,
      "her": 372,
      "ant": 373,
      "ch": 374,
      "Ġmo": 375,
      "ill": 376,
      "ĠM": 377,
      "ct": 378,
      "Ġat": 379,
      "Ġk": 380,
      "Ġwh": 381,
      "ter": 382,
      "ag": 383,
      "Ġyour": 384,
      "ce": 385,
      "if": 386,
      "ack": 387,
      "ĠB": 388,
      "ĠW": 389,
      "il": 390,
      "Ġso": 391,
      "Ġnot": 392,
      "ain": 393,
      "Ġj": 394,
      "Ġare": 395,
      "Ġdo": 396,
      "ust": 397,
      "ome": 398,
      "Ġup": 399,
      "Ġne": 400,
      "ĠThe": 401,
      "ul": 402,
      "Ġhad": 403,
      "ĠC": 404,
      "'s": 405,
      "Ġsh": 406,
      "ra": 407,
      "Ġbut": 408,
      "Ġor": 409,
      "Ġout": 410,
      "Ġhave": 411,
      "Ġex": 412,
      "ook": 413,
      "ally": 414,
      "art": 415,
      "ort": 416,
      "Ġsu": 417,
      "ers": 418,
      "Ġthis": 419,
      "Ġfe": 420,
      "Ġfr": 421,
      "Ġint": 422,
      "âĢĿ": 423,
      "um": 424,
      "Ġco": 425,
      "âĢľ": 426,
      "ĠD": 427,
      "un": 428,
      "red": 429,
      "rou": 430,
      "Ġab": 431,
      "ess": 432,
      "ation": 433,
      "Ġal": 434,
      "ide": 435,
      "Ġcon": 436,
      "ate": 437,
      "Ġhim": 438,
      "hen": 439,
      "ight": 440,
      "ĠP": 441,
      "Ġv": 442,
      "qu": 443,
      "ind": 444,
      "ak": 445,
      "res": 446,
      "Ġle": 447,
      "our": 448,
      "Ġall": 449,
      "Ġcan": 450,
      "ab": 451,
      "ĠL": 452,
      "own": 453,
      "ie": 454,
      "'t": 455,
      "Ġr": 456,
      "Ġlo": 457,
      "pe": 458,
      "est": 459,
      "ast": 460,
      "Ġfrom": 461,
      "Ġ\"": 462,
      "ĠShe": 463,
      "Ġkn": 464,
      "Ġde": 465,
      "Ġlike": 466,
      "lo": 467,
      "Ġsa": 468,
      "ig": 469,
      "Ġsex": 470,
      "Ġget": 471,
      "Ġback": 472,
      "uck": 473,
      "ĠF": 474,
      "hing": 475,
      "Ġsl": 476,
      "ake": 477,
      "han": 478,
      "ist": 479,
      "ick": 480,
      "one": 481,
      "Ġgo": 482,
      "and": 483,
      "Ġcom": 484,
      "Ġthey": 485,
      "ĠE": 486,
      "ĠO": 487,
      "Ġus": 488,
      "ive": 489,
      "od": 490,
      "Ġinto": 491,
      "ĠN": 492,
      "Ġtim": 493,
      "Ġpro": 494,
      "age": 495,
      "..": 496,
      "ĠHe": 497,
      "nt": 498,
      "very": 499,
      "ps": 500,
      "Ġag": 501,
      "Ġlook": 502,
      "Ġabout": 503,
      "Ġen": 504,
      "Ġwhat": 505,
      "Ġjust": 506,
      "hed": 507,
      "fe": 508,
      "ore": 509,
      "Ġwant": 510,
      "Ġdown": 511,
      "ong": 512,
      "os": 513,
      "Ġcould": 514,
      "ood": 515,
      "em": 516,
      "Ġone": 517,
      "Ġhand": 518,
      "You": 519,
      "ine": 520,
      "ĠJ": 521,
      "ep": 522,
      "Ġpl": 523,
      "Ġover": 524,
      "ure": 525,
      "Ġwor": 526,
      "Ġmore": 527,
      "Ġby": 528,
      "ther": 529,
      "ous": 530,
      "Ġsome": 531,
      "Ġthem": 532,
      "ies": 533,
      "Ġwill": 534,
      "ĠG": 535,
      "Ġwould": 536,
      "Ġtime": 537,
      "ple": 538,
      "ating": 539,
      "ile": 540,
      "ĠR": 541,
      "Ġif": 542,
      "ge": 543,
      "ard": 544,
      "ual": 545,
      "Âł": 546,
      "Ġwhen": 547,
      "ace": 548,
      "ry": 549,
      "ink": 550,
      "ull": 551,
      "Ġwere": 552,
      "ven": 553,
      "ame": 554,
      "Ġte": 555,
      "irl": 556,
      "Ġoff": 557,
      "ud": 558,
      "ite": 559,
      "Ġdid": 560,
      "Ġcl": 561,
      "Ġsaid": 562,
      "ting": 563,
      "ĠIt": 564,
      "Ġcock": 565,
      "elf": 566,
      "Ġsp": 567,
      "ress": 568,
      "Ġman": 569,
      "Ġthen": 570,
      "Ġany": 571,
      "act": 572,
      "iss": 573,
      "ice": 574,
      "Ġtheir": 575,
      "ked": 576,
      "Ġwho": 577,
      "ity": 578,
      "Ġfeel": 579,
      "Ġagain": 580,
      "Ġthere": 581,
      "Ġother": 582,
      "ĠâĢľ": 583,
      "end": 584,
      "th": 585,
      "ub": 586,
      "ass": 587,
      "ving": 588,
      "round": 589,
      "Ġsm": 590,
      "Ġtoo": 591,
      "Ġwom": 592,
      "Ġpus": 593,
      "Ġfuck": 594,
      "Ġro": 595,
      "ĠĠ": 596,
      "ment": 597,
      "Ġknow": 598,
      "Ġsee": 599,
      "Ġqu": 600,
      "Ġhow": 601,
      "way": 602,
      "self": 603,
      "oy": 604,
      "Ġgirl": 605,
      "pt": 606,
      "we": 607,
      "ue": 608,
      ".\"": 609,
      "itt": 610,
      "iz": 611,
      "Ġno": 612,
      "ol": 613,
      "ng": 614,
      "Ġad": 615,
      "king": 616,
      "ach": 617,
      "ip": 618,
      "here": 619,
      "nder": 620,
      "ĠYou": 621,
      "are": 622,
      "ody": 623,
      "per": 624,
      "Ġass": 625,
      "Ġhar": 626,
      "reat": 627,
      "ft": 628,
      "fter": 629,
      "Ġway": 630,
      "able": 631,
      "urn": 632,
      "Ġgu": 633,
      "cort": 634,
      "ib": 635,
      "ved": 636,
      "Ġun": 637,
      "fore": 638,
      "Ġbl": 639,
      "Ġbec": 640,
      "Ġbeen": 641,
      "Ġcont": 642,
      "Ġam": 643,
      "Ġstart": 644,
      "orn": 645,
      "leas": 646,
      "Ġhard": 647,
      "so": 648,
      ".âĢĿ": 649,
      "Ġ1": 650,
      "ich": 651,
      "Ġaround": 652,
      "ree": 653,
      "pl": 654,
      "other": 655,
      "aus": 656,
      "Ġhead": 657,
      "his": 658,
      "Ġpart": 659,
      "ear": 660,
      "Ġ2": 661,
      "Ġneed": 662,
      "sy": 663,
      "Ġhas": 664,
      "ĠK": 665,
      "Ġim": 666,
      "ough": 667,
      "Ġmake": 668,
      "Ġthan": 669,
      "Ġtw": 670,
      "ittle": 671,
      "Ġnow": 672,
      "Ġeven": 673,
      "Ġbet": 674,
      "Ġar": 675,
      "pped": 676,
      "Ġdon": 677,
      "Ġbefore": 678,
      "Ġapp": 679,
      "ated": 680,
      "ans": 681,
      "ction": 682,
      "ings": 683,
      "Ġfir": 684,
      "Ġsc": 685,
      "te": 686,
      "The": 687,
      "ne": 688,
      "iv": 689,
      "Ġlittle": 690,
      "Ġtr": 691,
      "Ġpo": 692,
      "Ġgoing": 693,
      "Ġvery": 694,
      "Ġpre": 695,
      "Ġri": 696,
      "les": 697,
      "ound": 698,
      "Ġey": 699,
      "outh": 700,
      "Ġgood": 701,
      "ire": 702,
      "ens": 703,
      "Ġbody": 704,
      "Ġour": 705,
      "Ġpe": 706,
      "Ġevery": 707,
      "Ġthink": 708,
      "Ġgot": 709,
      "Ġalso": 710,
      "uch": 711,
      "Ġdis": 712,
      "Ġho": 713,
      "ĠâĢ": 714,
      "riend": 715,
      "oth": 716,
      "Ġlong": 717,
      "Ġch": 718,
      "ell": 719,
      "ause": 720,
      "Ġonly": 721,
      "ia": 722,
      "Ġwhich": 723,
      "Ġbeg": 724,
      "ond": 725,
      "aking": 726,
      "uts": 727,
      "Ġlove": 728,
      "sh": 729,
      "Ġac": 730,
      "elt": 731,
      "corts": 732,
      "ave": 733,
      "ale": 734,
      "omet": 735,
      "ade": 736,
      "Ġpussy": 737,
      "Ġmouth": 738,
      "Ġper": 739,
      "Ġwhile": 740,
      "Ġes": 741,
      "Ġpull": 742,
      "Ġsha": 743,
      "ci": 744,
      "Ġ-": 745,
      "side": 746,
      "Ġsay": 747,
      "Ġreally": 748,
      "Ġrel": 749,
      "ys": 750,
      "Ġbr": 751,
      "rough": 752,
      "au": 753,
      "Ġmuch": 754,
      "Ġwat": 755,
      "Ġlet": 756,
      "Ġfirst": 757,
      "Ġturn": 758,
      "Ġche": 759,
      "Ġunder": 760,
      "wn": 761,
      "ff": 762,
      "ber": 763,
      "ĠIn": 764,
      "ish": 765,
      "Ġface": 766,
      "ward": 767,
      "ex": 768,
      "Ġgr": 769,
      "ap": 770,
      "Ġafter": 771,
      "ought": 772,
      "ult": 773,
      "led": 774,
      "Ġfelt": 775,
      "Ġatt": 776,
      "Ġkne": 777,
      "ady": 778,
      "Ġright": 779,
      "Ġfing": 780,
      "ople": 781,
      "Ġtake": 782,
      "Ġfl": 783,
      "igh": 784,
      "Ġke": 785,
      "Ġsomet": 786,
      "ks": 787,
      "orm": 788,
      "Ġeyes": 789,
      "Ġop": 790,
      "ually": 791,
      "Ġwomen": 792,
      "Ġdidn": 793,
      "Ġbed": 794,
      "ence": 795,
      "Ġinc": 796,
      "Ġdes": 797,
      "ose": 798,
      "Ġ(": 799,
      "av": 800,
      "ĠThis": 801,
      "Ġpr": 802,
      "Ġwell": 803,
      "Ġshould": 804,
      "Ġstill": 805,
      "Ġres": 806,
      "cal": 807,
      "Ġmen": 808,
      "Ġbeing": 809,
      "Ġthrough": 810,
      "enis": 811,
      "Ġkiss": 812,
      "Ġpleas": 813,
      "Ġfind": 814,
      "Ġleg": 815,
      "Ġact": 816,
      "bs": 817,
      "ful": 818,
      "Ġhands": 819,
      "ty": 820,
      "ious": 821,
      "ance": 822,
      "'re": 823,
      "Ġmay": 824,
      "Ġtwo": 825,
      "ĠWe": 826,
      "erson": 827,
      "Ġday": 828,
      "ions": 829,
      "Ġbecause": 830,
      "ĠU": 831,
      "ĠOn": 832,
      "Ġspe": 833,
      "Ġpeople": 834,
      "Ġshow": 835,
      "Ġcou": 836,
      "Ġdating": 837,
      "Ġlooked": 838,
      "hes": 839,
      "ild": 840,
      "Ġclo": 841,
      "Ġopen": 842,
      "ian": 843,
      "be": 844,
      "ĠSt": 845,
      "page": 846,
      "Ġnever": 847,
      "line": 848,
      "Ġmade": 849,
      "ost": 850,
      "Ġbre": 851,
      "ail": 852,
      "Ġhot": 853,
      "ict": 854,
      "Ġsomething": 855,
      "Ġeach": 856,
      "thing": 857,
      "...": 858,
      "Ġfo": 859,
      "Ġthought": 860,
      "xt": 861,
      "Ġmost": 862,
      "ug": 863,
      "Ġpos": 864,
      "Ġcum": 865,
      "ĠAnd": 866,
      "ĠY": 867,
      "get": 868,
      "ĠV": 869,
      "Ġwhere": 870,
      "int": 871,
      "ever": 872,
      "Ġstarted": 873,
      "Ġreal": 874,
      "ily": 875,
      "Ġboth": 876,
      "ang": 877,
      "Ġbig": 878,
      "Ġwoman": 879,
      "Ġwa": 880,
      "op": 881,
      "Ġcha": 882,
      "Ġperson": 883,
      "Ġroom": 884,
      "Ġhapp": 885,
      "ried": 886,
      "Ġstr": 887,
      "Ġnew": 888,
      ",\"": 889,
      "iew": 890,
      "ĠAs": 891,
      "Ġagainst": 892,
      "Ġem": 893,
      "Ġph": 894,
      "?\"": 895,
      "Ġrem": 896,
      "Ġmom": 897,
      "ont": 898,
      "ching": 899,
      "its": 900,
      "'m": 901,
      "ĊĠĠ": 902,
      "Ġown": 903,
      "ise": 904,
      "ĠTo": 905,
      "Ġput": 906,
      "Ġwork": 907,
      "ched": 908,
      "ves": 909,
      "ner": 910,
      "Ġdoes": 911,
      "Ġfriend": 912,
      "ms": 913,
      "Ġtook": 914,
      "Ġind": 915,
      "Ġfew": 916,
      "âĢ¦": 917,
      "joy": 918,
      "ĠThey": 919,
      "Ġmat": 920,
      "ween": 921,
      "Ġsit": 922,
      "Ġhel": 923,
      "ĠMy": 924,
      "ips": 925,
      ",âĢĿ": 926,
      "utes": 927,
      "Ġaway": 928,
      "ark": 929,
      "ert": 930,
      "Ġlooking": 931,
      "com": 932,
      "Ġasked": 933,
      "Ġtry": 934,
      "hy": 935,
      "Ġinside": 936,
      "Ġhere": 937,
      "ĠHer": 938,
      "ipp": 939,
      "ob": 940,
      "Ġlips": 941,
      "ĠIf": 942,
      "Ġbetween": 943,
      "Ġsuck": 944,
      "Ġent": 945,
      "Ġplay": 946,
      "ory": 947,
      "ied": 948,
      "Ġwanted": 949,
      "ĊĠĠĠ": 950,
      "Ġdeep": 951,
      "?âĢĿ": 952,
      "ition": 953,
      "ream": 954,
      "Ġbit": 955,
      "Ġcome": 956,
      "00": 957,
      "Ġsk": 958,
      "ase": 959,
      "ss": 960,
      "Ġlegs": 961,
      "Ġbest": 962,
      "ĠBut": 963,
      "ize": 964,
      "Ġtal": 965,
      "Ġnight": 966,
      "Ġenjoy": 967,
      "Ġlife": 968,
      "Ġpenis": 969,
      "Ġgirls": 970,
      "He": 971,
      "ced": 972,
      "ign": 973,
      "ĠEs": 974,
      "ho": 975,
      "rent": 976,
      "ee": 977,
      "Ġyear": 978,
      "ial": 979,
      "Ġcomp": 980,
      "Ġanother": 981,
      "Ġwent": 982,
      "Ġfin": 983,
      "She": 984,
      "Ġcame": 985,
      "Ġ3": 986,
      "Ġthese": 987,
      "Ġsw": 988,
      "Ġexper": 989,
      "Ġdif": 990,
      "Ġtell": 991,
      "Ġorg": 992,
      "Ġlot": 993,
      "irt": 994,
      "Ġpant": 995,
      "Ġsec": 996,
      "co": 997,
      "ling": 998,
      "Ġpulled": 999,
      "ways": 1000,
      "Ġthings": 1001,
      "ped": 1002,
      "Ġunt": 1003,
      "Ġend": 1004,
      "Ġsure": 1005,
      "Ġbel": 1006,
      "Ġexp": 1007,
      "ĠSl": 1008,
      "Ġgreat": 1009,
      "Ġtold": 1010,
      "Ġslow": 1011,
      "Ġ.": 1012,
      "ary": 1013,
      "Ġtong": 1014,
      "ince": 1015,
      "Ġuse": 1016,
      "up": 1017,
      "Ġmin": 1018,
      "Ġcr": 1019,
      "Ġsexual": 1020,
      "Ġcle": 1021,
      "Ġgetting": 1022,
      "ool": 1023,
      "Ġser": 1024,
      "to": 1025,
      "Ġwal": 1026,
      "Ġimp": 1027,
      "Ġseem": 1028,
      "Ġgl": 1029,
      "Ġhair": 1030,
      "ning": 1031,
      "Ġknew": 1032,
      "Ġdr": 1033,
      "Ġcall": 1034,
      "Ġbegan": 1035,
      "bb": 1036,
      "Ġdoor": 1037,
      "ather": 1038,
      "Ġsat": 1039,
      "Ġchan": 1040,
      "Ġmind": 1041,
      "Ġmight": 1042,
      "pect": 1043,
      "'d": 1044,
      "ĠWhen": 1045,
      "asm": 1046,
      "asual": 1047,
      "ouse": 1048,
      "air": 1049,
      "fect": 1050,
      "ered": 1051,
      "Ġi": 1052,
      "ble": 1053,
      "ere": 1054,
      "ah": 1055,
      "Ġuntil": 1056,
      "ath": 1057,
      "az": 1058,
      "Ġdick": 1059,
      "cou": 1060,
      "form": 1061,
      "Ġtongue": 1062,
      "Ġra": 1063,
      "ged": 1064,
      "Ġexc": 1065,
      "Ġalways": 1066,
      "ord": 1067,
      "aked": 1068,
      "ently": 1069,
      "Ġwr": 1070,
      "Ġthing": 1071,
      "ationsh": 1072,
      "Ġsame": 1073,
      "ife": 1074,
      "Ġinter": 1075,
      "Ġthose": 1076,
      "vers": 1077,
      "Ġnext": 1078,
      "aut": 1079,
      "ny": 1080,
      "Ġwait": 1081,
      "ible": 1082,
      "Ġtop": 1083,
      "Ġsim": 1084,
      "unt": 1085,
      "Ġturned": 1086,
      "ĠDo": 1087,
      "Ġfingers": 1088,
      "ĠEscorts": 1089,
      "Ġdec": 1090,
      "Ġfun": 1091,
      "Ġhelp": 1092,
      "Ġexperi": 1093,
      "It": 1094,
      "'ll": 1095,
      "Ġbreast": 1096,
      "Ġmany": 1097,
      "Ġtight": 1098,
      "ĠLo": 1099,
      "mm": 1100,
      "Ġsur": 1101,
      "Ġlast": 1102,
      "aught": 1103,
      "akes": 1104,
      "ared": 1105,
      "Ġguy": 1106,
      "ĠSo": 1107,
      "Ġlocal": 1108,
      "Ġgive": 1109,
      "Ġrelationsh": 1110,
      "ret": 1111,
      "Ġhome": 1112,
      "What": 1113,
      "Ġfree": 1114,
      "Ġquick": 1115,
      "Ġbu": 1116,
      "Ġfull": 1117,
      "Ġcar": 1118,
      "ĠThat": 1119,
      "ax": 1120,
      "Ġkeep": 1121,
      "Ġever": 1122,
      "Ġescorts": 1123,
      "Ġgra": 1124,
      "ters": 1125,
      "ute": 1126,
      "gether": 1127,
      "cess": 1128,
      "ĠSluts": 1129,
      "udd": 1130,
      "aned": 1131,
      "Ġboy": 1132,
      "Ġmyself": 1133,
      "ott": 1134,
      "ular": 1135,
      "ness": 1136,
      "01": 1137,
      "ĠSex": 1138,
      "na": 1139,
      "ons": 1140,
      "Ġleft": 1141,
      "ical": 1142,
      "Ġporn": 1143,
      "ations": 1144,
      "Ġbo": 1145,
      "Ġmeet": 1146,
      "Ġmass": 1147,
      "du": 1148,
      "ĠBe": 1149,
      "Ġhaving": 1150,
      "ackpage": 1151,
      "'ve": 1152,
      "Ġonline": 1153,
      "Ġold": 1154,
      "ude": 1155,
      "Ġsho": 1156,
      "ower": 1157,
      "Ġdiffe": 1158,
      "Ġtogether": 1159,
      "ĠFor": 1160,
      "ĠThere": 1161,
      "Ġlick": 1162,
      "dd": 1163,
      "ina": 1164,
      "Ġcontin": 1165,
      "Ġear": 1166,
      "Ġeas": 1167,
      "aring": 1168,
      "ĊĠ": 1169,
      "Ġext": 1170,
      "ces": 1171,
      "Ġside": 1172,
      "Ġmoment": 1173,
      "Ġadd": 1174,
      "Ġtou": 1175,
      "Ġplace": 1176,
      "ren": 1177,
      "Ġdoing": 1178,
      "Ġswe": 1179,
      "vent": 1180,
      "stit": 1181,
      "med": 1182,
      "Ġsqu": 1183,
      "less": 1184,
      "ĠWhat": 1185,
      "Ġbetter": 1186,
      "How": 1187,
      "Ġset": 1188,
      "Ġcomm": 1189,
      "Ġwasn": 1190,
      "ike": 1191,
      "Ġenough": 1192,
      "Ġmaking": 1193,
      "Ġwet": 1194,
      "llow": 1195,
      "ect": 1196,
      "Ġanything": 1197,
      "Ġpleasure": 1198,
      "ened": 1199,
      "ors": 1200,
      "Ġits": 1201,
      "ĠHow": 1202,
      "Ġfucking": 1203,
      "most": 1204,
      "Ġinst": 1205,
      "Ġclos": 1206,
      "Ġpass": 1207,
      "Ġnipp": 1208,
      "Ġslowly": 1209,
      "Ġel": 1210,
      "Ġsoft": 1211,
      "room": 1212,
      "ger": 1213,
      "Ġfeeling": 1214,
      "day": 1215,
      "!\"": 1216,
      "Ġvide": 1217,
      "ures": 1218,
      "Ġfound": 1219,
      "Ġsens": 1220,
      "pping": 1221,
      "Ġrub": 1222,
      "ĠAl": 1223,
      "ressed": 1224,
      "Ġhook": 1225,
      "Ġyoung": 1226,
      "Ġsomeone": 1227,
      "ertain": 1228,
      "ross": 1229,
      "Ġdri": 1230,
      "Ġwithout": 1231,
      "Ġsmall": 1232,
      "Ġbreat": 1233,
      "Ġfront": 1234,
      "Ġorgasm": 1235,
      "ater": 1236,
      "Ġsmil": 1237,
      "hh": 1238,
      "Ġhold": 1239,
      "Ġcons": 1240,
      "Ġsuch": 1241,
      "Ġcomple": 1242,
      "Ġstand": 1243,
      "hind": 1244,
      "Ġcur": 1245,
      "Ġbeaut": 1246,
      "ĠDating": 1247,
      "Ġguys": 1248,
      "Ġsince": 1249,
      "Ġprof": 1250,
      "Ġblack": 1251,
      "Ġrest": 1252,
      "ract": 1253,
      "ately": 1254,
      "Ġsluts": 1255,
      "erest": 1256,
      "Ġthr": 1257,
      "ier": 1258,
      "view": 1259,
      "Ġpoint": 1260,
      "Ġused": 1261,
      "ached": 1262,
      "Ġbehind": 1263,
      "ene": 1264,
      "ĠHis": 1265,
      "Ġyears": 1266,
      "ned": 1267,
      "Ġrelationship": 1268,
      "Ġkind": 1269,
      "Ġunderst": 1270,
      "Ġsto": 1271,
      "Ġsaw": 1272,
      "Ġalmost": 1273,
      "Ġonce": 1274,
      "Ġmar": 1275,
      "ention": 1276,
      "Ġhigh": 1277,
      "Ġdifferent": 1278,
      "Ġactually": 1279,
      "ates": 1280,
      "umb": 1281,
      "Ġob": 1282,
      "Ġcare": 1283,
      "Ġwhy": 1284,
      "ix": 1285,
      "Ġherself": 1286,
      "pr": 1287,
      "Ġinterest": 1288,
      "ĠCh": 1289,
      "Ġbreasts": 1290,
      "Ġwar": 1291,
      "uring": 1292,
      "Ġmoved": 1293,
      "Ġmove": 1294,
      "Ġcouldn": 1295,
      "Ġnaked": 1296,
      "ices": 1297,
      "Ġbelie": 1298,
      "rap": 1299,
      "ably": 1300,
      "gg": 1301,
      "Ġposs": 1302,
      "Ġlight": 1303,
      "Ġsub": 1304,
      "Ġwife": 1305,
      "Ġreg": 1306,
      "ĠAn": 1307,
      "Ġ5": 1308,
      "Ġshort": 1309,
      "Ġide": 1310,
      "oney": 1311,
      "Ġmet": 1312,
      "Ġgi": 1313,
      "me": 1314,
      "Ġthough": 1315,
      "cial": 1316,
      "Ġclit": 1317,
      "ĠWith": 1318,
      "ĠBackpage": 1319,
      "Ġinv": 1320,
      "ĠThen": 1321,
      "by": 1322,
      "Ġyourself": 1323,
      "ense": 1324,
      "Ġwee": 1325,
      "ĠRe": 1326,
      "ement": 1327,
      "ized": 1328,
      "ically": 1329,
      "ised": 1330,
      "Ġstro": 1331,
      "Ġmus": 1332,
      "ages": 1333,
      "Ġpret": 1334,
      "alls": 1335,
      "ited": 1336,
      "uff": 1337,
      "cus": 1338,
      "Ġfinger": 1339,
      "Ġste": 1340,
      "my": 1341,
      "ply": 1342,
      "wards": 1343,
      "ites": 1344,
      "der": 1345,
      "Ġdro": 1346,
      "Ġword": 1347,
      "Ġ4": 1348,
      "oice": 1349,
      "Ġsle": 1350,
      "Ġsecond": 1351,
      "ourse": 1352,
      "Ġable": 1353,
      "ivid": 1354,
      "Ġread": 1355,
      "ments": 1356,
      "Ġsexy": 1357,
      "Ġjo": 1358,
      "Ġmale": 1359,
      "Ġlau": 1360,
      "cept": 1361,
      "you": 1362,
      "Ġcasual": 1363,
      "vel": 1364,
      "Ġwo": 1365,
      "Ġonto": 1366,
      "ik": 1367,
      "fort": 1368,
      "aw": 1369,
      "Ġclose": 1370,
      "Ġmon": 1371,
      "Ġtrying": 1372,
      "ank": 1373,
      "lease": 1374,
      "Ġbegin": 1375,
      "Ġaw": 1376,
      "Ġhouse": 1377,
      "Ġconf": 1378,
      "any": 1379,
      "Ġcomplete": 1380,
      "Ġfact": 1381,
      "ided": 1382,
      "Ġlar": 1383,
      "Ġpri": 1384,
      "Ġunderstand": 1385,
      "Ġexperience": 1386,
      "Ġret": 1387,
      "iful": 1388,
      "Ġdel": 1389,
      "Ġslid": 1390,
      "Ġcontinu": 1391,
      "ted": 1392,
      "ĠQ": 1393,
      "Ġsupp": 1394,
      "Oh": 1395,
      "Ġmust": 1396,
      "ric": 1397,
      "Ġdate": 1398,
      "og": 1399,
      "Ġcam": 1400,
      "Ġtimes": 1401,
      "ĠAfter": 1402,
      "Ġav": 1403,
      "Ġgen": 1404,
      "ills": 1405,
      "Ġquickly": 1406,
      "friend": 1407,
      "ĠâĢĵ": 1408,
      "Ġworld": 1409,
      "ĠIs": 1410,
      "ars": 1411,
      "ten": 1412,
      "Ġhu": 1413,
      "ready": 1414,
      "Ġcoll": 1415,
      "aster": 1416,
      "Ġnice": 1417,
      "cc": 1418,
      "coun": 1419,
      "ging": 1420,
      "Ġsoon": 1421,
      "Ġfollow": 1422,
      "!âĢĿ": 1423,
      "ĠâĢ¢": 1424,
      "Ġrun": 1425,
      "stitutes": 1426,
      "Ġminutes": 1427,
      "Ġ'": 1428,
      "Ġbab": 1429,
      "ividual": 1430,
      "Ġprov": 1431,
      "We": 1432,
      "ĠEn": 1433,
      "Ġty": 1434,
      "ove": 1435,
      "Ġfem": 1436,
      "Ġdone": 1437,
      "Ġready": 1438,
      "Ġbackpage": 1439,
      "Ġcertain": 1440,
      "Ġalready": 1441,
      "Ġblo": 1442,
      "els": 1443,
      "Ġflo": 1444,
      "ished": 1445,
      "ru": 1446,
      "ping": 1447,
      "ton": 1448,
      "Ġchat": 1449,
      "Ġfriends": 1450,
      "Ġgave": 1451,
      "Ġallow": 1452,
      "Ġpain": 1453,
      "read": 1454,
      "Ġsize": 1455,
      "erm": 1456,
      "Ġmess": 1457,
      "Ġhips": 1458,
      "Ġfant": 1459,
      "Ġindividual": 1460,
      "Ġalong": 1461,
      "ĠPro": 1462,
      "Ġvib": 1463,
      "Ġmean": 1464,
      "otic": 1465,
      "ming": 1466,
      "Ġthro": 1467,
      "ĊĊĠĠĠ": 1468,
      "Ġstop": 1469,
      "ony": 1470,
      "io": 1471,
      "Ġresp": 1472,
      "This": 1473,
      "Ġsmiled": 1474,
      "ason": 1475,
      "Ġhum": 1476,
      "ash": 1477,
      "Ġbus": 1478,
      "Ġhour": 1479,
      "Ġchar": 1480,
      "Ġbeautiful": 1481,
      "har": 1482,
      "ĠNo": 1483,
      "Ġthree": 1484,
      "iet": 1485,
      "Ġheard": 1486,
      "Ġthigh": 1487,
      "Ġsound": 1488,
      "Ġcouple": 1489,
      "Ġwalked": 1490,
      "Ġins": 1491,
      "ired": 1492,
      "Ġtits": 1493,
      "Ġer": 1494,
      "Ġnothing": 1495,
      "Ġfar": 1496,
      "Ġpushed": 1497,
      "aid": 1498,
      "ined": 1499,
      "Ġstra": 1500,
      "Ġclot": 1501,
      "Ġpict": 1502,
      "Ġnipples": 1503,
      "Ġtri": 1504,
      "Ġpretty": 1505,
      "Ġarms": 1506,
      "ying": 1507,
      "add": 1508,
      "ĠNow": 1509,
      "Ġview": 1510,
      "Ġcunt": 1511,
      "als": 1512,
      "ĠNe": 1513,
      "br": 1514,
      "ĠAre": 1515,
      "Ġreached": 1516,
      "Ġsite": 1517,
      "Ġfam": 1518,
      "rew": 1519,
      "ĠAll": 1520,
      "Ġtalk": 1521,
      "xx": 1522,
      "ient": 1523,
      "Ġtaking": 1524,
      "Ġbra": 1525,
      "Ġdoesn": 1526,
      "Ġlist": 1527,
      "Ġperfect": 1528,
      "ĠJo": 1529,
      "ides": 1530,
      "Ġstood": 1531,
      "cy": 1532,
      "Ġbott": 1533,
      "Ġskin": 1534,
      "vice": 1535,
      "ister": 1536,
      "ative": 1537,
      "Ġelse": 1538,
      "vious": 1539,
      "lf": 1540,
      "ime": 1541,
      "Ġkissed": 1542,
      "ening": 1543,
      "bed": 1544,
      "ither": 1545,
      "Ġcra": 1546,
      "ities": 1547,
      "Ġquest": 1548,
      "ead": 1549,
      "ĠAm": 1550,
      "Ġsign": 1551,
      "Ġpur": 1552,
      "ully": 1553,
      "Ġescort": 1554,
      "chool": 1555,
      "Ġseemed": 1556,
      "Ġpartner": 1557,
      "Ġsil": 1558,
      "cked": 1559,
      "Ġcontro": 1560,
      "Ġfucked": 1561,
      "ts": 1562,
      "eng": 1563,
      "Ġnear": 1564,
      "Ġpanties": 1565,
      "cing": 1566,
      "Ġred": 1567,
      "Ġseen": 1568,
      "Ġprodu": 1569,
      "Ġphot": 1570,
      "Ġvis": 1571,
      "Ġwonder": 1572,
      "ĠBr": 1573,
      "Ġpick": 1574,
      "Ġstay": 1575,
      "Ġeverything": 1576,
      "Ġexact": 1577,
      "ĠTh": 1578,
      "Ġmassage": 1579,
      "Ġwebs": 1580,
      "Ġmem": 1581,
      "Ġusing": 1582,
      "Ġgrabb": 1583,
      "Ġdef": 1584,
      "atur": 1585,
      "Ġap": 1586,
      "ering": 1587,
      "Ġyet": 1588,
      "Ġquite": 1589,
      "avor": 1590,
      "Ġca": 1591,
      "Ġtried": 1592,
      "aced": 1593,
      "cent": 1594,
      "hance": 1595,
      "uddy": 1596,
      "Ġlater": 1597,
      "ured": 1598,
      "band": 1599,
      "Ġchest": 1600,
      "iness": 1601,
      "Ġans": 1602,
      "ĠAt": 1603,
      "ÂłÂł": 1604,
      "tern": 1605,
      "Ġmakes": 1606,
      "Ġbelieve": 1607,
      "ipped": 1608,
      "Ġwhite": 1609,
      "In": 1610,
      "Ġask": 1611,
      "My": 1612,
      "Ġacross": 1613,
      "Ġtoy": 1614,
      "Ġvibr": 1615,
      "no": 1616,
      "As": 1617,
      "Ġbad": 1618,
      "Ġtast": 1619,
      "ained": 1620,
      "Ġhimself": 1621,
      "Ġwater": 1622,
      "Ġlay": 1623,
      "ĠMar": 1624,
      "Ġfeet": 1625,
      "urb": 1626,
      "owing": 1627,
      "Ġprob": 1628,
      "Ġpub": 1629,
      "Ġattract": 1630,
      "Ġsurpr": 1631,
      "ories": 1632,
      "Ġincl": 1633,
      "ident": 1634,
      "ific": 1635,
      "ject": 1636,
      "ember": 1637,
      "Ġvideo": 1638,
      "body": 1639,
      "Ġtra": 1640,
      "Ġdress": 1641,
      "ames": 1642,
      "Ġed": 1643,
      "ung": 1644,
      "When": 1645,
      "Ġmother": 1646,
      "iting": 1647,
      "Ġthrust": 1648,
      "Ġsmile": 1649,
      "Ġheld": 1650,
      "gin": 1651,
      "ility": 1652,
      "ased": 1653,
      "idd": 1654,
      "Ġfinally": 1655,
      "Ġsn": 1656,
      "Ġconne": 1657,
      "Ġdire": 1658,
      "Ġnum": 1659,
      "Ġmod": 1660,
      "Ġran": 1661,
      "ĠFr": 1662,
      "counters": 1663,
      "Ġere": 1664,
      "Ġlarge": 1665,
      "Ġfloor": 1666,
      "!!": 1667,
      "Ġtable": 1668,
      "Ġbecome": 1669,
      "ĠYour": 1670,
      "So": 1671,
      "Ġstud": 1672,
      "Ġcontinued": 1673,
      "Ġwarm": 1674,
      "Ġballs": 1675,
      "Ġpower": 1676,
      "Ġappro": 1677,
      "Ġrequ": 1678,
      "Ġneck": 1679,
      "ĠDe": 1680,
      "Ġheart": 1681,
      "app": 1682,
      "though": 1683,
      "If": 1684,
      "ĠWho": 1685,
      "log": 1686,
      "Ġfill": 1687,
      "Ġopened": 1688,
      "Ġpress": 1689,
      "Ġcourse": 1690,
      "Ġbreath": 1691,
      "Ġrepl": 1692,
      "oll": 1693,
      "ives": 1694,
      "fully": 1695,
      "Ġschool": 1696,
      "Ġexpl": 1697,
      "ĠNot": 1698,
      "ount": 1699,
      "vered": 1700,
      "omen": 1701,
      "Ġdet": 1702,
      "ush": 1703,
      "Ġlear": 1704,
      "No": 1705,
      "Ġstory": 1706,
      "Ġwhole": 1707,
      "Ġforward": 1708,
      "Ġhur": 1709,
      "Ġchee": 1710,
      "Ġcompletely": 1711,
      "Ġdrink": 1712,
      "Ġkept": 1713,
      "Ġvoice": 1714,
      "Ġwatching": 1715,
      "tic": 1716,
      "lect": 1717,
      "Ġexpect": 1718,
      "Ġtouch": 1719,
      "Ġsweet": 1720,
      "Ġgro": 1721,
      "Ġsimply": 1722,
      "usband": 1723,
      "isf": 1724,
      "the": 1725,
      "sing": 1726,
      "Ġ6": 1727,
      "Ġidea": 1728,
      "Ġpay": 1729,
      "Ġbar": 1730,
      "Ġ,": 1731,
      "Ġmonth": 1732,
      "ĠâĢĺ": 1733,
      "old": 1734,
      "Ġthinking": 1735,
      "Ġreturn": 1736,
      "cri": 1737,
      "Ġwon": 1738,
      "Ġgets": 1739,
      "Ġpres": 1740,
      "Ġhalf": 1741,
      "Why": 1742,
      "Ġcoming": 1743,
      "Ġcontrol": 1744,
      "cer": 1745,
      "That": 1746,
      "ffect": 1747,
      "Ġadult": 1748,
      "atch": 1749,
      "ics": 1750,
      "Ġrec": 1751,
      "Ġspread": 1752,
      "Ġknees": 1753,
      "Ġposition": 1754,
      "Ġwatched": 1755,
      "Ġgrabbed": 1756,
      "Ġcre": 1757,
      "ctions": 1758,
      "Ġprobably": 1759,
      "bing": 1760,
      "Ġplease": 1761,
      "Ġgently": 1762,
      "arr": 1763,
      "Ġclean": 1764,
      "ley": 1765,
      "Ġless": 1766,
      "uth": 1767,
      "Ġsing": 1768,
      "Ġslight": 1769,
      "Ġself": 1770,
      "Ġname": 1771,
      "ane": 1772,
      "Ġattention": 1773,
      "ĠWh": 1774,
      "ator": 1775,
      "Ġtowards": 1776,
      "Ġleave": 1777,
      "Ġphone": 1778,
      "ĠJust": 1779,
      "Ġhuge": 1780,
      "Ġjob": 1781,
      "aint": 1782,
      "Ġhear": 1783,
      "Ġsucking": 1784,
      "Ġclear": 1785,
      "Ġvar": 1786,
      "arent": 1787,
      "kes": 1788,
      "Ġneeded": 1789,
      "reet": 1790,
      "ines": 1791,
      "eah": 1792,
      "Ġleast": 1793,
      "Ġ201": 1794,
      "Ġreview": 1795,
      "Ġothers": 1796,
      "Ġwhis": 1797,
      "hancement": 1798,
      "Ġseeking": 1799,
      "Ġdark": 1800,
      "Ġfil": 1801,
      "Ġlou": 1802,
      "ature": 1803,
      "orth": 1804,
      "sel": 1805,
      "Ġsear": 1806,
      "Ġstri": 1807,
      "Ġdist": 1808,
      "antly": 1809,
      "att": 1810,
      "Ġz": 1811,
      "rie": 1812,
      "Ġhusband": 1813,
      "ality": 1814,
      "Ġsleep": 1815,
      "Ġoften": 1816,
      "Ġstraight": 1817,
      "iqu": 1818,
      "miss": 1819,
      "Ġhappy": 1820,
      "Ġbare": 1821,
      "Ġwatch": 1822,
      "Ġmoan": 1823,
      "ider": 1824,
      "Ġpants": 1825,
      "Ġclothes": 1826,
      "Ġstrong": 1827,
      "sed": 1828,
      "otion": 1829,
      "Ġinform": 1830,
      "eez": 1831,
      "Ġanal": 1832,
      "Ġbath": 1833,
      "Ġmov": 1834,
      "Ġmoney": 1835,
      "Ġyes": 1836,
      "And": 1837,
      "ĠFuck": 1838,
      "Ġexactly": 1839,
      "Ġeasy": 1840,
      "Ġcomes": 1841,
      "Ġbutt": 1842,
      "Ġsmo": 1843,
      "asturb": 1844,
      "Ġopp": 1845,
      "Ġthick": 1846,
      "lic": 1847,
      "Ġduring": 1848,
      "ump": 1849,
      "Ġref": 1850,
      "Ġdays": 1851,
      "Ġimport": 1852,
      "lar": 1853,
      "Ġisn": 1854,
      "enly": 1855,
      "Ġthighs": 1856,
      "Ġsatisf": 1857,
      "lled": 1858,
      "Ġlive": 1859,
      "ĠSh": 1860,
      "**": 1861,
      "Ġlonger": 1862,
      "Ġ0": 1863,
      "oose": 1864,
      "right": 1865,
      "iced": 1866,
      "Ġwearing": 1867,
      "aged": 1868,
      "Ġlow": 1869,
      "Ġsays": 1870,
      "Ġpast": 1871,
      "Ġund": 1872,
      "Ġwords": 1873,
      "Ġmusc": 1874,
      "Ġrep": 1875,
      "Ġpartic": 1876,
      "Ġgiving": 1877,
      "ins": 1878,
      "Ġsever": 1879,
      "ĠAd": 1880,
      "Ġfantas": 1881,
      "Ġproble": 1882,
      "Ġbro": 1883,
      "ille": 1884,
      "astic": 1885,
      "count": 1886,
      "Ġsites": 1887,
      "Ġworking": 1888,
      "ison": 1889,
      "osed": 1890,
      "ph": 1891,
      "hn": 1892,
      "Ġbreak": 1893,
      "--": 1894,
      "ĠOnly": 1895,
      "ĠBl": 1896,
      "ession": 1897,
      "Ġseveral": 1898,
      "Ġju": 1899,
      "ĠMe": 1900,
      "Ġcomfort": 1901,
      "de": 1902,
      "Ġreason": 1903,
      "orning": 1904,
      "Ġ/": 1905,
      "Ġamaz": 1906,
      "Ġtalking": 1907,
      "Ġocc": 1908,
      "Ġevent": 1909,
      "gn": 1910,
      "Ġfemale": 1911,
      "Ġfore": 1912,
      "Ġdeal": 1913,
      "Ġarea": 1914,
      "Ġpost": 1915,
      "Ġgener": 1916,
      "Yes": 1917,
      "la": 1918,
      "Ġbaby": 1919,
      "lex": 1920,
      "nde": 1921,
      "Ġstopped": 1922,
      "Ġgay": 1923,
      "head": 1924,
      "Ġnumber": 1925,
      "aces": 1926,
      "erv": 1927,
      "Ġwants": 1928,
      "Ġmine": 1929,
      "Ġentire": 1930,
      "Ġconvers": 1931,
      "Ġcalled": 1932,
      "eth": 1933,
      "irty": 1934,
      "Ġpossible": 1935,
      "Ġincre": 1936,
      "itive": 1937,
      "Ġbring": 1938,
      "Ġprom": 1939,
      "ues": 1940,
      "Ġexplo": 1941,
      "Ġscream": 1942,
      "ded": 1943,
      "ots": 1944,
      "Ġcond": 1945,
      "rist": 1946,
      "Ġdisco": 1947,
      "ches": 1948,
      "ork": 1949,
      "Ġbottom": 1950,
      "ĠLocal": 1951,
      "aving": 1952,
      "Ġair": 1953,
      "Ġhit": 1954,
      "Ġtoday": 1955,
      "iver": 1956,
      "Ġwaiting": 1957,
      "tt": 1958,
      "Ġsqueez": 1959,
      "selves": 1960,
      "Ġwide": 1961,
      "igg": 1962,
      "Ġdecided": 1963,
      "ength": 1964,
      "Ġsudd": 1965,
      "Ġapps": 1966,
      "aining": 1967,
      "man": 1968,
      "Ġclim": 1969,
      "night": 1970,
      "Ġapart": 1971,
      "sl": 1972,
      "Ġgas": 1973,
      "Ġeither": 1974,
      "Ġje": 1975,
      "Ġfig": 1976,
      "ows": 1977,
      "ĠÐ": 1978,
      "Ġsister": 1979,
      "Ġfur": 1980,
      "irc": 1981,
      "Ġprofile": 1982,
      "ĠNew": 1983,
      "Ġbook": 1984,
      "Ġhowever": 1985,
      "imes": 1986,
      "Ġrelax": 1987,
      "Ġplan": 1988,
      "ĠDon": 1989,
      "ky": 1990,
      "Ġmorning": 1991,
      "Ġthroat": 1992,
      "nding": 1993,
      "iding": 1994,
      "Ġmoaned": 1995,
      "ĠCar": 1996,
      "ube": 1997,
      "orny": 1998,
      "à¤": 1999,
      "Ġwouldn": 2000,
      "But": 2001,
      "Ġbuddy": 2002,
      "Ġclosed": 2003,
      "Ġlooks": 2004,
      "Ġmaybe": 2005,
      "iff": 2006,
      "land": 2007,
      "Ġshirt": 2008,
      "imul": 2009,
      "Ġloved": 2010,
      "kay": 2011,
      "ĠSome": 2012,
      "hel": 2013,
      "Ġmasturb": 2014,
      "Ġmoving": 2015,
      "Ġchild": 2016,
      "iny": 2017,
      "Ġtot": 2018,
      "cks": 2019,
      "Ġweb": 2020,
      "Ġarm": 2021,
      "Ġmiss": 2022,
      "Ġfall": 2023,
      "Ġvag": 2024,
      "fic": 2025,
      "ĠOnline": 2026,
      "Where": 2027,
      "hether": 2028,
      "acy": 2029,
      "Ġshower": 2030,
      "St": 2031,
      "Ġclass": 2032,
      "Well": 2033,
      "ids": 2034,
      "Please": 2035,
      "Ġanyone": 2036,
      "Ġboo": 2037,
      "ĠUn": 2038,
      "ails": 2039,
      "Ġimportant": 2040,
      "Ġ20": 2041,
      "Ġmed": 2042,
      "gr": 2043,
      "Ġbedroom": 2044,
      "ĠPenis": 2045,
      "Ġansw": 2046,
      "Ġshaft": 2047,
      "Ġtoys": 2048,
      "Ġharder": 2049,
      "Ġhole": 2050,
      "Ġmeans": 2051,
      "ets": 2052,
      "Ġwithin": 2053,
      "Ġperform": 2054,
      "Ġfirm": 2055,
      "ai": 2056,
      "Ġnude": 2057,
      "Ġdra": 2058,
      "Ġfoot": 2059,
      "Ġimag": 2060,
      "There": 2061,
      "Ġpat": 2062,
      "Ġexperien": 2063,
      "ustom": 2064,
      "aken": 2065,
      "Ġeye": 2066,
      "ĠGirl": 2067,
      "pered": 2068,
      "Ġweek": 2069,
      "Ġdefin": 2070,
      "ey": 2071,
      "Ġpar": 2072,
      "Ġsucked": 2073,
      "Ġabs": 2074,
      "cially": 2075,
      "ĠOr": 2076,
      "uri": 2077,
      "Ġtrans": 2078,
      "Ġadm": 2079,
      "ents": 2080,
      "Ġfamily": 2081,
      "Ġremember": 2082,
      "Ġpen": 2083,
      "Ġdirect": 2084,
      "Ġrather": 2085,
      "istress": 2086,
      "Ġfour": 2087,
      "Ġkissing": 2088,
      "Ġ8": 2089,
      "Ġlady": 2090,
      "ery": 2091,
      "reme": 2092,
      "Ġnatur": 2093,
      "omin": 2094,
      "medi": 2095,
      "Ġmatter": 2096,
      "Ġgame": 2097,
      "Ġlead": 2098,
      "ĠGod": 2099,
      "Ġnod": 2100,
      "Ġchange": 2101,
      "Ġlength": 2102,
      "ales": 2103,
      "Ġadv": 2104,
      "Ġneeds": 2105,
      "ĠOf": 2106,
      "Ġdild": 2107,
      "Ġ10": 2108,
      "Ġform": 2109,
      "Ġsaying": 2110,
      "Ġcheck": 2111,
      "aughter": 2112,
      "Ġcount": 2113,
      "Ġdem": 2114,
      "Ġguess": 2115,
      "ĊĊĠ": 2116,
      "Ġstimul": 2117,
      "Ġpriv": 2118,
      "ird": 2119,
      "Ġslightly": 2120,
      "zy": 2121,
      "chen": 2122,
      "ĠFind": 2123,
      "yle": 2124,
      "20": 2125,
      "ili": 2126,
      "Ġlift": 2127,
      "Ġ&": 2128,
      "cl": 2129,
      "Ġcurrent": 2130,
      "Ġcertainly": 2131,
      "Ġfre": 2132,
      "ising": 2133,
      "Ġhours": 2134,
      "Ġimmedi": 2135,
      "action": 2136,
      "Ġteen": 2137,
      "Ġeffect": 2138,
      "Ġsitting": 2139,
      "Ġeveryone": 2140,
      "ÂłĊ": 2141,
      "Ġcolle": 2142,
      "Ġdesire": 2143,
      "ote": 2144,
      "ously": 2145,
      "Ġ7": 2146,
      "Ġdream": 2147,
      "Ġleaned": 2148,
      "hole": 2149,
      "net": 2150,
      "Ġquestion": 2151,
      "Ġhappened": 2152,
      "ĠLe": 2153,
      "aj": 2154,
      "Ġsitu": 2155,
      "Ġtakes": 2156,
      "Ġstret": 2157,
      "....": 2158,
      "Ġwrong": 2159,
      "Ġfeels": 2160,
      "ghed": 2161,
      "ĠOne": 2162,
      "Ġlaugh": 2163,
      "Ġalone": 2164,
      "empt": 2165,
      "Ġsugg": 2166,
      "reen": 2167,
      "Ġsuggest": 2168,
      "Ġeng": 2169,
      "ups": 2170,
      "ĠCasual": 2171,
      "Ġstanding": 2172,
      "Ġcirc": 2173,
      "Ġproduct": 2174,
      "Ġbuild": 2175,
      "Ġsort": 2176,
      "Ġinclud": 2177,
      "rought": 2178,
      "unk": 2179,
      "Ġpulling": 2180,
      "ĠSc": 2181,
      "Ġfast": 2182,
      "Ġholding": 2183,
      "ĠWomen": 2184,
      "On": 2185,
      "Ġmil": 2186,
      "ser": 2187,
      "lling": 2188,
      "ĠHowever": 2189,
      "ec": 2190,
      "Ġworked": 2191,
      "Ġpop": 2192,
      "Ġexam": 2193,
      "Ġwebsite": 2194,
      "Ġcommun": 2195,
      "oun": 2196,
      "Ġerotic": 2197,
      "Ġappear": 2198,
      ").": 2199,
      "ĠZ": 2200,
      "aging": 2201,
      "ists": 2202,
      "ĠMr": 2203,
      "Do": 2204,
      "ĠX": 2205,
      "Ġnoticed": 2206,
      "Ġabove": 2207,
      "Ġoffer": 2208,
      "Ġalthough": 2209,
      "gy": 2210,
      "Ġson": 2211,
      "Ġ9": 2212,
      "ption": 2213,
      "Ġter": 2214,
      "Ġcontent": 2215,
      "ock": 2216,
      "Ġang": 2217,
      "ĠApp": 2218,
      "ĠOh": 2219,
      "ograp": 2220,
      "Ġdam": 2221,
      "Ġlikely": 2222,
      "Ġpersonal": 2223,
      "Ġvideos": 2224,
      "lly": 2225,
      "ĠCan": 2226,
      "Ġbas": 2227,
      "Ġtip": 2228,
      "Ġrece": 2229,
      "Ġpills": 2230,
      "Ġsy": 2231,
      "Ġtrue": 2232,
      "fer": 2233,
      "alth": 2234,
      "ĠMom": 2235,
      "itely": 2236,
      "Ġreplied": 2237,
      "ring": 2238,
      "201": 2239,
      "Ġbrought": 2240,
      "Ġbene": 2241,
      "Ġlaughed": 2242,
      "Ġgri": 2243,
      "Ġtype": 2244,
      "Ġdin": 2245,
      "Ġorder": 2246,
      "Ġoutside": 2247,
      "ibly": 2248,
      "uc": 2249,
      "where": 2250,
      "Ġbrother": 2251,
      "Ġpract": 2252,
      "Ġtaste": 2253,
      "esb": 2254,
      "Ġdisc": 2255,
      "play": 2256,
      "Ġlevel": 2257,
      "ĠTr": 2258,
      "Ġgrou": 2259,
      "Ġconversation": 2260,
      "ĠJen": 2261,
      "Ġwra": 2262,
      "ara": 2263,
      "âĢĶ": 2264,
      "ville": 2265,
      "Ġinterested": 2266,
      "ager": 2267,
      "Ġtre": 2268,
      "asing": 2269,
      "Ġdou": 2270,
      "adies": 2271,
      "bers": 2272,
      "Ġround": 2273,
      "Ġcontact": 2274,
      "orry": 2275,
      "Ġbusiness": 2276,
      "Ġnorm": 2277,
      "Ġencounters": 2278,
      "Ġbecame": 2279,
      "Ġamazing": 2280,
      "ox": 2281,
      "Ġpassion": 2282,
      "acing": 2283,
      "Ġprostitutes": 2284,
      "Ġskirt": 2285,
      "ww": 2286,
      "Ġcase": 2287,
      "ams": 2288,
      "Ġwaist": 2289,
      "che": 2290,
      "Ġcloser": 2291,
      "Ġage": 2292,
      "Ġparticular": 2293,
      "velo": 2294,
      "Ġgrin": 2295,
      "Ġimmediately": 2296,
      "Ġcustom": 2297,
      "Ġwish": 2298,
      "Ġchance": 2299,
      "Ġhorny": 2300,
      "Ġmag": 2301,
      "Ġarou": 2302,
      "ains": 2303,
      "Ġwind": 2304,
      "ique": 2305,
      "ires": 2306,
      "Ġstep": 2307,
      "addy": 2308,
      "Ġsingle": 2309,
      "Ġload": 2310,
      "imate": 2311,
      "orge": 2312,
      "Ġsafe": 2313,
      "Ġstate": 2314,
      "Ġslut": 2315,
      "Ġrubbing": 2316,
      "Ġfurther": 2317,
      "Ġusually": 2318,
      "Ġtaken": 2319,
      "ica": 2320,
      "ffe": 2321,
      "ushed": 2322,
      "Ġinf": 2323,
      "Ġgone": 2324,
      "pecially": 2325,
      "Ġphys": 2326,
      "Ġstuff": 2327,
      "ĠJohn": 2328,
      "Ġloc": 2329,
      "Ġfocus": 2330,
      "Ġgrow": 2331,
      "ĠMen": 2332,
      "Lo": 2333,
      "Ġsmell": 2334,
      "Ġcaught": 2335,
      "Ġindividuals": 2336,
      "but": 2337,
      "Ä±": 2338,
      "Ġline": 2339,
      "Ġspecial": 2340,
      "ĠProstitutes": 2341,
      "Ġresult": 2342,
      "Ġbox": 2343,
      "Ġsense": 2344,
      "Ġbathroom": 2345,
      "Ġlicked": 2346,
      "airs": 2347,
      "Ġgirlfriend": 2348,
      "Ġsuddenly": 2349,
      "Ġcreat": 2350,
      "vi": 2351,
      "Ġjer": 2352,
      "Ġobvious": 2353,
      "Ġloud": 2354,
      "Ġpun": 2355,
      "Ġenhancement": 2356,
      "Ġpressed": 2357,
      "Ġchair": 2358,
      "sex": 2359,
      "Ġaddition": 2360,
      "vices": 2361,
      "Ġliving": 2362,
      "lor": 2363,
      "Ġseeing": 2364,
      "Ġhappen": 2365,
      "Ġago": 2366,
      "Ġhope": 2367,
      "Ġparty": 2368,
      "Ġblow": 2369,
      "Ġfell": 2370,
      "Ġcompl": 2371,
      "Ġhon": 2372,
      "Ġdep": 2373,
      "Ġreve": 2374,
      "ĠMay": 2375,
      "ĠLike": 2376,
      "Ġlicking": 2377,
      "After": 2378,
      "Ġcheeks": 2379,
      "Ġextreme": 2380,
      "Ġliked": 2381,
      "enty": 2382,
      "Ġtext": 2383,
      "Ġproblem": 2384,
      "Ġshit": 2385,
      "Ã©": 2386,
      "cha": 2387,
      "oke": 2388,
      "oss": 2389,
      "Ġdiscus": 2390,
      "Ġslave": 2391,
      "Ġmarried": 2392,
      "Ġstick": 2393,
      "ĠQu": 2394,
      "Ġrespond": 2395,
      "Ġut": 2396,
      "Ġpicture": 2397,
      "alm": 2398,
      "Ġmater": 2399,
      "ĠDan": 2400,
      "Ġclub": 2401,
      "ĠGet": 2402,
      "Ġplaying": 2403,
      "ĠPl": 2404,
      "Ġstom": 2405,
      "Ġhurt": 2406,
      "ism": 2407,
      "Ġwalk": 2408,
      "Ġwhispered": 2409,
      "avorite": 2410,
      "Ġinches": 2411,
      "Ġaccount": 2412,
      "Ġcut": 2413,
      "Ġtest": 2414,
      "Ġuser": 2415,
      "Ġreco": 2416,
      "Ðµ": 2417,
      "Ġlim": 2418,
      "Ġinvol": 2419,
      "ĠCl": 2420,
      "pend": 2421,
      "ster": 2422,
      "10": 2423,
      "Ġquiet": 2424,
      "ooking": 2425,
      "Ġfit": 2426,
      "Ġthemselves": 2427,
      "uct": 2428,
      "Ġprep": 2429,
      "Ġshot": 2430,
      "Fans": 2431,
      "Ġspeak": 2432,
      "Ġwhether": 2433,
      "Ġfive": 2434,
      "Ġwild": 2435,
      "Ġparent": 2436,
      "An": 2437,
      "Ð¾": 2438,
      "Ġrunning": 2439,
      "Now": 2440,
      "Ġpictures": 2441,
      "slist": 2442,
      "Ġcaus": 2443,
      "Ġshoulders": 2444,
      "Ġbeha": 2445,
      "ele": 2446,
      "olog": 2447,
      "Ġpush": 2448,
      "Ġhookers": 2449,
      "Ġmaterial": 2450,
      "Ġsuper": 2451,
      "Ġtreat": 2452,
      "und": 2453,
      "irth": 2454,
      "Ġappe": 2455,
      "ugg": 2456,
      "Ġev": 2457,
      "Ġglass": 2458,
      "Ġdiffic": 2459,
      "Ġdifficult": 2460,
      "Ġservice": 2461,
      "Ġdefinitely": 2462,
      "Ġcover": 2463,
      "Ġprovide": 2464,
      "Ġserious": 2465,
      "Ġcomfortable": 2466,
      "Ġtyp": 2467,
      "Ġstories": 2468,
      "Ġhang": 2469,
      "orr": 2470,
      "Ġlate": 2471,
      "izing": 2472,
      "ĠBy": 2473,
      "haps": 2474,
      "Ġblood": 2475,
      "Ġshorts": 2476,
      "Ġemb": 2477,
      "Ġwall": 2478,
      "Ġnipple": 2479,
      "Ġanswer": 2480,
      "Ġacc": 2481,
      "Ġfeelings": 2482,
      "igslist": 2483,
      "ĠEx": 2484,
      "ze": 2485,
      "ilar": 2486,
      "Ġstomach": 2487,
      "ortun": 2488,
      "lesh": 2489,
      "They": 2490,
      "Ġiss": 2491,
      "Ġshare": 2492,
      "rence": 2493,
      "Ġcovered": 2494,
      "een": 2495,
      "Ġconst": 2496,
      "Ġdildo": 2497,
      "ĠWhy": 2498,
      "Ġhell": 2499,
      "yl": 2500,
      "Ġfather": 2501,
      "ples": 2502,
      "Ġnodded": 2503,
      "ailable": 2504,
      "Ġ200": 2505,
      "ution": 2506,
      "Rep": 2507,
      "Ġsent": 2508,
      "ners": 2509,
      "Ġbecom": 2510,
      "Ġinformation": 2511,
      "Ġmonths": 2512,
      "Ġfinished": 2513,
      "ital": 2514,
      "Ġsuc": 2515,
      "ĠThese": 2516,
      "era": 2517,
      "Ġlost": 2518,
      "iter": 2519,
      "Ġrealized": 2520,
      "Ġhadn": 2521,
      "Ġlearn": 2522,
      "Ġpol": 2523,
      "Ġknown": 2524,
      "use": 2525,
      "Ġarri": 2526,
      "Ġways": 2527,
      "Ġsmooth": 2528,
      "Ġconnection": 2529,
      "oint": 2530,
      "Ġswall": 2531,
      "ĠAr": 2532,
      "aling": 2533,
      "Ġheav": 2534,
      "ĠSp": 2535,
      "Ġasshole": 2536,
      "Ġfilled": 2537,
      "Ġdisapp": 2538,
      "Ġknows": 2539,
      "irst": 2540,
      "Ġfine": 2541,
      "Ġladies": 2542,
      "Ġconsider": 2543,
      "oc": 2544,
      "ĠPict": 2545,
      "Ġla": 2546,
      "ended": 2547,
      "Ġolder": 2548,
      "sp": 2549,
      "Ġsimple": 2550,
      "Ġactiv": 2551,
      "Ġsecret": 2552,
      "ĠOnlyFans": 2553,
      "Ġcent": 2554,
      "Ġtonight": 2555,
      "oring": 2556,
      "Ġexcited": 2557,
      "Ġfeat": 2558,
      "ask": 2559,
      "Ġ19": 2560,
      "Ġinstead": 2561,
      "gement": 2562,
      "Ġeat": 2563,
      "Ġmeeting": 2564,
      "Ġespecially": 2565,
      "Ġdeeper": 2566,
      "iddle": 2567,
      "Ġslipped": 2568,
      "Ġevening": 2569,
      "owed": 2570,
      "url": 2571,
      "Ġrock": 2572,
      "Ġremo": 2573,
      "Ġru": 2574,
      "Ġwonderful": 2575,
      "rying": 2576,
      "Ġscene": 2577,
      "Ġ18": 2578,
      "Ġeff": 2579,
      "For": 2580,
      "Ġunc": 2581,
      "ĠWell": 2582,
      "Ġpound": 2583,
      "Ġspec": 2584,
      "Ġshoulder": 2585,
      "ĠMale": 2586,
      "ĠEvery": 2587,
      "inger": 2588,
      "Ġpack": 2589,
      "comm": 2590,
      "Ġgoes": 2591,
      "ĠSites": 2592,
      "Ġval": 2593,
      "umped": 2594,
      "ĠNear": 2595,
      "ĠSte": 2596,
      "icked": 2597,
      "Ġeasily": 2598,
      "Ġboys": 2599,
      "ĠCom": 2600,
      "Ġhung": 2601,
      "uly": 2602,
      "Ġdaughter": 2603,
      "Ġcouch": 2604,
      "ively": 2605,
      "Ġpublic": 2606,
      "Ġgiven": 2607,
      "//": 2608,
      "ĠAsh": 2609,
      "of": 2610,
      "ration": 2611,
      "ield": 2612,
      "Ġsituation": 2613,
      "olute": 2614,
      "Ġaren": 2615,
      "Ġgroup": 2616,
      "Ġtoward": 2617,
      "ange": 2618,
      "Ġones": 2619,
      "anger": 2620,
      "Ġprot": 2621,
      "ĠHook": 2622,
      "Ġplaced": 2623,
      "Ġdressed": 2624,
      "Ġminute": 2625,
      "Ġtor": 2626,
      "ges": 2627,
      "Ġregard": 2628,
      "not": 2629,
      "for": 2630,
      "Ġconcer": 2631,
      "Ġleaving": 2632,
      "Ġworth": 2633,
      "Ġbod": 2634,
      "Ġpushing": 2635,
      "Ġwrapped": 2636,
      "Ġseems": 2637,
      "Ġcompany": 2638,
      "irgin": 2639,
      "ience": 2640,
      "Ġdevelo": 2641,
      "Ġtotally": 2642,
      "ones": 2643,
      "Report": 2644,
      "ulf": 2645,
      "Ġenjoying": 2646,
      "Ġblonde": 2647,
      "Ġpink": 2648,
      "Ġ|": 2649,
      "Ġwear": 2650,
      "ĠPe": 2651,
      "Ġblue": 2652,
      "entle": 2653,
      "Ġur": 2654,
      "Ġfully": 2655,
      "Ġmessage": 2656,
      "Ġdirty": 2657,
      "Ġsoftly": 2658,
      "ok": 2659,
      "ination": 2660,
      "Ġboyfriend": 2661,
      "itch": 2662,
      "Ð°": 2663,
      "Ġextra": 2664,
      "Ġseat": 2665,
      "Ġdinner": 2666,
      "://": 2667,
      "hod": 2668,
      "Ġtrou": 2669,
      "Ġspan": 2670,
      "men": 2671,
      "),": 2672,
      "Ġenc": 2673,
      "Ġsocial": 2674,
      "ĠJack": 2675,
      "Ġlesb": 2676,
      "used": 2677,
      "Ġincred": 2678,
      "mb": 2679,
      "Ġsed": 2680,
      "mission": 2681,
      "ances": 2682,
      "more": 2683,
      "come": 2684,
      "Ġcat": 2685,
      "lt": 2686,
      "Ġpresent": 2687,
      "Ġkit": 2688,
      "unch": 2689,
      "largement": 2690,
      "With": 2691,
      "Ġbag": 2692,
      "Ġphotos": 2693,
      "ĠStory": 2694,
      "Ġcor": 2695,
      "ĠSee": 2696,
      "Ø§": 2697,
      "Ġattempt": 2698,
      "Ġdraw": 2699,
      "Ġbes": 2700,
      "Ġservices": 2701,
      "Ġlifted": 2702,
      "ĠGu": 2703,
      "mp": 2704,
      "ana": 2705,
      "Ġaccept": 2706,
      "Ġintense": 2707,
      "Ġedge": 2708,
      "Ġmain": 2709,
      "Ġspend": 2710,
      "Ġnatural": 2711,
      "aching": 2712,
      "Ġdesign": 2713,
      "idence": 2714,
      "Local": 2715,
      "Ġfet": 2716,
      "Ġwhatever": 2717,
      "Ġavailable": 2718,
      "Ġtech": 2719,
      "ĠLove": 2720,
      "Ġerect": 2721,
      "ume": 2722,
      "ĠQC": 2723,
      "ĠUser": 2724,
      "Ġoffice": 2725,
      "Ġlust": 2726,
      "Ġreach": 2727,
      "ape": 2728,
      "Ġsearch": 2729,
      "ĠTw": 2730,
      "ĠGr": 2731,
      "Ġknowing": 2732,
      "Ġsend": 2733,
      "ĠWhile": 2734,
      "Ġbase": 2735,
      "12": 2736,
      "Ġlower": 2737,
      "Ġcream": 2738,
      "Ġerection": 2739,
      "Her": 2740,
      "Ġopportun": 2741,
      "Ġfair": 2742,
      "Ġdrive": 2743,
      "ĠEven": 2744,
      "go": 2745,
      "Ġmention": 2746,
      "Be": 2747,
      "Ġrubbed": 2748,
      "Ġspot": 2749,
      "Ġdomin": 2750,
      "Ġest": 2751,
      "Ġenjoyed": 2752,
      "aur": 2753,
      "Ġletting": 2754,
      "Ġmovie": 2755,
      "Ġagre": 2756,
      "Ġexpress": 2757,
      "ĠWhere": 2758,
      "Ġsun": 2759,
      "Ġparents": 2760,
      "Ġmark": 2761,
      "Your": 2762,
      "Ġsix": 2763,
      "ĠPicture": 2764,
      "zz": 2765,
      "ender": 2766,
      "rodu": 2767,
      "onna": 2768,
      "Ġaction": 2769,
      "vert": 2770,
      "Ġdescri": 2771,
      "ises": 2772,
      "Ġdad": 2773,
      "ĠFree": 2774,
      "son": 2775,
      "Ġlaid": 2776,
      "ĠGo": 2777,
      "Ġele": 2778,
      "Ġclient": 2779,
      "ney": 2780,
      "Ġwilling": 2781,
      "Ġappre": 2782,
      "anced": 2783,
      "ĠMad": 2784,
      "Ġ#": 2785,
      "Ġtrust": 2786,
      "Ġcool": 2787,
      "Ġbigger": 2788,
      "Ġprivate": 2789,
      "Al": 2790,
      "Ġten": 2791,
      "Ġnon": 2792,
      "Ġcharac": 2793,
      "Ġdiscover": 2794,
      "light": 2795,
      "ĠGirls": 2796,
      "Ġamount": 2797,
      "Ġgentle": 2798,
      "Ġtow": 2799,
      "Ġthoughts": 2800,
      "Ġsol": 2801,
      "Ġinternet": 2802,
      "Ġearly": 2803,
      "ift": 2804,
      "Ġaccess": 2805,
      "Ġtelling": 2806,
      "Ġsomebody": 2807,
      "ĠLet": 2808,
      "Ġfollowed": 2809,
      "Ġord": 2810,
      "Ġfaster": 2811,
      "iles": 2812,
      "rief": 2813,
      "Ġabsolute": 2814,
      "Ġsurprised": 2815,
      "Ġcollege": 2816,
      "Ġhealth": 2817,
      "ĠFrom": 2818,
      "Ġsometimes": 2819,
      "ĠOnce": 2820,
      "ĠKe": 2821,
      "Ġsorry": 2822,
      "ilt": 2823,
      "Ġcost": 2824,
      "Ġvagina": 2825,
      "ants": 2826,
      "Ġchoose": 2827,
      "Re": 2828,
      "ĠThan": 2829,
      "Ġjeans": 2830,
      "aves": 2831,
      "Ġsuccess": 2832,
      "Ġener": 2833,
      "apan": 2834,
      "ipping": 2835,
      "cious": 2836,
      "ency": 2837,
      "Ġbur": 2838,
      "Ġcontinue": 2839,
      "irr": 2840,
      "ceed": 2841,
      "ium": 2842,
      "Ġve": 2843,
      "andy": 2844,
      "Ġmiddle": 2845,
      "ĠSam": 2846,
      "Ġlif": 2847,
      "Ġ$": 2848,
      "Ġspent": 2849,
      "Ġbuy": 2850,
      "Ġmethod": 2851,
      "Ġobs": 2852,
      "Ġrespect": 2853,
      "ential": 2854,
      "Ġattractive": 2855,
      "ĠApps": 2856,
      "istic": 2857,
      "Ġground": 2858,
      "Ġvarious": 2859,
      "Ġkitchen": 2860,
      "ĠHar": 2861,
      "Ġbitch": 2862,
      "otch": 2863,
      "ĠYes": 2864,
      "ĠRo": 2865,
      "Ġtown": 2866,
      "Ġfat": 2867,
      "itted": 2868,
      "ĠCra": 2869,
      "erc": 2870,
      "ision": 2871,
      "wise": 2872,
      "Ġpopular": 2873,
      "Don": 2874,
      "Ġpie": 2875,
      "ugged": 2876,
      "arrass": 2877,
      "ese": 2878,
      "Ġchoice": 2879,
      "Ġnearly": 2880,
      "arc": 2881,
      "Ġcold": 2882,
      "ands": 2883,
      "Ġfigure": 2884,
      "Ġnotice": 2885,
      "Ġsal": 2886,
      "Ġaf": 2887,
      "Ġextremely": 2888,
      "Ġsurprise": 2889,
      "Ġrom": 2890,
      "Ġpot": 2891,
      "Ġsupport": 2892,
      "Ġflesh": 2893,
      "Ġstroking": 2894,
      "Ġvi": 2895,
      "Ġvisit": 2896,
      "aughty": 2897,
      "Ġmembers": 2898,
      "Ġpicked": 2899,
      "ĠAshley": 2900,
      "Ġwebsites": 2901,
      "Ġpin": 2902,
      "Fuck": 2903,
      "how": 2904,
      "asms": 2905,
      "Ġhookup": 2906,
      "oid": 2907,
      "pper": 2908,
      "Ġpair": 2909,
      "Ġstarting": 2910,
      "Ġmis": 2911,
      "onse": 2912,
      "Ġinch": 2913,
      "Ġdropped": 2914,
      "Ġhonest": 2915,
      "ls": 2916,
      "ĠTom": 2917,
      "mer": 2918,
      "Ġsight": 2919,
      "Ġrolled": 2920,
      "Ġrelationships": 2921,
      "Ġgigg": 2922,
      "Ġbreathing": 2923,
      "Ġtruly": 2924,
      "Ġlover": 2925,
      "Ġcreate": 2926,
      "Ġembarrass": 2927,
      "itions": 2928,
      "Ġhuman": 2929,
      "hhhh": 2930,
      "Ġemp": 2931,
      "ĠChrist": 2932,
      "asc": 2933,
      "Ġseconds": 2934,
      "Ġcamera": 2935,
      "Ġfight": 2936,
      "Ġcommunic": 2937,
      "ext": 2938,
      "Ġappreci": 2939,
      "Then": 2940,
      "Ġprocess": 2941,
      "Ġstepped": 2942,
      "girl": 2943,
      "va": 2944,
      "Ġweeks": 2945,
      "Ġcity": 2946,
      "Ġsuit": 2947,
      "Ġstarts": 2948,
      "Ġjoin": 2949,
      "Ġforth": 2950,
      "like": 2951,
      "Ġexcept": 2952,
      "course": 2953,
      "ma": 2954,
      "gu": 2955,
      "Ġforce": 2956,
      "ship": 2957,
      "Ġart": 2958,
      "ĠMan": 2959,
      "bbing": 2960,
      "Ġaff": 2961,
      "ĠAlex": 2962,
      "Ġeffort": 2963,
      "Ġoffe": 2964,
      "Ġnormal": 2965,
      "Ġokay": 2966,
      "Ġmuscles": 2967,
      "ÑĤ": 2968,
      "Ġmaj": 2969,
      "Ġdiscuss": 2970,
      "hile": 2971,
      "Ġopt": 2972,
      "Ġsweat": 2973,
      "Ġequ": 2974,
      "Ġda": 2975,
      "isa": 2976,
      "Ġfollowing": 2977,
      "Ġtiny": 2978,
      "emp": 2979,
      "Ġboobs": 2980,
      "Ġcommon": 2981,
      "xxx": 2982,
      "Ġjuices": 2983,
      "Ġori": 2984,
      "Ġproper": 2985,
      "ray": 2986,
      "asy": 2987,
      "Ġcurrently": 2988,
      "ole": 2989,
      "Ġfantastic": 2990,
      "Ġvibrator": 2991,
      "yn": 2992,
      "ĠJe": 2993,
      "Ġmodel": 2994,
      "ety": 2995,
      "Ġupon": 2996,
      "Ġet": 2997,
      "iety": 2998,
      "illy": 2999,
      "Ġfire": 3000,
      "ĠON": 3001,
      "Ġquestions": 3002,
      "Ġpowerful": 3003,
      "ĠSe": 3004,
      "Ġopening": 3005,
      "fa": 3006,
      "Not": 3007,
      "Yeah": 3008,
      "hood": 3009,
      "ican": 3010,
      "Ġgod": 3011,
      "Ġgonna": 3012,
      "tered": 3013,
      "Ġaware": 3014,
      "Ġmeant": 3015,
      "ĠPer": 3016,
      "Ġbelly": 3017,
      "Ġquality": 3018,
      "Ġclimax": 3019,
      "Ġpenet": 3020,
      "Ġclitor": 3021,
      "Ġplaces": 3022,
      "Ġann": 3023,
      "Ġcorn": 3024,
      "lish": 3025,
      "Ġslide": 3026,
      "what": 3027,
      "ĠâĢĶ": 3028,
      "ards": 3029,
      "Ġluck": 3030,
      "anding": 3031,
      "Ġnerv": 3032,
      "Ġshook": 3033,
      "Ġpressure": 3034,
      "ĠPorn": 3035,
      "Ġfear": 3036,
      "ĠFe": 3037,
      "Ġmatch": 3038,
      "Ġraised": 3039,
      "Ġbrief": 3040,
      "Ġwanting": 3041,
      "ĠSub": 3042,
      "Ġ[": 3043,
      "Ġemotion": 3044,
      "ishing": 3045,
      "Ġball": 3046,
      "...\"": 3047,
      "pri": 3048,
      "load": 3049,
      "Ġing": 3050,
      "amp": 3051,
      "lier": 3052,
      "resh": 3053,
      "ĠBlack": 3054,
      "asion": 3055,
      "let": 3056,
      "Ġbent": 3057,
      "ĠSha": 3058,
      "Ġfeatures": 3059,
      "isted": 3060,
      "Ġcrotch": 3061,
      "Ġconnect": 3062,
      "Ġlots": 3063,
      "Ġreturned": 3064,
      "ĠInd": 3065,
      "Ġfinding": 3066,
      "vin": 3067,
      "Ġx": 3068,
      "ension": 3069,
      "Ġforced": 3070,
      "Ġcondom": 3071,
      "ified": 3072,
      "Just": 3073,
      "Ġpool": 3074,
      "wear": 3075,
      "ries": 3076,
      "Ġdog": 3077,
      "rest": 3078,
      "ette": 3079,
      "ĠMic": 3080,
      "Ġcap": 3081,
      "Ġfulf": 3082,
      "Ġasking": 3083,
      "Ġkids": 3084,
      "ĠCon": 3085,
      "Ġworry": 3086,
      "Ġpill": 3087,
      "ER": 3088,
      "Ġprefer": 3089,
      "ĠEncounters": 3090,
      "ivers": 3091,
      "cam": 3092,
      "Ġbelow": 3093,
      "inally": 3094,
      "Ġmovies": 3095,
      "ini": 3096,
      "Ġmajor": 3097,
      "23": 3098,
      "ĠAng": 3099,
      "just": 3100,
      "Ġheat": 3101,
      "11": 3102,
      "Ġfood": 3103,
      "Ġfut": 3104,
      "Ġdelic": 3105,
      "Ġamong": 3106,
      "orgeous": 3107,
      "Ġmot": 3108,
      "ĠWill": 3109,
      "Ġdoll": 3110,
      "Ġgives": 3111,
      "Ġbeginning": 3112,
      "Ġputting": 3113,
      "Ġring": 3114,
      "Ġrough": 3115,
      "ĠHave": 3116,
      "ctor": 3117,
      "Ġlub": 3118,
      "aled": 3119,
      "Ġ15": 3120,
      "Ð²": 3121,
      "ĠCha": 3122,
      "Ġdue": 3123,
      "Ġitem": 3124,
      "Ġwin": 3125,
      "Ġsensation": 3126,
      "Ġintercourse": 3127,
      "Ġlikes": 3128,
      "Ġshowing": 3129,
      "Ġdelight": 3130,
      "Ġkill": 3131,
      "ris": 3132,
      "Ġtouched": 3133,
      "Ġweight": 3134,
      "itement": 3135,
      "ĠPh": 3136,
      "aul": 3137,
      "Ġstreet": 3138,
      "rect": 3139,
      "Ġdiv": 3140,
      "Ġworks": 3141,
      "fuck": 3142,
      "ĠLoc": 3143,
      "Ġcompan": 3144,
      "Ġshoot": 3145,
      "Ġcute": 3146,
      "Ġbul": 3147,
      "Ġloves": 3148,
      "Ġbarely": 3149,
      "Ġopportunity": 3150,
      "par": 3151,
      "Ġtit": 3152,
      "ior": 3153,
      "Sex": 3154,
      "erve": 3155,
      "Ġteeth": 3156,
      "Ġcrazy": 3157,
      "Ġhers": 3158,
      "atar": 3159,
      "Ġdance": 3160,
      "riage": 3161,
      "ateur": 3162,
      "Ġbehavi": 3163,
      "Ġbat": 3164,
      "cell": 3165,
      "job": 3166,
      "Ġstiff": 3167,
      "Ġinit": 3168,
      "Ġcross": 3169,
      "onym": 3170,
      "Ġcomment": 3171,
      "Ġtall": 3172,
      "Ġvirgin": 3173,
      "Ġwalking": 3174,
      "Ġshows": 3175,
      "stem": 3176,
      "Ġreleas": 3177,
      "Ġdev": 3178,
      "Ġtruth": 3179,
      "Ġflat": 3180,
      "Backpage": 3181,
      "ĠSm": 3182,
      "chie": 3183,
      "aning": 3184,
      "Ġstrugg": 3185,
      "ĠKat": 3186,
      "Ġturns": 3187,
      "Ġyell": 3188,
      "do": 3189,
      "Ġexcitement": 3190,
      "raid": 3191,
      "Ġstroke": 3192,
      "ases": 3193,
      "edd": 3194,
      "Ġtouching": 3195,
      "Are": 3196,
      "Ġchanged": 3197,
      "Ġscen": 3198,
      "Ġresponse": 3199,
      "Ġrecogn": 3200,
      "Ġlesbian": 3201,
      "lle": 3202,
      "acul": 3203,
      "ially": 3204,
      "arah": 3205,
      "Ġbutton": 3206,
      "Ġled": 3207,
      "Ġincrease": 3208,
      "Ġbodies": 3209,
      "Ġemail": 3210,
      "Ġadded": 3211,
      "Ġabsolutely": 3212,
      "Ġhes": 3213,
      "Ġprofession": 3214,
      "Ġphysical": 3215,
      "ĊĊ": 3216,
      "Ġregular": 3217,
      "Ġcheek": 3218,
      "Ġlat": 3219,
      "Ġfantasy": 3220,
      "Ġchildren": 3221,
      "Ġremoved": 3222,
      "esome": 3223,
      "Ġmusic": 3224,
      "ffee": 3225,
      "ĠMost": 3226,
      "ĠDr": 3227,
      "Ġsliding": 3228,
      "ama": 3229,
      "Ġsimilar": 3230,
      "ĠCol": 3231,
      "Ġenergy": 3232,
      "ĠOur": 3233,
      "HH": 3234,
      "got": 3235,
      "Ġfavorite": 3236,
      "ĠPr": 3237,
      "000": 3238,
      "ĠFl": 3239,
      "Ġpet": 3240,
      "Ġshut": 3241,
      "Ġfulfill": 3242,
      "ĠAb": 3243,
      "sure": 3244,
      "Ġreading": 3245,
      "Ġrequire": 3246,
      "uthor": 3247,
      "Ġ12": 3248,
      "fit": 3249,
      "ta": 3250,
      "Ġkink": 3251,
      "ĠSince": 3252,
      "Ġpassed": 3253,
      "ĠDid": 3254,
      "Ġstore": 3255,
      "boy": 3256,
      "Ġpartners": 3257,
      "Ġinde": 3258,
      "Ġforget": 3259,
      "Ġlap": 3260,
      "ĠMark": 3261,
      "Ġgasped": 3262,
      "Ġdrop": 3263,
      "Ġexample": 3264,
      "Ġutil": 3265,
      "Ġstre": 3266,
      "cause": 3267,
      "Ġgorgeous": 3268,
      "Ġsounds": 3269,
      "âĢ¦âĢĿ": 3270,
      "Ġorgasms": 3271,
      "Ġwond": 3272,
      "Ġearlier": 3273,
      "bo": 3274,
      "Ġcla": 3275,
      "Ġteasing": 3276,
      "kend": 3277,
      "Ġdesk": 3278,
      "inct": 3279,
      "rand": 3280,
      "ĠMadison": 3281,
      "Ġdan": 3282,
      "gar": 3283,
      "back": 3284,
      "Ġmoaning": 3285,
      "Ġlip": 3286,
      "inal": 3287,
      "IN": 3288,
      "Ġperhaps": 3289,
      "Ġprevious": 3290,
      "Ġsexually": 3291,
      "ĠChar": 3292,
      "Ġdesires": 3293,
      "Ġgaz": 3294,
      "Ġsla": 3295,
      "Ġinteresting": 3296,
      "Ġpee": 3297,
      "ĠChe": 3298,
      "Ġstar": 3299,
      "now": 3300,
      "Ġnose": 3301,
      "Ġavatar": 3302,
      "Ġincluding": 3303,
      "uss": 3304,
      "Ġcaress": 3305,
      "Ġcour": 3306,
      "iment": 3307,
      "Ġturning": 3308,
      "Ġtalked": 3309,
      "Ġafraid": 3310,
      "rated": 3311,
      "ĠInst": 3312,
      "Ġlives": 3313,
      "Ġbuck": 3314,
      "Than": 3315,
      "ĠØ": 3316,
      "All": 3317,
      "Ġspace": 3318,
      "ateg": 3319,
      "Ġjack": 3320,
      "ken": 3321,
      "ĠSu": 3322,
      "cum": 3323,
      "Ġbuilding": 3324,
      "Ġrese": 3325,
      "Ġspl": 3326,
      "Ġstream": 3327,
      "Th": 3328,
      "iving": 3329,
      "iction": 3330,
      "org": 3331,
      "Ġability": 3332,
      "Ġlovely": 3333,
      "aa": 3334,
      "Ġended": 3335,
      "Ġmodels": 3336,
      "ĠMaybe": 3337,
      "Ġhig": 3338,
      "Ġbased": 3339,
      "Ġpul": 3340,
      "ĠJim": 3341,
      "ler": 3342,
      "Ġbrown": 3343,
      "Ġdoub": 3344,
      "wered": 3345,
      "ãģ": 3346,
      "Ġstaring": 3347,
      "Ġstared": 3348,
      "ĠAny": 3349,
      "Ġusers": 3350,
      "Ġstimulation": 3351,
      "comfort": 3352,
      "Ġtend": 3353,
      "Ġshape": 3354,
      "Ġbal": 3355,
      "oles": 3356,
      "Ġident": 3357,
      "jacul": 3358,
      "ĠPet": 3359,
      "Ġmarket": 3360,
      "Ġthin": 3361,
      "Ġcho": 3362,
      "ĠEl": 3363,
      "Ġshowed": 3364,
      "19": 3365,
      "Ġhotel": 3366,
      "ators": 3367,
      "Ġterm": 3368,
      "Ġcoffee": 3369,
      "Ġbeauty": 3370,
      "Ġhaven": 3371,
      "Ġgames": 3372,
      "Ġdeeply": 3373,
      "Ġsystem": 3374,
      "Ġfresh": 3375,
      "antic": 3376,
      "Ġtechn": 3377,
      "ining": 3378,
      "iday": 3379,
      "Ġpage": 3380,
      "Ġclearly": 3381,
      "ĠMany": 3382,
      "Ġassist": 3383,
      "Ġeager": 3384,
      "Ġsett": 3385,
      "Ġweekend": 3386,
      "rate": 3387,
      "Ġdrag": 3388,
      "ules": 3389,
      "Ġheavy": 3390,
      "Ġmoans": 3391,
      "ored": 3392,
      "llen": 3393,
      "Ġphoto": 3394,
      "Ġdirectly": 3395,
      "port": 3396,
      "aper": 3397,
      "Ġimpro": 3398,
      "cellent": 3399,
      "Ġsensual": 3400,
      "ushing": 3401,
      "Ġintimate": 3402,
      "Ġallowed": 3403,
      "Ġmad": 3404,
      "Ġmirr": 3405,
      "Ġride": 3406,
      "Ġgag": 3407,
      "leep": 3408,
      "Ġlink": 3409,
      "time": 3410,
      "Ġrealize": 3411,
      "Ġsumm": 3412,
      "Ġcocks": 3413,
      "ĠPeople": 3414,
      "Ġfan": 3415,
      "Ġcatch": 3416,
      "ĠGe": 3417,
      "ita": 3418,
      "Ġden": 3419,
      "Ġexperienced": 3420,
      "Ġhor": 3421,
      "Ġcoun": 3422,
      "Ġsensitive": 3423,
      "Ġdeterm": 3424,
      "inder": 3425,
      "Ġintrodu": 3426,
      "anna": 3427,
      "Ġplat": 3428,
      "iao": 3429,
      "Ġris": 3430,
      "anda": 3431,
      "ugs": 3432,
      "Ġlab": 3433,
      "Ġpiss": 3434,
      "ĠDoes": 3435,
      "Ġbeside": 3436,
      "Ġloving": 3437,
      "Ġfetish": 3438,
      "Ġstun": 3439,
      "arily": 3440,
      "ĠBest": 3441,
      "Ġ30": 3442,
      "rom": 3443,
      "Ġunderwear": 3444,
      "Ġsubs": 3445,
      "Ġstock": 3446,
      "Ġtele": 3447,
      "Ġrequest": 3448,
      "izes": 3449,
      "Ġreality": 3450,
      "Ġpaid": 3451,
      "Ġexposed": 3452,
      "To": 3453,
      "Ġcharacter": 3454,
      "Ġspeed": 3455,
      "Ġbecoming": 3456,
      "21": 3457,
      "Ġentered": 3458,
      "ena": 3459,
      "umping": 3460,
      "Ð¸": 3461,
      "apanese": 3462,
      "Ġ:": 3463,
      "urious": 3464,
      "hange": 3465,
      "Ġfantasies": 3466,
      "ĠMistress": 3467,
      "ify": 3468,
      "bor": 3469,
      "views": 3470,
      "Ġ...": 3471,
      "Ġprostit": 3472,
      "val": 3473,
      "Ġagreed": 3474,
      "Ġmotion": 3475,
      "aven": 3476,
      "Ġanswered": 3477,
      "Ġsmiling": 3478,
      "Ġmember": 3479,
      "Ġgroaned": 3480,
      "Ġlightly": 3481,
      "Ġplayed": 3482,
      "Ġwine": 3483,
      "Is": 3484,
      "Ġglo": 3485,
      "Ġfuture": 3486,
      "Ġmoments": 3487,
      "Ġsearching": 3488,
      "Ġlaw": 3489,
      "Ġmarriage": 3490,
      "ĠJul": 3491,
      "verage": 3492,
      "Let": 3493,
      "Ġobviously": 3494,
      "Ġyours": 3495,
      "ived": 3496,
      "Ġhy": 3497,
      "Ġwindow": 3498,
      "Ġmature": 3499,
      "Ġess": 3500,
      "Ġcause": 3501,
      "Ġbond": 3502,
      "Ġrepe": 3503,
      "Ġnaughty": 3504,
      "Ġexplore": 3505,
      "Ġdates": 3506,
      "His": 3507,
      "Ġsqueezed": 3508,
      "izz": 3509,
      "Ġburn": 3510,
      "iling": 3511,
      "Ġscr": 3512,
      "idden": 3513,
      "Ġoffers": 3514,
      "iod": 3515,
      "Ġtightly": 3516,
      "Ġboun": 3517,
      "Ġstroked": 3518,
      "Ġaut": 3519,
      "ĠMike": 3520,
      "Ġhesit": 3521,
      "Ġign": 3522,
      "Ġstyle": 3523,
      "iest": 3524,
      "mit": 3525,
      "Ġdesper": 3526,
      "nie": 3527,
      "Ġesc": 3528,
      "Ġrelease": 3529,
      "ĠMass": 3530,
      "Ġnervous": 3531,
      "ashing": 3532,
      "ĠLu": 3533,
      "onymous": 3534,
      "One": 3535,
      "Ġmaster": 3536,
      "??": 3537,
      "Ġinstru": 3538,
      "ĠMake": 3539,
      "acher": 3540,
      "amed": 3541,
      "Ġaltern": 3542,
      "Ġclaim": 3543,
      "iam": 3544,
      "icone": 3545,
      "eling": 3546,
      "oul": 3547,
      "Ġanim": 3548,
      "Ġcorner": 3549,
      "><": 3550,
      "Ġtick": 3551,
      "Ġindic": 3552,
      "Ġlying": 3553,
      "book": 3554,
      "ron": 3555,
      "Ġmanaged": 3556,
      "Ġkey": 3557,
      "Ġprogr": 3558,
      "Ġmirror": 3559,
      "Ġideal": 3560,
      "Sl": 3561,
      "Ġ--": 3562,
      "Ġencour": 3563,
      "Ġbull": 3564,
      "30": 3565,
      "Ġexcellent": 3566,
      "Ġsus": 3567,
      "Â©": 3568,
      "Ġcrack": 3569,
      "Ġq": 3570,
      "Ġyounger": 3571,
      "Ġtowel": 3572,
      "Ġdrove": 3573,
      "elebr": 3574,
      "ats": 3575,
      "Ġhall": 3576,
      "Ġver": 3577,
      "Ġmaint": 3578,
      "Ġfrequ": 3579,
      "ĠEm": 3580,
      "ĠPlease": 3581,
      "itten": 3582,
      "ÑĢ": 3583,
      "Ġproceed": 3584,
      "Ġanymore": 3585,
      "work": 3586,
      "angu": 3587,
      "Ġinsert": 3588,
      "Ġcried": 3589,
      "Ġcouples": 3590,
      "Ġnecess": 3591,
      "Ġwondered": 3592,
      "pite": 3593,
      "Ġrelie": 3594,
      "Ġsignific": 3595,
      "Ġexpected": 3596,
      "Ġadvant": 3597,
      "De": 3598,
      "Ġmill": 3599,
      "upid": 3600,
      "\".": 3601,
      "Ġejacul": 3602,
      "Ġbroke": 3603,
      "Ġarrived": 3604,
      "Ġoffered": 3605,
      "Ġmid": 3606,
      "Ġrecomm": 3607,
      "Ġthank": 3608,
      "Ġoccur": 3609,
      "ĠBecause": 3610,
      "Ġcomb": 3611,
      "Ġpurcha": 3612,
      "Ġapartment": 3613,
      "ĠEd": 3614,
      "Ġsubject": 3615,
      "Ġdecide": 3616,
      "Ġheels": 3617,
      "Ġroad": 3618,
      "Ġscreamed": 3619,
      "Ġgrab": 3620,
      "Ġpressing": 3621,
      "wood": 3622,
      "counter": 3623,
      "Ġmessages": 3624,
      "Ġspanking": 3625,
      "ĠLocated": 3626,
      "ibility": 3627,
      "Ġbrand": 3628,
      "ien": 3629,
      "Ġheaded": 3630,
      "elly": 3631,
      "Ġoccasion": 3632,
      "ario": 3633,
      "oon": 3634,
      "Ġprepared": 3635,
      "Ġfinish": 3636,
      "sych": 3637,
      "Ġgrad": 3638,
      "ograph": 3639,
      "Ġsquir": 3640,
      "Ġhumili": 3641,
      "Ġoh": 3642,
      "Ġlie": 3643,
      "set": 3644,
      "Ġvers": 3645,
      "Ġartic": 3646,
      "At": 3647,
      "Ġbottle": 3648,
      "anded": 3649,
      "ensive": 3650,
      "Ġank": 3651,
      "ĠMaster": 3652,
      "Ġgotten": 3653,
      "Ġdisplay": 3654,
      "Ġresist": 3655,
      "Ġgrip": 3656,
      "ham": 3657,
      "Ġstuck": 3658,
      "Ġthrobbing": 3659,
      "Ġfac": 3660,
      "ym": 3661,
      "ĠBig": 3662,
      "Ġwrite": 3663,
      "Ġobt": 3664,
      "ĠMiss": 3665,
      "Ġneg": 3666,
      "ĠEnhancement": 3667,
      "ĠUp": 3668,
      "Ġleather": 3669,
      "Ġpurp": 3670,
      "Ġpossibly": 3671,
      "Ġexciting": 3672,
      "Ġterri": 3673,
      "ashed": 3674,
      "Ġcry": 3675,
      "Ġsession": 3676,
      "Ġneigh": 3677,
      "ral": 3678,
      "Ġhtt": 3679,
      "Ġbusy": 3680,
      "Ġenlargement": 3681,
      "Ġkeeping": 3682,
      "noon": 3683,
      "Ġhat": 3684,
      "Ġcult": 3685,
      "Ñģ": 3686,
      "ns": 3687,
      "pes": 3688,
      "Ġec": 3689,
      "Ġspoke": 3690,
      "Ġgrowing": 3691,
      "Ġpiece": 3692,
      "Ġitself": 3693,
      "Ġcapt": 3694,
      "Ġperiod": 3695,
      "ĠDes": 3696,
      "ÂłÂłÂłÂł": 3697,
      "icking": 3698,
      "oman": 3699,
      "ĠÙ": 3700,
      "Ġshy": 3701,
      "orrow": 3702,
      "ĠJess": 3703,
      "Ġwore": 3704,
      "ĠAg": 3705,
      "Ġarr": 3706,
      "Ġobject": 3707,
      "Ġsetting": 3708,
      "ĠAmer": 3709,
      "Ġbound": 3710,
      "Ġmassive": 3711,
      "Ġempt": 3712,
      "rac": 3713,
      "ĠCal": 3714,
      "Ġgar": 3715,
      "Me": 3716,
      "Ġstreng": 3717,
      "Ġunique": 3718,
      "Ġlose": 3719,
      "ses": 3720,
      "Ġimpress": 3721,
      "bec": 3722,
      "Ġxxx": 3723,
      "Ġnud": 3724,
      "Ġhappens": 3725,
      "Ġlube": 3726,
      "ka": 3727,
      "Ġyeah": 3728,
      "Ġavoid": 3729,
      "ury": 3730,
      "Ġ<": 3731,
      "stairs": 3732,
      "ĠHot": 3733,
      "Ġbik": 3734,
      "Hey": 3735,
      "ĠMore": 3736,
      "Ġdry": 3737,
      "Ġmist": 3738,
      "Ġhelped": 3739,
      "su": 3740,
      "Ġahead": 3741,
      "Ġproducts": 3742,
      "ĠHere": 3743,
      "Ġfilm": 3744,
      "Ġexerc": 3745,
      "Ġcumming": 3746,
      "Sha": 3747,
      "Ġstrange": 3748,
      "Ġthird": 3749,
      "ational": 3750,
      "Ġorgan": 3751,
      "kin": 3752,
      "Ġhookups": 3753,
      "Ð½": 3754,
      "Ġdig": 3755,
      "rely": 3756,
      "Ġsepar": 3757,
      "Ġ11": 3758,
      "Ġantic": 3759,
      "ammed": 3760,
      "Ġpositive": 3761,
      "Ġjoy": 3762,
      "ĠJan": 3763,
      "Ġthri": 3764,
      "Ġimage": 3765,
      "Ġhandle": 3766,
      "Ġult": 3767,
      "ĠLa": 3768,
      "ĠSarah": 3769,
      "ari": 3770,
      "ĠBuddy": 3771,
      "bl": 3772,
      "Ġtill": 3773,
      "Ġble": 3774,
      "ĠFirst": 3775,
      "Ġwit": 3776,
      "Ġrelaxed": 3777,
      "Ġbirth": 3778,
      "Ġspouse": 3779,
      "enn": 3780,
      "Ġcu": 3781,
      "Ġviews": 3782,
      "Ġlocked": 3783,
      "Ġappeared": 3784,
      "Ex": 3785,
      "Ġlubric": 3786,
      "Ġinner": 3787,
      "ĠTheir": 3788,
      "ĠBefore": 3789,
      "ĠCraigslist": 3790,
      "Ġinclude": 3791,
      "DS": 3792,
      "Ġdest": 3793,
      "Ġapproach": 3794,
      "ino": 3795,
      "Ġetc": 3796,
      "eless": 3797,
      "inc": 3798,
      "ays": 3799,
      "Ġfix": 3800,
      "ading": 3801,
      "ĠBar": 3802,
      "Ġimagine": 3803,
      "Ġentertain": 3804,
      "Ġmult": 3805,
      "Ġteam": 3806,
      "Ġbrain": 3807,
      "Ġinvest": 3808,
      "Ġafternoon": 3809,
      "Ġaud": 3810,
      "Ġcannot": 3811,
      "ĠDav": 3812,
      "Ġplatform": 3813,
      "Ġkisses": 3814,
      "Ġwel": 3815,
      "Ġprick": 3816,
      "icy": 3817,
      "Ġstretched": 3818,
      "Ġshoes": 3819,
      "Ġanyway": 3820,
      "Ġtips": 3821,
      "Ġslit": 3822,
      "Ġwaited": 3823,
      "Ġcup": 3824,
      "ĠPart": 3825,
      "ĠCam": 3826,
      "Ġelect": 3827,
      "ĠJames": 3828,
      "ball": 3829,
      "gress": 3830,
      "ki": 3831,
      "Ġclitoris": 3832,
      "Ġtom": 3833,
      "Ġcustomers": 3834,
      "ĠMon": 3835,
      "Ġreport": 3836,
      "Ġcell": 3837,
      "Ġoral": 3838,
      "Ġexperiences": 3839,
      "Ġplenty": 3840,
      "ĠChat": 3841,
      "Ġspecific": 3842,
      "Ġpunish": 3843,
      "ĠMary": 3844,
      "Ġadvent": 3845,
      "Ġeventually": 3846,
      "ĠPost": 3847,
      "ĠEr": 3848,
      "gest": 3849,
      "Ġeating": 3850,
      "__": 3851,
      "Ġmoder": 3852,
      "Ġpractice": 3853,
      "hard": 3854,
      "chat": 3855,
      "Ġhappening": 3856,
      "Ġtied": 3857,
      "Ġther": 3858,
      "Ġresults": 3859,
      "ighed": 3860,
      "Ġdripping": 3861,
      "Ġcal": 3862,
      "Ġglad": 3863,
      "Ġmut": 3864,
      "Ġnet": 3865,
      "aded": 3866,
      "Ġhanging": 3867,
      "Ġhund": 3868,
      "Ġrespons": 3869,
      "arch": 3870,
      "Ġfart": 3871,
      "Ġselect": 3872,
      "Ġfol": 3873,
      "Ġtub": 3874,
      "Ġbeach": 3875,
      "cle": 3876,
      "Ġbeat": 3877,
      "Ġdim": 3878,
      "Ġanticip": 3879,
      "Ġsupposed": 3880,
      "15": 3881,
      "Ġweak": 3882,
      "Ġaccom": 3883,
      "Ġthroughout": 3884,
      "Ġbright": 3885,
      "iled": 3886,
      "Ġlack": 3887,
      "Ġcharge": 3888,
      "Ġwhore": 3889,
      "Ġreceive": 3890,
      "Ġvariety": 3891,
      "alk": 3892,
      "ental": 3893,
      "Ġflow": 3894,
      "Ġhundred": 3895,
      "idge": 3896,
      "ĠAngel": 3897,
      "ĠCity": 3898,
      "ians": 3899,
      "Ġusual": 3900,
      "ĠEscort": 3901,
      "Ġtired": 3902,
      "Ġdriving": 3903,
      "Ġachie": 3904,
      "Ġorigin": 3905,
      "yond": 3906,
      "Ġshock": 3907,
      "Ġsuff": 3908,
      "ability": 3909,
      "ait": 3910,
      "Ġdiscovered": 3911,
      "14": 3912,
      "Ġfail": 3913,
      "Ġtrip": 3914,
      "pro": 3915,
      "Ġhoney": 3916,
      "Ġcol": 3917,
      "ĠClo": 3918,
      "Ġenter": 3919,
      "Ġagree": 3920,
      "Ġsides": 3921,
      "Ġreleased": 3922,
      "ĠSw": 3923,
      "aches": 3924,
      "ording": 3925,
      "Ġbeneath": 3926,
      "Ġstrip": 3927,
      "Ġ100": 3928,
      "Ġmix": 3929,
      "Get": 3930,
      "Ġloo": 3931,
      "Ġblouse": 3932,
      "Ġdevelop": 3933,
      "Ġbelt": 3934,
      "Ġencounter": 3935,
      "Ġviol": 3936,
      "Ġlaughing": 3937,
      "Ġok": 3938,
      "Ġstage": 3939,
      "Ġspeaking": 3940,
      "Ġpregn": 3941,
      "ĠEng": 3942,
      "Ġaroused": 3943,
      "Ġeasier": 3944,
      "sal": 3945,
      "Ġtrouble": 3946,
      "Ġconfidence": 3947,
      "missive": 3948,
      "Ġintim": 3949,
      "ography": 3950,
      "Ġlock": 3951,
      "Ġkid": 3952,
      "Ġhoping": 3953,
      "Ġ16": 3954,
      "reg": 3955,
      "aren": 3956,
      "asons": 3957,
      "Ġthumb": 3958,
      "Ġtears": 3959,
      "iliar": 3960,
      "ada": 3961,
      "gan": 3962,
      "Ġ14": 3963,
      "Ġdrunk": 3964,
      "Ġclients": 3965,
      "Ġissue": 3966,
      "eps": 3967,
      "arciss": 3968,
      "OU": 3969,
      "une": 3970,
      "ĠLisa": 3971,
      "Ġareas": 3972,
      "Ġprotect": 3973,
      "olly": 3974,
      "Ġlangu": 3975,
      "03": 3976,
      "ags": 3977,
      "Ġfunction": 3978,
      "teen": 3979,
      "Ġfrust": 3980,
      "Ġthrusting": 3981,
      "Ġswing": 3982,
      "sidered": 3983,
      "Ġcelebr": 3984,
      "ĠDaddy": 3985,
      "aps": 3986,
      "Ġpersonally": 3987,
      "Good": 3988,
      "Ġstress": 3989,
      "ĠCont": 3990,
      "hip": 3991,
      "loy": 3992,
      "Ġincredible": 3993,
      "ĠQuÃ©": 3994,
      "Ġrole": 3995,
      "ĠTV": 3996,
      "ĠQuÃ©bec": 3997,
      "24": 3998,
      "Ġexplained": 3999,
      "imp": 4000,
      "Ġgrinned": 4001,
      "ppy": 4002,
      "ollen": 4003,
      "ÙĬ": 4004,
      "Ġfab": 4005,
      "Ġcomput": 4006,
      "ĠPaul": 4007,
      "Ġgrind": 4008,
      "Ġstrap": 4009,
      "Ġclothing": 4010,
      "ĠSteve": 4011,
      "Ġinvolved": 4012,
      "Ġprice": 4013,
      "fl": 4014,
      "ĠBill": 4015,
      "Ġitems": 4016,
      "Ġasleep": 4017,
      "pless": 4018,
      "Ġremain": 4019,
      "Ġhigher": 4020,
      "Ġlocation": 4021,
      "Ġdamn": 4022,
      "Ġlisten": 4023,
      "Ġpsych": 4024,
      "she": 4025,
      "otions": 4026,
      "Ġsad": 4027,
      "hered": 4028,
      "Ġlowered": 4029,
      "Ġjud": 4030,
      "Sh": 4031,
      "rey": 4032,
      "osh": 4033,
      "ĠBri": 4034,
      "Ġreact": 4035,
      "Ġoptions": 4036,
      "Ġadjust": 4037,
      "Ġpers": 4038,
      "ÅŁ": 4039,
      "ĊĠĠĠĠ": 4040,
      "Ġslip": 4041,
      "Ġloose": 4042,
      "Ġparts": 4043,
      "Ġcred": 4044,
      "Ġeight": 4045,
      "Ġinno": 4046,
      "Ġbeyond": 4047,
      "Ġdivor": 4048,
      "Ġmistress": 4049,
      "hib": 4050,
      "Ġconsidered": 4051,
      "Ġlearned": 4052,
      "ours": 4053,
      "Ġswollen": 4054,
      "Ġproblems": 4055,
      "ĠMel": 4056,
      "ĠSaint": 4057,
      "ĠSomet": 4058,
      "Ġimages": 4059,
      "Ġreply": 4060,
      "Ġshout": 4061,
      "Ġport": 4062,
      "Ġfunny": 4063,
      "Ġconfident": 4064,
      "Ġlarger": 4065,
      "18": 4066,
      "ledge": 4067,
      "Ġshared": 4068,
      "Ġshar": 4069,
      "Ġ13": 4070,
      "Ġbabe": 4071,
      "Ġrhy": 4072,
      "ishes": 4073,
      "Ġstrokes": 4074,
      "Ġstrength": 4075,
      "usion": 4076,
      "umm": 4077,
      "yan": 4078,
      "pter": 4079,
      "Ġtease": 4080,
      "Ġperfectly": 4081,
      "Ġvol": 4082,
      "inda": 4083,
      "ĠVide": 4084,
      "Ġconcent": 4085,
      "Ġtypes": 4086,
      "Ġrules": 4087,
      "22": 4088,
      "Ġdetails": 4089,
      "ĠLooking": 4090,
      "Ġcard": 4091,
      "Ġreviews": 4092,
      "word": 4093,
      "Ġsedu": 4094,
      "Ġsighed": 4095,
      "Ġgenerally": 4096,
      "ĠUse": 4097,
      "Ġprofessional": 4098,
      "Ġanx": 4099,
      "Ġcalm": 4100,
      "ÐĤ": 4101,
      "ĠGood": 4102,
      "Ġwood": 4103,
      "urt": 4104,
      "Ġactual": 4105,
      "Ġcausing": 4106,
      "Ġgreen": 4107,
      "itting": 4108,
      "Ġir": 4109,
      "Ġmas": 4110,
      "Ġfinal": 4111,
      "Ġswim": 4112,
      "à¥": 4113,
      "ĠBrit": 4114,
      "Ġsilicone": 4115,
      "Ġoption": 4116,
      "Ġroll": 4117,
      "ĠÂł": 4118,
      "Ġgold": 4119,
      "Ġcounter": 4120,
      "Ġbang": 4121,
      "ĠJer": 4122,
      "Ġscreen": 4123,
      "Ġsport": 4124,
      "ending": 4125,
      "ĠDis": 4126,
      "Come": 4127,
      "Ġfolks": 4128,
      "Ġdead": 4129,
      "Ġà¤": 4130,
      "lr": 4131,
      "thm": 4132,
      "Ġsteps": 4133,
      "Ġissues": 4134,
      "Ġdaddy": 4135,
      "Ġparticularly": 4136,
      "fits": 4137,
      "nal": 4138,
      "rance": 4139,
      "Ġthrew": 4140,
      "ata": 4141,
      "Ġpurpose": 4142,
      "Ġbegins": 4143,
      "Ġfeed": 4144,
      "fast": 4145,
      "Ġfa": 4146,
      "Ġchallen": 4147,
      "Ġremind": 4148,
      "heart": 4149,
      "Ġmanner": 4150,
      "ĠOut": 4151,
      "Ġtwenty": 4152,
      "Ġfucks": 4153,
      "Ġthanks": 4154,
      "ĠFem": 4155,
      "itty": 4156,
      "usive": 4157,
      "ann": 4158,
      "Ġdisappoint": 4159,
      "Ġsleeping": 4160,
      "Ġtube": 4161,
      "Ġoil": 4162,
      "Ġwondering": 4163,
      "ĠDad": 4164,
      "Ġrestr": 4165,
      "Ġoppos": 4166,
      "Ø³": 4167,
      "Ġsomewhat": 4168,
      "Ġdoubt": 4169,
      "hael": 4170,
      "Ġhug": 4171,
      "iously": 4172,
      "Ġgrew": 4173,
      "OO": 4174,
      "Ch": 4175,
      "Ġseries": 4176,
      "ĠSeeking": 4177,
      "ES": 4178,
      "Ġvul": 4179,
      "Ġmeat": 4180,
      "ĠBen": 4181,
      "Ġarousal": 4182,
      "17": 4183,
      "Ġuncomfort": 4184,
      "Ġteacher": 4185,
      "Ġfirmly": 4186,
      "Ġdrinks": 4187,
      "Ġwebcam": 4188,
      "DSM": 4189,
      "ĠIm": 4190,
      "Ġsatisfied": 4191,
      "Ġprior": 4192,
      "uro": 4193,
      "Ġjumped": 4194,
      "Ġeffective": 4195,
      "Ġliter": 4196,
      "Ġconstantly": 4197,
      "amm": 4198,
      "Ġchick": 4199,
      "Can": 4200,
      "Ġcru": 4201,
      "Ġnote": 4202,
      "favor": 4203,
      "Ġtool": 4204,
      "ĠPills": 4205,
      "aine": 4206,
      "ilities": 4207,
      "Ġfold": 4208,
      "Ġprofiles": 4209,
      "Ġwriting": 4210,
      "Ġreasons": 4211,
      "Ġpure": 4212,
      "Ġ24": 4213,
      "Ġtells": 4214,
      "Ġqiao": 4215,
      "****": 4216,
      "Ġindust": 4217,
      "ĠRed": 4218,
      "Ġbust": 4219,
      "spot": 4220,
      "gle": 4221,
      "uine": 4222,
      "Ġhide": 4223,
      "face": 4224,
      "Ġadvantage": 4225,
      "Ġrose": 4226,
      "Ġchuck": 4227,
      "Ġmasturbation": 4228,
      "Ġmoist": 4229,
      "ĠOK": 4230,
      "rupt": 4231,
      "Ġsqueezing": 4232,
      "Ġtone": 4233,
      "Ġresponded": 4234,
      "Ġpoor": 4235,
      "Ġrhythm": 4236,
      "25": 4237,
      "atus": 4238,
      "Ġweren": 4239,
      "Ġordered": 4240,
      "Ġthong": 4241,
      "ilet": 4242,
      "Ġlets": 4243,
      "Ġpulls": 4244,
      "16": 4245,
      "Ġfigured": 4246,
      "Ġactivities": 4247,
      "Ġinstantly": 4248,
      "Ġnarciss": 4249,
      "Ġbeer": 4250,
      "----": 4251,
      "Ġchin": 4252,
      "ĠLong": 4253,
      "Ġshocked": 4254,
      "ĠNS": 4255,
      "ĠSim": 4256,
      "Ġmentioned": 4257,
      "Ġill": 4258,
      "ĠAmy": 4259,
      "Ġwhenever": 4260,
      "Ġenth": 4261,
      "oxing": 4262,
      "ĠBC": 4263,
      "Ġcorrect": 4264,
      "ĠFinally": 4265,
      "ux": 4266,
      "Ġfond": 4267,
      "erved": 4268,
      "Ġburied": 4269,
      "ĠMed": 4270,
      "ĠTe": 4271,
      "Ġdifference": 4272,
      "ella": 4273,
      "Ġsexuality": 4274,
      "roud": 4275,
      "ON": 4276,
      "Ġexha": 4277,
      "Ġshr": 4278,
      "shirt": 4279,
      "Ġweird": 4280,
      "urity": 4281,
      "ĠâĢ¦": 4282,
      "Ġfro": 4283,
      "Ġdouble": 4284,
      "bit": 4285,
      "Ġprevent": 4286,
      "je": 4287,
      "Ġoper": 4288,
      "ifer": 4289,
      "Ġthous": 4290,
      "Ġ*": 4291,
      "Ġgras": 4292,
      "neath": 4293,
      "oot": 4294,
      "ĠSK": 4295,
      "ĠÃ": 4296,
      "Ġshaking": 4297,
      "Ġideas": 4298,
      "arant": 4299,
      "Ġjuice": 4300,
      "Ġsending": 4301,
      "Ġprec": 4302,
      "ĠAsian": 4303,
      "Ġtravel": 4304,
      "Ġgeneral": 4305,
      "Ġsatisfy": 4306,
      "vy": 4307,
      "Ġstated": 4308,
      "Ġfamiliar": 4309,
      "othel": 4310,
      "Ġjour": 4311,
      "Ġpan": 4312,
      "Ġcarefully": 4313,
      "Ġtomorrow": 4314,
      "ĠLook": 4315,
      "Read": 4316,
      "Ġcrow": 4317,
      "ference": 4318,
      "Ġanus": 4319,
      "Ġregarding": 4320,
      "Ġexist": 4321,
      "âĢĿ.": 4322,
      "Ġrooms": 4323,
      "comments": 4324,
      "AT": 4325,
      "ĠAdd": 4326,
      "Ġrid": 4327,
      "Ġpotential": 4328,
      "Ġblind": 4329,
      "ĠDavid": 4330,
      "Ġspir": 4331,
      "rs": 4332,
      "Ġdaily": 4333,
      "ĠMo": 4334,
      "Ġworse": 4335,
      "lying": 4336,
      "uous": 4337,
      "Ġ17": 4338,
      "osing": 4339,
      "Ġcomputer": 4340,
      "Ġmood": 4341,
      "iring": 4342,
      "Ġcountry": 4343,
      "urg": 4344,
      "Ġinfl": 4345,
      "ds": 4346,
      "arth": 4347,
      "ĠBet": 4348,
      "Ġrange": 4349,
      "Ġ25": 4350,
      "âĢĺ": 4351,
      "Ġimm": 4352,
      "pendent": 4353,
      "Ġdemon": 4354,
      "Ġpace": 4355,
      "over": 4356,
      "Ġshouldn": 4357,
      "Ġacqu": 4358,
      "13": 4359,
      "ĠCall": 4360,
      "ĠDown": 4361,
      "eled": 4362,
      "Ġhist": 4363,
      "Ġpoints": 4364,
      "erous": 4365,
      "Ġquietly": 4366,
      "Ġangry": 4367,
      "lock": 4368,
      "ĠBob": 4369,
      "Ġtotal": 4370,
      "ðŁ": 4371,
      "Ġslee": 4372,
      "umblr": 4373,
      "Ġpaper": 4374,
      "Ġsummer": 4375,
      "></": 4376,
      "Ġhom": 4377,
      "Ġforg": 4378,
      "Ġpics": 4379,
      "Ġaddress": 4380,
      "Ġwand": 4381,
      "Ġstayed": 4382,
      "oci": 4383,
      "itude": 4384,
      "Ġcompanion": 4385,
      "Ġcircum": 4386,
      "Ġcolor": 4387,
      "atic": 4388,
      "Ġpu": 4389,
      "Ġaside": 4390,
      "Ġrestaur": 4391,
      "Ġgrand": 4392,
      "Ġgenuine": 4393,
      "Ġsubscri": 4394,
      "ĠExt": 4395,
      "Ġgiggled": 4396,
      "Ġdirection": 4397,
      "Ad": 4398,
      "ãĢ": 4399,
      "icing": 4400,
      "ĠRem": 4401,
      "Ġattracted": 4402,
      "Ġexpression": 4403,
      "imed": 4404,
      "indy": 4405,
      "ford": 4406,
      "ĠCarol": 4407,
      "Ġcash": 4408,
      "Ġnature": 4409,
      "ĠWas": 4410,
      "icated": 4411,
      "Ġbon": 4412,
      "Ġsatisfaction": 4413,
      "ĠSubmission": 4414,
      "Ġsubmissive": 4415,
      "Ġrecommend": 4416,
      "Ġworried": 4417,
      "li": 4418,
      "Ġrout": 4419,
      "Am": 4420,
      "rop": 4421,
      "Ġwash": 4422,
      "unette": 4423,
      "IL": 4424,
      "AN": 4425,
      "Ġpal": 4426,
      "Ġemotions": 4427,
      "ĠRate": 4428,
      "Ġtender": 4429,
      "Ġmulti": 4430,
      "Ġcop": 4431,
      "ĠKim": 4432,
      "mmmm": 4433,
      "Br": 4434,
      "Ġsoci": 4435,
      "Ġgaze": 4436,
      "ĠBro": 4437,
      "Ġpointed": 4438,
      "Ġopin": 4439,
      "ondon": 4440,
      "Ġtha": 4441,
      "Ġwhim": 4442,
      "Ġcenter": 4443,
      "ĠWithout": 4444,
      "âĢ¦.": 4445,
      "Ġblowjob": 4446,
      "Ġcheap": 4447,
      "Ġexcl": 4448,
      "bered": 4449,
      "Ġrap": 4450,
      "Ġunderneath": 4451,
      "ya": 4452,
      "Ġaverage": 4453,
      "usi": 4454,
      "Ġasks": 4455,
      "kward": 4456,
      ".'": 4457,
      "Ġsofa": 4458,
      "Ġtab": 4459,
      "Ġfemin": 4460,
      "Ġunless": 4461,
      "07": 4462,
      "ĠThanks": 4463,
      "amn": 4464,
      "Ġmeas": 4465,
      "ĠRep": 4466,
      "Ġsen": 4467,
      "Ġappreciate": 4468,
      "Ġplug": 4469,
      "Ġbum": 4470,
      "Ġlinger": 4471,
      "Ġnews": 4472,
      "Ġsperm": 4473,
      "Ġshop": 4474,
      "Ġadmit": 4475,
      "Ġought": 4476,
      "Ġactivity": 4477,
      "Ġuncomfortable": 4478,
      "ĠHard": 4479,
      "Jo": 4480,
      "Ġtwice": 4481,
      "tering": 4482,
      "Ġromantic": 4483,
      "tag": 4484,
      "Ġcab": 4485,
      "ĠMassage": 4486,
      "uddenly": 4487,
      "Ġallows": 4488,
      "rench": 4489,
      "Ġremove": 4490,
      "Ġamateur": 4491,
      "male": 4492,
      "uan": 4493,
      "Ġempty": 4494,
      "Ġple": 4495,
      "Ġlucky": 4496,
      "Ġsharing": 4497,
      "Ġrecord": 4498,
      "ĠAB": 4499,
      "ades": 4500,
      "Okay": 4501,
      "Ġensure": 4502,
      "Ġruoxing": 4503,
      "core": 4504,
      "Ġbikini": 4505,
      "ented": 4506,
      "AL": 4507,
      "Ġproud": 4508,
      "ĠÂ": 4509,
      "Ġgrunt": 4510,
      "Ġsquirt": 4511,
      "Ġeduc": 4512,
      "Thank": 4513,
      "Ġsoul": 4514,
      "Ġarse": 4515,
      "umbled": 4516,
      "Ġunderstood": 4517,
      "sa": 4518,
      "iana": 4519,
      "ora": 4520,
      "Ġmovement": 4521,
      "Ġvalue": 4522,
      "Ġ21": 4523,
      "ĠUS": 4524,
      "Ġmount": 4525,
      "Ġ50": 4526,
      "Ġplus": 4527,
      "RE": 4528,
      "Ġmeaning": 4529,
      "ĠAlthough": 4530,
      "ĠTake": 4531,
      "Ġbroad": 4532,
      "Ø±": 4533,
      "Ġlunch": 4534,
      "Ġallowing": 4535,
      "empting": 4536,
      "unction": 4537,
      "ĠSus": 4538,
      "Ġhott": 4539,
      "oooo": 4540,
      "wh": 4541,
      "Ġexplain": 4542,
      "Ġlanguage": 4543,
      "Ġmanage": 4544,
      "ĠAlso": 4545,
      "Ġestab": 4546,
      "Ġswallowed": 4547,
      "umed": 4548,
      "ĠJake": 4549,
      "mon": 4550,
      "Ġopposite": 4551,
      "Ġwid": 4552,
      "ĠChris": 4553,
      "OT": 4554,
      "Who": 4555,
      "Ġfacing": 4556,
      "Ġpossess": 4557,
      "earch": 4558,
      "Ġbought": 4559,
      "hi": 4560,
      "ĠStep": 4561,
      "Ġsurround": 4562,
      "ĠRob": 4563,
      "Ġmales": 4564,
      "ĠBoth": 4565,
      "Ġmoves": 4566,
      "Ġprovides": 4567,
      "Ġting": 4568,
      "osp": 4569,
      "Ġmedia": 4570,
      "By": 4571,
      "sers": 4572,
      "Ġcreated": 4573,
      "Ġasian": 4574,
      "ĠBre": 4575,
      "Ġnaturally": 4576,
      "Ġtherefore": 4577,
      "Ġmur": 4578,
      "Ġawkward": 4579,
      "ĠReal": 4580,
      "Ġpleased": 4581,
      "Ġotherwise": 4582,
      "Ġprim": 4583,
      "Ġembarrassed": 4584,
      "Ġmostly": 4585,
      "Ġshudd": 4586,
      "ĠSer": 4587,
      "achel": 4588,
      "Ġecst": 4589,
      "Ġsand": 4590,
      "Ø§Ù": 4591,
      "ĠÎ": 4592,
      "Ġprogram": 4593,
      "ĠNorth": 4594,
      "!!!": 4595,
      "Ġindustry": 4596,
      "âĦ": 4597,
      "ground": 4598,
      "illed": 4599,
      "08": 4600,
      "Ġreaction": 4601,
      "Ġloudly": 4602,
      "rences": 4603,
      "MM": 4604,
      "Ġcraigslist": 4605,
      "Ġant": 4606,
      "elie": 4607,
      "Ġremem": 4608,
      "Ġsmart": 4609,
      "Ġunderstanding": 4610,
      "Ne": 4611,
      "Ġcraw": 4612,
      "Ġtoss": 4613,
      "Some": 4614,
      "Ġheight": 4615,
      "Ġemotional": 4616,
      "Ġexpert": 4617,
      "ĠPar": 4618,
      "Ġfairly": 4619,
      "Ġassoci": 4620,
      "ĠAdult": 4621,
      "Ġcaused": 4622,
      "Ġglanced": 4623,
      "Ġmuscle": 4624,
      "ĠBDSM": 4625,
      "inary": 4626,
      "Ġdanger": 4627,
      "Ġcomments": 4628,
      "www": 4629,
      "oured": 4630,
      "06": 4631,
      "Ġscared": 4632,
      "ashion": 4633,
      "ĠWould": 4634,
      "rating": 4635,
      "Ġsne": 4636,
      "ĠAc": 4637,
      "Ġguarant": 4638,
      "Ġdancing": 4639,
      "Ġreaching": 4640,
      "Ġbuilt": 4641,
      "asty": 4642,
      "âĦ¢": 4643,
      "af": 4644,
      "Ġcareful": 4645,
      "sey": 4646,
      "call": 4647,
      "Ġincredibly": 4648,
      "Ġpromise": 4649,
      "Ð¾Ð": 4650,
      "fans": 4651,
      "Ġpaus": 4652,
      "Ġenthusi": 4653,
      "bert": 4654,
      "Ġodd": 4655,
      "Ġdevice": 4656,
      "Ġimprove": 4657,
      "Ġparticip": 4658,
      "ram": 4659,
      "hol": 4660,
      "Ġdoctor": 4661,
      "hhh": 4662,
      "Ġcollect": 4663,
      "Ġintens": 4664,
      "Ġplastic": 4665,
      "ĠOver": 4666,
      "Ġsensations": 4667,
      "Ġrisk": 4668,
      "Ġdreams": 4669,
      "Ġboss": 4670,
      "Ġscenes": 4671,
      "Ġhanded": 4672,
      "ization": 4673,
      "Ġfrequently": 4674,
      "Share": 4675,
      "vis": 4676,
      "honey": 4677,
      "Ġembr": 4678,
      "Ġshif": 4679,
      "Ġtrick": 4680,
      "Ġbecomes": 4681,
      "05": 4682,
      "mi": 4683,
      "Ġstudy": 4684,
      "issy": 4685,
      "Ġbringing": 4686,
      "Ġcalling": 4687,
      "Ġfemales": 4688,
      "Ġdial": 4689,
      "dom": 4690,
      "Ġmajority": 4691,
      "ĠFace": 4692,
      "Ġpregnant": 4693,
      "Ġgym": 4694,
      "Ġvac": 4695,
      "ĠOther": 4696,
      "Ġflex": 4697,
      "anny": 4698,
      "ĠAbout": 4699,
      "Ġmer": 4700,
      "ĠCum": 4701,
      "jo": 4702,
      "free": 4703,
      "ida": 4704,
      "Ġmaintain": 4705,
      "ĠInt": 4706,
      "Ġlived": 4707,
      "ĠHookups": 4708,
      "Ġblank": 4709,
      "Ġunb": 4710,
      "phone": 4711,
      "ĠLondon": 4712,
      "Ġconv": 4713,
      "Ġfaces": 4714,
      "ĠMrs": 4715,
      "\",": 4716,
      "Ġporno": 4717,
      "Ġnarr": 4718,
      "CK": 4719,
      "Ġfabric": 4720,
      "ĠPre": 4721,
      "Ġsave": 4722,
      "Se": 4723,
      "ĠCo": 4724,
      "ource": 4725,
      "idering": 4726,
      "ĠRes": 4727,
      "Ġsignificant": 4728,
      "Ġce": 4729,
      "ummy": 4730,
      "Ġdesigned": 4731,
      "Ġcommunity": 4732,
      "May": 4733,
      "eared": 4734,
      "Ġtoes": 4735,
      "Pro": 4736,
      "Ġcompet": 4737,
      "ĠJenny": 4738,
      "uk": 4739,
      "Ġarrang": 4740,
      "ĠWest": 4741,
      "Ġsecure": 4742,
      "Ġstunning": 4743,
      "ãĥ": 4744,
      "Ġenv": 4745,
      "ĠTH": 4746,
      "ING": 4747,
      "asting": 4748,
      "Ġevents": 4749,
      "ode": 4750,
      "Ġfriendly": 4751,
      "inking": 4752,
      "Ġpounding": 4753,
      "Ġstupid": 4754,
      "Ġpumping": 4755,
      "ĠInstead": 4756,
      "Ġtraining": 4757,
      "Ġnumerous": 4758,
      "ads": 4759,
      "Ð²ÐĤ": 4760,
      "Ġdecision": 4761,
      "arm": 4762,
      "ĊĠĠĠĠĠ": 4763,
      "Ġresearch": 4764,
      "ĠCA": 4765,
      "Ġhate": 4766,
      "Ġgrown": 4767,
      "Ġlines": 4768,
      "Ġforever": 4769,
      "Ġadvice": 4770,
      "Ġcurious": 4771,
      "Ġprostitution": 4772,
      "Ġsigh": 4773,
      "Ġprovided": 4774,
      "iable": 4775,
      "lection": 4776,
      "Ġbehavior": 4777,
      "ivered": 4778,
      "Ġfavor": 4779,
      "Ġpassionate": 4780,
      "Ġlit": 4781,
      "well": 4782,
      "off": 4783,
      "kn": 4784,
      "04": 4785,
      "Ġanywhere": 4786,
      "htt": 4787,
      "ĠYork": 4788,
      "ipe": 4789,
      "Ġbow": 4790,
      "Ġmach": 4791,
      "Ġearn": 4792,
      "Ġfilms": 4793,
      "lie": 4794,
      "field": 4795,
      "Ġcontract": 4796,
      "hot": 4797,
      "Ġnumb": 4798,
      "pected": 4799,
      "Ġlog": 4800,
      "Ġenjoyable": 4801,
      "that": 4802,
      "ĠPat": 4803,
      "à¸": 4804,
      "state": 4805,
      "Ġknee": 4806,
      "Ġsqueeze": 4807,
      "Ġdelicious": 4808,
      "anted": 4809,
      "Ġpositions": 4810,
      "Ġblog": 4811,
      "Ġattack": 4812,
      "Ġterms": 4813,
      "Ġtan": 4814,
      "Ġwhom": 4815,
      "Le": 4816,
      "favorites": 4817,
      "Ġdeg": 4818,
      "Ġstairs": 4819,
      "Ġupper": 4820,
      "Ġstockings": 4821,
      "Ġdiscreet": 4822,
      "Ġpubic": 4823,
      "ĠSouth": 4824,
      "attle": 4825,
      "Ġentrance": 4826,
      "Ġsuggested": 4827,
      "Ġcand": 4828,
      "ĠPages": 4829,
      "ĠEric": 4830,
      "isting": 4831,
      "ĠMatt": 4832,
      "Ġriding": 4833,
      "Ġoffic": 4834,
      "Ġfalling": 4835,
      "atively": 4836,
      "sec": 4837,
      "Ġinteract": 4838,
      "Ġwalls": 4839,
      "Ġauthor": 4840,
      "Ġhidden": 4841,
      "ĠJason": 4842,
      "Ġdont": 4843,
      "sequ": 4844,
      "Ġsque": 4845,
      "ĠAct": 4846,
      "ido": 4847,
      "Ġswallow": 4848,
      "Ġclimbed": 4849,
      "Ġtension": 4850,
      "bal": 4851,
      "agra": 4852,
      "ĠBeing": 4853,
      "ĠJenn": 4854,
      "den": 4855,
      "ĠKeep": 4856,
      "iven": 4857,
      "Ġsoap": 4858,
      "priate": 4859,
      "ĠOnt": 4860,
      "Ġwhisper": 4861,
      "Ġtrain": 4862,
      "rick": 4863,
      "Ġcrying": 4864,
      "itched": 4865,
      "iforn": 4866,
      "Ġthrusts": 4867,
      "Ġourselves": 4868,
      "idly": 4869,
      "Ġsaf": 4870,
      "Ġblond": 4871,
      "Ġappl": 4872,
      "Ã¼": 4873,
      "Ġgoal": 4874,
      "Ġskills": 4875,
      "Ġlingerie": 4876,
      "2018": 4877,
      "ancy": 4878,
      "ĠTer": 4879,
      "Ġsmir": 4880,
      "elle": 4881,
      "ĠHookers": 4882,
      "Ġbondage": 4883,
      "99": 4884,
      "usted": 4885,
      "Ġbrunette": 4886,
      "Ġice": 4887,
      "uy": 4888,
      "Ġclen": 4889,
      "bony": 4890,
      "Ġdrinking": 4891,
      "con": 4892,
      "Ġtoilet": 4893,
      "Ġgirth": 4894,
      "lished": 4895,
      "Ġfilling": 4896,
      "Ġpsycholog": 4897,
      "ĠJeff": 4898,
      "Ġsizes": 4899,
      "Ġwoke": 4900,
      "des": 4901,
      "Ġremembered": 4902,
      "ĠBritish": 4903,
      "Ġknock": 4904,
      "Ġta": 4905,
      "Ġlights": 4906,
      "Ġadvert": 4907,
      "oph": 4908,
      "ept": 4909,
      "Ġprem": 4910,
      "hand": 4911,
      "Ġhungry": 4912,
      "Ġteased": 4913,
      "Ġankles": 4914,
      "Ġdeath": 4915,
      "rib": 4916,
      "itation": 4917,
      "Ġanger": 4918,
      "ĠEach": 4919,
      "ĠColl": 4920,
      "Ġband": 4921,
      "ingly": 4922,
      "Here": 4923,
      "Ġbend": 4924,
      "Ġtar": 4925,
      "Ġvia": 4926,
      "ĠOntario": 4927,
      "Un": 4928,
      "Free": 4929,
      "Ġburst": 4930,
      "Ġplans": 4931,
      "ggy": 4932,
      "van": 4933,
      "ifornia": 4934,
      "Ġvan": 4935,
      "Ġwritten": 4936,
      "Ġcalls": 4937,
      "fold": 4938,
      "Of": 4939,
      "Ġhun": 4940,
      "amb": 4941,
      "ern": 4942,
      "ĠBoy": 4943,
      "Ġhandsome": 4944,
      "Ġkinds": 4945,
      "Ġpattern": 4946,
      "Ġbutto": 4947,
      "Ġears": 4948,
      "ĠLake": 4949,
      "Ġperformance": 4950,
      "lin": 4951,
      "Ġpersonality": 4952,
      "Ġneighbor": 4953,
      "ĠKaren": 4954,
      "09": 4955,
      "Ġreveal": 4956,
      "Ġentirely": 4957,
      "hold": 4958,
      "mo": 4959,
      "Ġincreasing": 4960,
      "ãĤ": 4961,
      "issa": 4962,
      "Ġstranger": 4963,
      "Ġ23": 4964,
      "Ġhealthy": 4965,
      "oned": 4966,
      "Ġpaying": 4967,
      "anc": 4968,
      "Ġfif": 4969,
      "ule": 4970,
      "Ġstradd": 4971,
      "ĠTony": 4972,
      "Ġrestaurant": 4973,
      "oh": 4974,
      "Ġtremb": 4975,
      "Ġemploy": 4976,
      "star": 4977,
      "Ġsudden": 4978,
      "Ġgender": 4979,
      "Ġknowledge": 4980,
      "Ġvaginal": 4981,
      "Ġrand": 4982,
      "âĢĵ": 4983,
      "roy": 4984,
      "Ġhelps": 4985,
      "Ġdistance": 4986,
      "Ġinstance": 4987,
      "Ġphotograph": 4988,
      "ĠThank": 4989,
      "ĠRick": 4990,
      "Ã¢": 4991,
      "Ġsna": 4992,
      "Ġmillion": 4993,
      "Ġhighly": 4994,
      "Ġclick": 4995,
      "Ġhairy": 4996,
      "Ġpunishment": 4997,
      "oty": 4998,
      "Ġded": 4999,
      "Ġcommunication": 5000,
      "Ġwave": 5001,
      "Ġ)": 5002,
      "Ġtrack": 5003,
      "Ġrecently": 5004,
      "iversity": 5005,
      "ĠEnlargement": 5006,
      "Ġcustomer": 5007,
      "uu": 5008,
      "Ġcamp": 5009,
      "Ġfav": 5010,
      "ĠDave": 5011,
      "Ġflu": 5012,
      "Ġsilence": 5013,
      "unny": 5014,
      "Ġease": 5015,
      "Ġthreat": 5016,
      "Ġreceived": 5017,
      "Ġnecessary": 5018,
      "Ġcreating": 5019,
      "Ġdie": 5020,
      "Ġadditional": 5021,
      "Ġshoved": 5022,
      "iel": 5023,
      "Ġcow": 5024,
      "Ġsomewhere": 5025,
      "mmm": 5026,
      "ĠWant": 5027,
      "ĠGl": 5028,
      "Ġsemen": 5029,
      "Once": 5030,
      "ĠPlay": 5031,
      "ĠNat": 5032,
      "Ġactions": 5033,
      "Ġpanty": 5034,
      "Ġhoped": 5035,
      "aming": 5036,
      "cted": 5037,
      "Ġbiggest": 5038,
      "Ġjoined": 5039,
      "ulation": 5040,
      "Ġbelieved": 5041,
      "Ġrepeated": 5042,
      "ona": 5043,
      "ij": 5044,
      "Ġheaven": 5045,
      "min": 5046,
      "Ġguest": 5047,
      "Ġpurchase": 5048,
      "Ġpalm": 5049,
      "Ġattraction": 5050,
      "Ġpenetration": 5051,
      "ĠRyan": 5052,
      "ued": 5053,
      "EN": 5054,
      "Ġbreakfast": 5055,
      "Ġmax": 5056,
      "with": 5057,
      "While": 5058,
      "year": 5059,
      "fortun": 5060,
      "icted": 5061,
      "Es": 5062,
      "ĠAround": 5063,
      "Ġbirthday": 5064,
      "Ùĥ": 5065,
      "Ġcarried": 5066,
      "Ġscrew": 5067,
      "alous": 5068,
      "Ġdespite": 5069,
      "Ġapolog": 5070,
      "mate": 5071,
      "Ġtem": 5072,
      "Ġapparent": 5073,
      "Ġsomehow": 5074,
      "ĠBug": 5075,
      "ĠIntern": 5076,
      "ĠAgain": 5077,
      "Ġhost": 5078,
      "Ġlegal": 5079,
      "cher": 5080,
      "Love": 5081,
      "Ġwip": 5082,
      "Ġuses": 5083,
      "ĠShould": 5084,
      "Ġpump": 5085,
      "ga": 5086,
      "Ġ22": 5087,
      "Ġstretch": 5088,
      "aff": 5089,
      "Ġincreased": 5090,
      "Ġbroken": 5091,
      "Wh": 5092,
      "lessly": 5093,
      "Find": 5094,
      "Ġrefer": 5095,
      "Ġpark": 5096,
      "sion": 5097,
      "Ġmultiple": 5098,
      "wor": 5099,
      "Ġslim": 5100,
      "Ġfocused": 5101,
      "Ġhardly": 5102,
      "Ġcrit": 5103,
      "inting": 5104,
      "Ġkeeps": 5105,
      "sw": 5106,
      "Ġjerk": 5107,
      "ĠTwo": 5108,
      "umps": 5109,
      "Ġrevealing": 5110,
      "Ġconfused": 5111,
      "Ġseed": 5112,
      "Ġincludes": 5113,
      "Ġscreaming": 5114,
      "Sluts": 5115,
      "Ġoffering": 5116,
      "alt": 5117,
      "mas": 5118,
      "Ġguide": 5119,
      "Ġsell": 5120,
      "ictor": 5121,
      "Ġrape": 5122,
      "Ġmasturbate": 5123,
      "ĠDay": 5124,
      "Ġlistening": 5125,
      "Ġimagined": 5126,
      "Ġclam": 5127,
      "ald": 5128,
      "Ġrequired": 5129,
      "Ġproject": 5130,
      "Ġimposs": 5131,
      "ĠAnother": 5132,
      "Ġwake": 5133,
      "Ġfasc": 5134,
      "Ġsong": 5135,
      "Ġinstant": 5136,
      "Ġqual": 5137,
      "ĠMax": 5138,
      "Ġban": 5139,
      "Ġobtain": 5140,
      "ĠAnn": 5141,
      "02": 5142,
      "Ġawesome": 5143,
      "Ġrush": 5144,
      "ĠGeorge": 5145,
      "Ġsuccessful": 5146,
      "Ġthre": 5147,
      "ĠAmerican": 5148,
      "Ġredu": 5149,
      "Ġbegging": 5150,
      "aby": 5151,
      "Ġhttps": 5152,
      "Ġnarcissist": 5153,
      "Ġunw": 5154,
      "Ġachieve": 5155,
      "Ġ?": 5156,
      "inese": 5157,
      "ĠPark": 5158,
      "Ġbother": 5159,
      "ĠWor": 5160,
      "Ġseduct": 5161,
      "Ġbudd": 5162,
      "mma": 5163,
      "icit": 5164,
      "Ġconsidering": 5165,
      "Ġben": 5166,
      "ĠClose": 5167,
      "Ġrate": 5168,
      "nes": 5169,
      "othels": 5170,
      "Ġobl": 5171,
      "Ġmilf": 5172,
      "Ġattached": 5173,
      "chan": 5174,
      "Î±": 5175,
      "ĠLive": 5176,
      "ĠSec": 5177,
      "Ġwelcome": 5178,
      "Ġlaying": 5179,
      "Ġboxers": 5180,
      "zen": 5181,
      "Ġifyou": 5182,
      "ĠProf": 5183,
      "Did": 5184,
      "owly": 5185,
      "Ġdetail": 5186,
      "Ġunable": 5187,
      "Ġwhe": 5188,
      "Ġmuscular": 5189,
      "Ġslapped": 5190,
      "Ġtrave": 5191,
      "Ġknelt": 5192,
      "Ġvibrations": 5193,
      "Ġcaressing": 5194,
      "Ġliterally": 5195,
      "Ġnormally": 5196,
      "Ġbooks": 5197,
      "por": 5198,
      "ĠTim": 5199,
      "Ġappearance": 5200,
      "Ġchatting": 5201,
      "ĠMichael": 5202,
      "ĠTod": 5203,
      "pha": 5204,
      "Ġcovering": 5205,
      "Mar": 5206,
      "ĠEnglish": 5207,
      "Ġtherap": 5208,
      "Ġtrad": 5209,
      "Ġdi": 5210,
      "Ġcook": 5211,
      "Ġpath": 5212,
      "ĠCalifornia": 5213,
      "dy": 5214,
      "aturday": 5215,
      "Ġapproached": 5216,
      "iques": 5217,
      "Ġnone": 5218,
      "ĠMag": 5219,
      "Ġscent": 5220,
      "ussian": 5221,
      "Ġep": 5222,
      "ĠDick": 5223,
      "Ġtent": 5224,
      "ilst": 5225,
      "mber": 5226,
      "Ġintell": 5227,
      "Ġmasturbating": 5228,
      "ĠRight": 5229,
      "ao": 5230,
      "Ġgreet": 5231,
      "lder": 5232,
      "Ġshaved": 5233,
      "Ġmagic": 5234,
      "Ġleading": 5235,
      "Ġextend": 5236,
      "Ġmissed": 5237,
      "lla": 5238,
      "Ġnur": 5239,
      "ĠNick": 5240,
      "Ġsav": 5241,
      "Ġstars": 5242,
      "board": 5243,
      "Ġprop": 5244,
      "ĠStill": 5245,
      "Ġhent": 5246,
      "Ġlearning": 5247,
      "See": 5248,
      "Ġrad": 5249,
      "aura": 5250,
      "Ġspirit": 5251,
      "Ġcarry": 5252,
      "Ġthinks": 5253,
      "Ġpock": 5254,
      "cre": 5255,
      "Com": 5256,
      "Ġmate": 5257,
      "Hi": 5258,
      "gen": 5259,
      "Ġdear": 5260,
      "Ġkinky": 5261,
      "Ġpainful": 5262,
      "Ġwithd": 5263,
      "ĠScott": 5264,
      "Ġecstasy": 5265,
      "Ġfashion": 5266,
      "osex": 5267,
      "Ġbuttocks": 5268,
      "Ġmob": 5269,
      "Ġinterests": 5270,
      "Ġdepend": 5271,
      "Ġfield": 5272,
      "Ġjourney": 5273,
      "Ġfake": 5274,
      "nel": 5275,
      "Ġgift": 5276,
      "Ġcateg": 5277,
      "wan": 5278,
      "Ġparties": 5279,
      "ĠNever": 5280,
      "Ġtort": 5281,
      "ĠFrank": 5282,
      "Ġleaning": 5283,
      "itter": 5284,
      "Ġspending": 5285,
      "cover": 5286,
      "Bec": 5287,
      "cons": 5288,
      "Ġstudent": 5289,
      "Ġeverybody": 5290,
      "down": 5291,
      "iva": 5292,
      "Ġdesperate": 5293,
      "ĠFriday": 5294,
      "Ġwaste": 5295,
      "ĠAlan": 5296,
      "Ġconcept": 5297,
      "ĠSmall": 5298,
      "AA": 5299,
      "Ġsharp": 5300,
      "ĠKelly": 5301,
      "sc": 5302,
      "Ġhearing": 5303,
      "Ġhint": 5304,
      "Ġconcerned": 5305,
      "ussy": 5306,
      "Ġblock": 5307,
      "Ġsmaller": 5308,
      "Ġcas": 5309,
      "Ġgripped": 5310,
      "roll": 5311,
      "ĠHel": 5312,
      "Ġlean": 5313,
      "Ġshame": 5314,
      "Ġlovers": 5315,
      "ĠJane": 5316,
      "Ġsteady": 5317,
      "ences": 5318,
      "ĠSpe": 5319,
      "Ġshopping": 5320,
      "Ġsection": 5321,
      "ĠHo": 5322,
      "Ġboots": 5323,
      "Ġprecise": 5324,
      "Ġgrabbing": 5325,
      "Ġbear": 5326,
      "Ġque": 5327,
      "ĠSoon": 5328,
      "Ġpornography": 5329,
      "Ġplanned": 5330,
      "Ġplun": 5331,
      "ĠGreat": 5332,
      "Ġrubber": 5333,
      "angers": 5334,
      "imum": 5335,
      "ĠAmanda": 5336,
      "Ġpillow": 5337,
      "Ġgang": 5338,
      "Ġnor": 5339,
      "Ġ40": 5340,
      "ification": 5341,
      "Ġcrowd": 5342,
      "Ġmound": 5343,
      "ami": 5344,
      "weet": 5345,
      "Ġ32": 5346,
      "ĠLar": 5347,
      "Ġdrew": 5348,
      "Ġcleaning": 5349,
      "Ġcircumst": 5350,
      "bour": 5351,
      "ĠSusan": 5352,
      "Ġstretching": 5353,
      "Ġcoo": 5354,
      "Ġbi": 5355,
      "Ġexercise": 5356,
      "Ð»": 5357,
      "Ġaspect": 5358,
      "ubby": 5359,
      "ĠGone": 5360,
      "Ġliqu": 5361,
      "ĠTy": 5362,
      "Ġescape": 5363,
      "Ġgreater": 5364,
      "ĠJoe": 5365,
      "Ġvibrators": 5366,
      "Ġsmack": 5367,
      "Ġdildos": 5368,
      ".)": 5369,
      "ivity": 5370,
      "pet": 5371,
      "Ġhelping": 5372,
      "whel": 5373,
      "Ġattempting": 5374,
      "Ġslo": 5375,
      "Ġarticle": 5376,
      "Ġindeed": 5377,
      "isex": 5378,
      "Ġopinion": 5379,
      "Ġnegative": 5380,
      "Ġcontr": 5381,
      "Ġdivorce": 5382,
      "Tr": 5383,
      "Ġjump": 5384,
      "ĠWhite": 5385,
      "Bl": 5386,
      "Ġnights": 5387,
      "ĠBrian": 5388,
      "Ġanimal": 5389,
      "ĠIts": 5390,
      "Ġhistory": 5391,
      "Ġputs": 5392,
      "Ġmor": 5393,
      "Ġredd": 5394,
      "Ġseriously": 5395,
      "pan": 5396,
      "uren": 5397,
      "Ġthrow": 5398,
      "sha": 5399,
      "Ġjaw": 5400,
      "Ġclips": 5401,
      "Ġupstairs": 5402,
      "ero": 5403,
      "Ġseven": 5404,
      "XX": 5405,
      "Ġsettled": 5406,
      "Ġwished": 5407,
      "Ġwigg": 5408,
      "ĠRel": 5409,
      "Ġproviding": 5410,
      "attoo": 5411,
      "ĠBeth": 5412,
      "Ġremained": 5413,
      "Ġrolling": 5414,
      "apchat": 5415,
      "Ġid": 5416,
      "Ġbob": 5417,
      "ĠJosh": 5418,
      "ĠVal": 5419,
      "ĠLat": 5420,
      "ĠBrad": 5421,
      "Ġrecognize": 5422,
      "ĠLinda": 5423,
      "iant": 5424,
      "Ġaffect": 5425,
      "Ġwink": 5426,
      "ĠFemale": 5427,
      "Ġrich": 5428,
      "Ġbrow": 5429,
      "ĠMil": 5430,
      "asha": 5431,
      "pective": 5432,
      "lee": 5433,
      "Ġsafety": 5434,
      "coming": 5435,
      "Ġpred": 5436,
      "Ġnoise": 5437,
      "Any": 5438,
      "atives": 5439,
      "Ġslick": 5440,
      "Ġsecurity": 5441,
      "'.": 5442,
      "icient": 5443,
      "helle": 5444,
      "edding": 5445,
      "Ġyelled": 5446,
      "ĠJessica": 5447,
      "ĠHapp": 5448,
      "raw": 5449,
      "Ġwetness": 5450,
      "Ġmassaging": 5451,
      "Ġsounded": 5452,
      "Ġengage": 5453,
      "Ġsis": 5454,
      "button": 5455,
      "Ġmagaz": 5456,
      "Ġtasted": 5457,
      "osexual": 5458,
      "Ġcleaned": 5459,
      "âĢĿ,": 5460,
      "Ġenjoys": 5461,
      "ĠYoung": 5462,
      "Ġsupple": 5463,
      "pie": 5464,
      "Ġsick": 5465,
      "ĠCome": 5466,
      "Ġbulge": 5467,
      "ĠColumb": 5468,
      "ĠKen": 5469,
      "Ġharm": 5470,
      "27": 5471,
      "imately": 5472,
      "Ġexposing": 5473,
      "Ġpros": 5474,
      "apt": 5475,
      "essed": 5476,
      "Ġanybody": 5477,
      "Ġads": 5478,
      "ĠDel": 5479,
      "Ġrelief": 5480,
      "ĠFacebook": 5481,
      "Ġpadd": 5482,
      "Ġaccompl": 5483,
      "sexual": 5484,
      "God": 5485,
      "aries": 5486,
      "Ġstands": 5487,
      "urope": 5488,
      "Ġshake": 5489,
      "Ġgif": 5490,
      "Ġdialog": 5491,
      "50": 5492,
      "Ġbenefits": 5493,
      "Ġimpossible": 5494,
      "Ġanticipation": 5495,
      "Ġparted": 5496,
      "Ġzhan": 5497,
      "Ġboost": 5498,
      "Ġreward": 5499,
      ".âĢĻ": 5500,
      "ÙĨ": 5501,
      "Ġ33": 5502,
      "ĠLou": 5503,
      "essions": 5504,
      "Ġoutfit": 5505,
      "function": 5506,
      "estyle": 5507,
      "Ġoverwhel": 5508,
      "Ġtrail": 5509,
      "Ġlouder": 5510,
      "Ġhugged": 5511,
      "ett": 5512,
      "cohol": 5513,
      "SS": 5514,
      "ollow": 5515,
      "Ġdu": 5516,
      "Ġtarget": 5517,
      "ĠJay": 5518,
      "Ġrandom": 5519,
      "Ġgroan": 5520,
      "Ġessential": 5521,
      "Ġsky": 5522,
      "Ġfinds": 5523,
      "ĠMeet": 5524,
      "Ġflirt": 5525,
      "Ġbuddies": 5526,
      "illa": 5527,
      "Ġstudents": 5528,
      "Ġconcl": 5529,
      "Ġspit": 5530,
      "rip": 5531,
      "gging": 5532,
      "Ġtough": 5533,
      "Ġgasp": 5534,
      "Ġbite": 5535,
      "Ġcommit": 5536,
      "riv": 5537,
      "Ġbelong": 5538,
      "26": 5539,
      "Ġpaused": 5540,
      "Ġthatyou": 5541,
      "ĠTeen": 5542,
      "Ġjealous": 5543,
      "Every": 5544,
      "oogle": 5545,
      "Ġjerking": 5546,
      "Ġarched": 5547,
      "ĠMA": 5548,
      "Ġrang": 5549,
      "Sure": 5550,
      "Ġexploring": 5551,
      "Ġwarmth": 5552,
      "irting": 5553,
      "Ġdemonst": 5554,
      "ander": 5555,
      "avage": 5556,
      "Ġtruck": 5557,
      "Ġsilent": 5558,
      "ĠSexy": 5559,
      "ĠSaturday": 5560,
      "vide": 5561,
      "udes": 5562,
      "ĠSexual": 5563,
      "Ġtypically": 5564,
      "Ġarg": 5565,
      "Ġending": 5566,
      "Ab": 5567,
      "Girl": 5568,
      "ĠOff": 5569,
      "zed": 5570,
      "Ġfort": 5571,
      "ĠGuys": 5572,
      "alley": 5573,
      "Ġjerked": 5574,
      "ico": 5575,
      "incess": 5576,
      "ĠHarry": 5577,
      "Ġtask": 5578,
      "rel": 5579,
      "Ġprivacy": 5580,
      "Ġproced": 5581,
      "Look": 5582,
      "Ġkick": 5583,
      "Ġconscious": 5584,
      "Ġcollection": 5585,
      "fortunately": 5586,
      "Ġsociety": 5587,
      "Online": 5588,
      "Ġgre": 5589,
      "ĠMart": 5590,
      "Ġholes": 5591,
      "Hell": 5592,
      "ĠJapanese": 5593,
      "Ġupd": 5594,
      "Ġchoices": 5595,
      "iley": 5596,
      "ĠNY": 5597,
      "ĠAtt": 5598,
      "ĠErotic": 5599,
      "ĠYOU": 5600,
      "porn": 5601,
      "Ġcaressed": 5602,
      "iber": 5603,
      "ĠSometimes": 5604,
      "Ġincest": 5605,
      "Ġemer": 5606,
      "Ġcollaps": 5607,
      "Ġdrawn": 5608,
      "Ġsituations": 5609,
      "Ġaccident": 5610,
      "Ġdeb": 5611,
      "Ġactive": 5612,
      "Ġchanges": 5613,
      "Ġglist": 5614,
      "ĠMc": 5615,
      "âĤ": 5616,
      "Ġforcing": 5617,
      "uckold": 5618,
      "Ġdesired": 5619,
      "Ġinvited": 5620,
      "Ġfist": 5621,
      "ĠJulie": 5622,
      "Ġdar": 5623,
      "Ġsingles": 5624,
      "28": 5625,
      "Ġfans": 5626,
      "Ġland": 5627,
      "Ġcompared": 5628,
      "ĠNearby": 5629,
      "Ġnasty": 5630,
      "ĠDa": 5631,
      "Ġbatter": 5632,
      "Ġcontinues": 5633,
      "ĠHigh": 5634,
      "Ġna": 5635,
      "Ġvirt": 5636,
      "Ġintimacy": 5637,
      "Ġneither": 5638,
      "Ġrobe": 5639,
      "verse": 5640,
      "Ġsheets": 5641,
      "itor": 5642,
      "gal": 5643,
      "Ġleaves": 5644,
      "Ġsold": 5645,
      "ĠPeter": 5646,
      "ĠJennifer": 5647,
      "Ġfeature": 5648,
      "ulous": 5649,
      "ĠNum": 5650,
      "Ġchecking": 5651,
      "Ġtant": 5652,
      "place": 5653,
      "Ġdude": 5654,
      "ÙĪ": 5655,
      "Ñĥ": 5656,
      "Ġchose": 5657,
      "Ġstaying": 5658,
      "mail": 5659,
      "ori": 5660,
      "Ġends": 5661,
      "Ġconfir": 5662,
      "Ġtie": 5663,
      "Ġcondition": 5664,
      "Ġencourage": 5665,
      "ĠStr": 5666,
      "Ġrig": 5667,
      "ouses": 5668,
      "Ġflick": 5669,
      "ĠCindy": 5670,
      "Ġpleasant": 5671,
      "Ġbrushed": 5672,
      "Ġsched": 5673,
      "Ġ2018": 5674,
      "bby": 5675,
      "ocol": 5676,
      "Ġdare": 5677,
      "Ġresting": 5678,
      "Ġ27": 5679,
      "pen": 5680,
      "OW": 5681,
      "esides": 5682,
      "Ġpel": 5683,
      "Ġdepart": 5684,
      "Ġbenefit": 5685,
      "ĠWork": 5686,
      "Ġspray": 5687,
      "Ġuseful": 5688,
      "oms": 5689,
      "Ġproperly": 5690,
      "Ġtour": 5691,
      "Ġstare": 5692,
      "Ġclubs": 5693,
      "Ġchecked": 5694,
      "Ġvict": 5695,
      "Ġpier": 5696,
      "Go": 5697,
      "ĠWatch": 5698,
      "Ġexpensive": 5699,
      "Ã¶": 5700,
      "Ġplanning": 5701,
      "Ġmedical": 5702,
      "Ġhip": 5703,
      "Cl": 5704,
      "Ġpassword": 5705,
      "Ġshooting": 5706,
      "Ġmel": 5707,
      "Ġframe": 5708,
      "Ġannoun": 5709,
      "Ġultimate": 5710,
      "Ġnames": 5711,
      "Ġlevels": 5712,
      "Ġpumped": 5713,
      "Ġate": 5714,
      "ware": 5715,
      "Ġ!": 5716,
      "ferences": 5717,
      "iron": 5718,
      "ĠBlo": 5719,
      "ĊĊĠĠĠĠĠ": 5720,
      "Ġcollar": 5721,
      "Ġinqu": 5722,
      "Ġgall": 5723,
      "ront": 5724,
      "Ġbasic": 5725,
      "Ġintensity": 5726,
      "Ġinitial": 5727,
      "logy": 5728,
      "ĠTell": 5729,
      "aret": 5730,
      "Ġchances": 5731,
      "Ġsolid": 5732,
      "Ġmerely": 5733,
      "These": 5734,
      "Ġsees": 5735,
      "ĠRiver": 5736,
      "vey": 5737,
      "ĠAnt": 5738,
      "Ġteach": 5739,
      "ysfunction": 5740,
      "Ġbrings": 5741,
      "ola": 5742,
      "uffs": 5743,
      "onely": 5744,
      "Ġwhose": 5745,
      "Ġoccasionally": 5746,
      "Ġmethods": 5747,
      "Ġtongues": 5748,
      "Ġaccounts": 5749,
      "However": 5750,
      "isexual": 5751,
      "ĠRon": 5752,
      "Ġmissing": 5753,
      "aped": 5754,
      "Ġcareer": 5755,
      "Ġinnocent": 5756,
      "known": 5757,
      "ĠIndian": 5758,
      "perience": 5759,
      "itional": 5760,
      "urs": 5761,
      "ĠLyn": 5762,
      "Ġexception": 5763,
      "ker": 5764,
      "iently": 5765,
      "Ġboard": 5766,
      "ĠAnna": 5767,
      "Øª": 5768,
      "itionally": 5769,
      "theless": 5770,
      "Ġhol": 5771,
      "Ġextended": 5772,
      "Ġdescribe": 5773,
      "ST": 5774,
      "eg": 5775,
      "Ġprostate": 5776,
      "Ġincluded": 5777,
      "imin": 5778,
      "Ġrise": 5779,
      "Ġpresence": 5780,
      "que": 5781,
      "Ġstandard": 5782,
      "Ġfu": 5783,
      "ubb": 5784,
      "Ġsticky": 5785,
      "Ġpor": 5786,
      "eter": 5787,
      "Ġagency": 5788,
      "icole": 5789,
      "Ġspreading": 5790,
      "has": 5791,
      "Ġrev": 5792,
      "Ġutilize": 5793,
      "Mom": 5794,
      "ĠMother": 5795,
      "erman": 5796,
      "ĠTime": 5797,
      "ĠColumbia": 5798,
      "urable": 5799,
      "Ġburning": 5800,
      "34": 5801,
      "Ġrear": 5802,
      "Ġbb": 5803,
      "zing": 5804,
      "Ġappears": 5805,
      "Ġcy": 5806,
      "Ġelev": 5807,
      "Ġculture": 5808,
      "Ġdownload": 5809,
      "Ġearth": 5810,
      "Ġejaculation": 5811,
      "Ġstronger": 5812,
      "Ġaffe": 5813,
      "ĠAdam": 5814,
      "âĤ¬": 5815,
      "Ġenhance": 5816,
      "Ġexperiment": 5817,
      "Ġpanting": 5818,
      "amming": 5819,
      "Ġalcohol": 5820,
      "Ġsheet": 5821,
      "ifically": 5822,
      "ĠPerhaps": 5823,
      "Ġbegged": 5824,
      "ĠSn": 5825,
      "Ġsurface": 5826,
      "Ġannoy": 5827,
      "Casual": 5828,
      "Ġeverywhere": 5829,
      "29": 5830,
      "Ġdisappointed": 5831,
      "200": 5832,
      "ĠKate": 5833,
      "Ġba": 5834,
      "Ġrecent": 5835,
      "ĠSir": 5836,
      "ĠToy": 5837,
      "Ġchanging": 5838,
      "ĠAss": 5839,
      "Ġexchange": 5840,
      "olf": 5841,
      "Ġ29": 5842,
      "Ġgrinding": 5843,
      "Ġge": 5844,
      "pending": 5845,
      "Ġ28": 5846,
      "orable": 5847,
      "Ġbill": 5848,
      "Ġwanna": 5849,
      "Another": 5850,
      "Ġtrousers": 5851,
      "Ġwedding": 5852,
      "Ġrope": 5853,
      "Ġtopic": 5854,
      "Ġaim": 5855,
      "Ġborn": 5856,
      "Ġregret": 5857,
      "AR": 5858,
      "andra": 5859,
      "Ġconnected": 5860,
      "omb": 5861,
      "Ġupset": 5862,
      "ĠBay": 5863,
      "Ġgrat": 5864,
      "Ġalternative": 5865,
      "Ġsoaked": 5866,
      "ĠAnal": 5867,
      "inging": 5868,
      "ĠOk": 5869,
      "Ġstates": 5870,
      "Ġreader": 5871,
      "uffy": 5872,
      "wo": 5873,
      "Ġappropriate": 5874,
      "Ġdetermined": 5875,
      "Ġhottest": 5876,
      "made": 5877,
      "ĠCock": 5878,
      "Ġmilk": 5879,
      "Ġadults": 5880,
      "eness": 5881,
      "Ġentertainment": 5882,
      "while": 5883,
      "Ġwhilst": 5884,
      "Ġflood": 5885,
      "Ġpolice": 5886,
      "Ġinflu": 5887,
      "herry": 5888,
      "Ġsugar": 5889,
      "Ġfly": 5890,
      "Ġheads": 5891,
      "urch": 5892,
      "Ġexclusive": 5893,
      "Ġguard": 5894,
      "Ġlace": 5895,
      "ĠAnonymous": 5896,
      "Ġaccepted": 5897,
      "Ġdiscussion": 5898,
      "Ġtechnique": 5899,
      "ĠPo": 5900,
      "ĠFriend": 5901,
      "Ġbasically": 5902,
      "Ġbelief": 5903,
      "Ġsteam": 5904,
      "Ġinfo": 5905,
      "ĠFrench": 5906,
      "tr": 5907,
      "Ġmobile": 5908,
      "Ġdisg": 5909,
      "Ġtattoo": 5910,
      "Ġpocket": 5911,
      "Maybe": 5912,
      "Ġnib": 5913,
      "Ġking": 5914,
      "look": 5915,
      "Ġbuttons": 5916,
      "making": 5917,
      "reek": 5918,
      "Ġsink": 5919,
      "Ġwalks": 5920,
      "Ġintended": 5921,
      "Ġcases": 5922,
      "Ġsleeve": 5923,
      "ener": 5924,
      "ira": 5925,
      "ĠDom": 5926,
      "Ġchem": 5927,
      "ĠLaura": 5928,
      "Our": 5929,
      "bey": 5930,
      "door": 5931,
      "Ġcontain": 5932,
      "ĠRachel": 5933,
      "Ġcupped": 5934,
      "Ġsir": 5935,
      "ĠMess": 5936,
      "Ġenorm": 5937,
      "Ġrelated": 5938,
      "ĠSil": 5939,
      "Ġbud": 5940,
      "Ġrested": 5941,
      "OR": 5942,
      "ĠReg": 5943,
      "Ġgradually": 5944,
      "Ġgiant": 5945,
      "ĠTha": 5946,
      "Ġzhanchen": 5947,
      "ĠSite": 5948,
      "Ġslipp": 5949,
      "ĠSuddenly": 5950,
      "Ġmachine": 5951,
      "Ġunbutton": 5952,
      "Ġvulner": 5953,
      "Ġkicked": 5954,
      "ĠJill": 5955,
      "Ġnicely": 5956,
      "otten": 5957,
      "Ġmovements": 5958,
      "ĠSomeone": 5959,
      "Ġworst": 5960,
      "orough": 5961,
      "Ġya": 5962,
      "ĠHell": 5963,
      "Ġcrossed": 5964,
      "lyn": 5965,
      "Ġcovers": 5966,
      "Ġcourt": 5967,
      "Ġtechniques": 5968,
      "Ġflash": 5969,
      "Ġbreathe": 5970,
      "Ġstopping": 5971,
      "Ġprotest": 5972,
      "Ġdominant": 5973,
      "under": 5974,
      "Ġbullet": 5975,
      "Ġyan": 5976,
      "Ġhentai": 5977,
      "ĠAust": 5978,
      "new": 5979,
      "house": 5980,
      "Ġgain": 5981,
      "Ġtreated": 5982,
      "ĠNext": 5983,
      "Ġspr": 5984,
      "Ġstripped": 5985,
      "Ġpercent": 5986,
      "Ġmental": 5987,
      "Ġwrists": 5988,
      "Ġsucks": 5989,
      "ĠHey": 5990,
      "Ġchuckled": 5991,
      "Ġconvin": 5992,
      "Ġcondoms": 5993,
      "Ġ00": 5994,
      "Ġpractically": 5995,
      "Ġheavily": 5996,
      "Ġconstru": 5997,
      "Ġsore": 5998,
      "Ġbreaking": 5999,
      "Ġsmiles": 6000,
      "Ġyouth": 6001,
      "Ġlifestyle": 6002,
      "Ġaccording": 6003,
      "Ġinserted": 6004,
      "Ġ36": 6005,
      "Ġproduce": 6006,
      "Ġassume": 6007,
      "ĠDar": 6008,
      "Ġeffects": 6009,
      "Ġnumbers": 6010,
      "asts": 6011,
      "Ġdeveloped": 6012,
      "Ġwrote": 6013,
      "Ġlosing": 6014,
      "35": 6015,
      "Ġguided": 6016,
      "stal": 6017,
      "Dating": 6018,
      "Ġhood": 6019,
      "IT": 6020,
      "Ġjoke": 6021,
      "sm": 6022,
      "ĠSure": 6023,
      "Ġintri": 6024,
      "uit": 6025,
      "Ġaunt": 6026,
      "Ġnobody": 6027,
      "Ġdoors": 6028,
      "Ġcredit": 6029,
      "Ġslammed": 6030,
      "Ġfreed": 6031,
      "Ġshouted": 6032,
      "atche": 6033,
      "Ġdidnt": 6034,
      "ivering": 6035,
      "Ġexpecting": 6036,
      "ĠOb": 6037,
      "Ġdegree": 6038,
      "ĠShan": 6039,
      "Ðº": 6040,
      "ston": 6041,
      "aks": 6042,
      "oma": 6043,
      "ĠFlame": 6044,
      "Ġautom": 6045,
      "Ġplacing": 6046,
      "Ġthreesome": 6047,
      "bre": 6048,
      "Like": 6049,
      "eem": 6050,
      "Ġslept": 6051,
      "upt": 6052,
      "Ġintention": 6053,
      "Ġtaught": 6054,
      "Before": 6055,
      "ception": 6056,
      "ÏĦ": 6057,
      "Ġchallenge": 6058,
      "ĠLittle": 6059,
      "ĠSara": 6060,
      "Ġdetermine": 6061,
      "ĠAge": 6062,
      "ĠDomin": 6063,
      "Ġappealing": 6064,
      "Ġbadly": 6065,
      "Ġvo": 6066,
      "Ġraise": 6067,
      "ival": 6068,
      "Ġtumblr": 6069,
      "Ġelectric": 6070,
      "Ġversion": 6071,
      "Rel": 6072,
      "Ġgrowth": 6073,
      "Ġfamous": 6074,
      "Ġsticking": 6075,
      "Ġsin": 6076,
      "Ġserve": 6077,
      "ribut": 6078,
      "ĠCat": 6079,
      "ĠRemember": 6080,
      "enc": 6081,
      "Ġsigns": 6082,
      "ĠTinder": 6083,
      "Ġment": 6084,
      "ĠInternet": 6085,
      "vant": 6086,
      "enny": 6087,
      "Ġunex": 6088,
      "Ġhelpless": 6089,
      "Ġtypical": 6090,
      "ĠWhich": 6091,
      "Take": 6092,
      "udy": 6093,
      "Ġimpact": 6094,
      "Ġvisible": 6095,
      "Ġlocate": 6096,
      "Ġwrist": 6097,
      "ulate": 6098,
      "Ġtail": 6099,
      "ĠCr": 6100,
      "yes": 6101,
      "EE": 6102,
      "Ġtreatment": 6103,
      "Î¿": 6104,
      "Ġenviron": 6105,
      "Ġurge": 6106,
      "erves": 6107,
      "Ġselection": 6108,
      "Ġvibe": 6109,
      "ĠGay": 6110,
      "Ġ26": 6111,
      "Ġroughly": 6112,
      "Best": 6113,
      "gl": 6114,
      "ĠCla": 6115,
      "Ġoriginal": 6116,
      "Ġtwisted": 6117,
      "Ġshots": 6118,
      "bd": 6119,
      "using": 6120,
      "ĠWoman": 6121,
      "Ġsubt": 6122,
      "ĠThose": 6123,
      "Pl": 6124,
      "ault": 6125,
      "Ġwashed": 6126,
      "icle": 6127,
      "Sp": 6128,
      "Ġsilk": 6129,
      "iform": 6130,
      "Ġcleavage": 6131,
      "Ġiniti": 6132,
      "etime": 6133,
      "Car": 6134,
      "Ġhi": 6135,
      "aying": 6136,
      "usting": 6137,
      "entially": 6138,
      "ek": 6139,
      "Ġslap": 6140,
      "Ġshown": 6141,
      "Ġkno": 6142,
      "Ġjobs": 6143,
      "Ġaffection": 6144,
      "ĠHaving": 6145,
      "ĠUs": 6146,
      "Ġbored": 6147,
      "Ġdamp": 6148,
      "Ġunz": 6149,
      "Ġtil": 6150,
      "Ġmanhood": 6151,
      "ĠYeah": 6152,
      "Ġglasses": 6153,
      ",'": 6154,
      "ige": 6155,
      "was": 6156,
      "rem": 6157,
      "urance": 6158,
      "Ġacting": 6159,
      "Cha": 6160,
      "Ġindependent": 6161,
      "ĠReview": 6162,
      "Ġcott": 6163,
      "Ġglance": 6164,
      "Ġroutine": 6165,
      "Ġconversations": 6166,
      "Ġenhan": 6167,
      "Ġhardcore": 6168,
      "viously": 6169,
      "Ġconven": 6170,
      "aylor": 6171,
      "Ġworkout": 6172,
      "Ġhitting": 6173,
      "ĠOl": 6174,
      "Ġmurm": 6175,
      "Ġjapanese": 6176,
      "hens": 6177,
      "Ġhumor": 6178,
      "Ġdistract": 6179,
      "Ġack": 6180,
      "onda": 6181,
      "ĠVideos": 6182,
      "Ġmonster": 6183,
      "Ġforeplay": 6184,
      "Ġphysically": 6185,
      "Ġadditionally": 6186,
      "Ġmatters": 6187,
      "atural": 6188,
      "ĠScot": 6189,
      "mitted": 6190,
      "Ġprecisely": 6191,
      "Ġviagra": 6192,
      "ĠNL": 6193,
      "Ġundress": 6194,
      "Ġcig": 6195,
      "ĠPort": 6196,
      "Ġhyp": 6197,
      "Ġfeminine": 6198,
      "Ġreluct": 6199,
      "Ġdistinct": 6200,
      "Ġmistake": 6201,
      "Add": 6202,
      "Ġcaut": 6203,
      "Ġfle": 6204,
      "Ġintroduced": 6205,
      "Ok": 6206,
      "uf": 6207,
      "Ġthorough": 6208,
      "Ġenjoyment": 6209,
      "ulated": 6210,
      "Ġrain": 6211,
      "ĠTiny": 6212,
      "una": 6213,
      "Ġtrem": 6214,
      "Ġwaves": 6215,
      "Ġfingering": 6216,
      "orthy": 6217,
      "Ġprogress": 6218,
      "Ġbackground": 6219,
      "Ġhorse": 6220,
      "Ġforehead": 6221,
      "Ġdied": 6222,
      "Ġrod": 6223,
      "Ġinstinct": 6224,
      "burg": 6225,
      "ando": 6226,
      "Ġath": 6227,
      "ĠCle": 6228,
      "Most": 6229,
      "oud": 6230,
      "Ġpopped": 6231,
      "Ġanswers": 6232,
      "Ġcompliment": 6233,
      "Ġthousands": 6234,
      "Ġnails": 6235,
      "Ġsuppose": 6236,
      "Ġblushed": 6237,
      "Ġpic": 6238,
      "ota": 6239,
      "Ġseek": 6240,
      "eddit": 6241,
      "Ġcollapsed": 6242,
      "Ġvibration": 6243,
      "Ġtiss": 6244,
      "ums": 6245,
      "ÂłÂłÂł": 6246,
      "Ġrecall": 6247,
      "Ġmagn": 6248,
      "ĠÐ²": 6249,
      "ĠWhether": 6250,
      "Ġgreatest": 6251,
      "Ġsports": 6252,
      "Ġshifted": 6253,
      "ĠAuthor": 6254,
      "Have": 6255,
      "ĠJustin": 6256,
      "Ġspark": 6257,
      "Ġattitude": 6258,
      "ĠPerson": 6259,
      "long": 6260,
      "eping": 6261,
      "ela": 6262,
      "Ġchoo": 6263,
      "ears": 6264,
      "ĠMuch": 6265,
      "aker": 6266,
      "atching": 6267,
      "ĠEast": 6268,
      "Ġheading": 6269,
      "Ġfingert": 6270,
      "Ġcharacters": 6271,
      "uses": 6272,
      "Ġprocedure": 6273,
      "ye": 6274,
      "Ġthirty": 6275,
      "ĠHolly": 6276,
      "Ġcast": 6277,
      "Ġdisappeared": 6278,
      "Ġswitch": 6279,
      "Ġliquid": 6280,
      "ĠâĢĿ": 6281,
      "Ġangle": 6282,
      "Because": 6283,
      "Ġmedic": 6284,
      "Ġsurprising": 6285,
      "Ġformer": 6286,
      "Ġrapidly": 6287,
      "Ġmeal": 6288,
      "ĠHas": 6289,
      "ĠCons": 6290,
      "unting": 6291,
      "Ġgather": 6292,
      "bes": 6293,
      "Ġwrap": 6294,
      "ĠMa": 6295,
      "Ġuns": 6296,
      "Ke": 6297,
      "Thanks": 6298,
      "Ġtens": 6299,
      "ural": 6300,
      "ubs": 6301,
      "ika": 6302,
      "rif": 6303,
      "Ġindul": 6304,
      "nda": 6305,
      "Ġcompre": 6306,
      "Ġbuzz": 6307,
      "vern": 6308,
      "Ġconsequ": 6309,
      "Ġmetal": 6310,
      "bu": 6311,
      "Ġhappily": 6312,
      "Ġinsp": 6313,
      "mar": 6314,
      "agged": 6315,
      "laimed": 6316,
      "Ġpuss": 6317,
      "terday": 6318,
      "Ġflirting": 6319,
      "ado": 6320,
      "Ġcurves": 6321,
      "Ġlifting": 6322,
      "pic": 6323,
      "Ġrevealed": 6324,
      "gs": 6325,
      "ĠSask": 6326,
      "Ġdata": 6327,
      "vere": 6328,
      "Ġcheer": 6329,
      "Ġsits": 6330,
      "ĠList": 6331,
      "ĠVictor": 6332,
      "Ġlatest": 6333,
      "Ġsheer": 6334,
      "Ġdepth": 6335,
      "Ġsaliva": 6336,
      "Ġpoured": 6337,
      "Women": 6338,
      "Ġtug": 6339,
      "Ġdisp": 6340,
      "ialis": 6341,
      "bie": 6342,
      "Ġsolo": 6343,
      "Ġenormous": 6344,
      "inn": 6345,
      "Ġsettle": 6346,
      "Ġsway": 6347,
      "Ġgun": 6348,
      "ĠVery": 6349,
      "Ġlonely": 6350,
      "Ġlux": 6351,
      "ĠKrist": 6352,
      "Ġaudience": 6353,
      "Ġfool": 6354,
      "Er": 6355,
      "wife": 6356,
      "ichard": 6357,
      "ĠCou": 6358,
      "ucky": 6359,
      "Wow": 6360,
      "ĠThough": 6361,
      "Ġlikewise": 6362,
      "Ġma": 6363,
      "Ġdumb": 6364,
      "Ġdom": 6365,
      "Ġtelephone": 6366,
      "Ġbliss": 6367,
      "Ġspecifically": 6368,
      "ila": 6369,
      "ura": 6370,
      "Ġnovel": 6371,
      "Ġmission": 6372,
      "ĠAmber": 6373,
      "ĠÂłĠÂł": 6374,
      "Ġconcerning": 6375,
      "Ġcous": 6376,
      "ding": 6377,
      "Ġconsist": 6378,
      "Ġfinan": 6379,
      "Ġaggress": 6380,
      "ĠIN": 6381,
      "Ġapplic": 6382,
      "ĠKatie": 6383,
      "Ġlabia": 6384,
      "Ġembrace": 6385,
      "ache": 6386,
      "Ġguarantee": 6387,
      "Ġslipping": 6388,
      "Ġswirl": 6389,
      "Ġslur": 6390,
      "ugust": 6391,
      "Ġloos": 6392,
      "Ġcircle": 6393,
      "Ġling": 6394,
      "Ġslender": 6395,
      "Ġcloth": 6396,
      "Ġimpl": 6397,
      "rab": 6398,
      "ipper": 6399,
      "atchewan": 6400,
      "gant": 6401,
      "ĠSa": 6402,
      "Ġlesson": 6403,
      "Ġreput": 6404,
      "ĠTwin": 6405,
      "isc": 6406,
      "ĠJon": 6407,
      "Ġ34": 6408,
      "Ġcloset": 6409,
      "Change": 6410,
      "ÙĦ": 6411,
      "Ġmasc": 6412,
      "ements": 6413,
      "ĠEnjoy": 6414,
      "part": 6415,
      "Ġlimit": 6416,
      "Ġafford": 6417,
      "ĠSaskatchewan": 6418,
      "Ġcomplex": 6419,
      "Ġinformed": 6420,
      "From": 6421,
      "iverse": 6422,
      "Ġadventure": 6423,
      "agram": 6424,
      "Ġripped": 6425,
      "Ġstrangers": 6426,
      "then": 6427,
      "Ġgap": 6428,
      "Ġsatisfying": 6429,
      "Ġenvironment": 6430,
      "ĠSpr": 6431,
      "Ġpushes": 6432,
      "Ġromance": 6433,
      "Ġpreviously": 6434,
      "Ġhttp": 6435,
      "ILF": 6436,
      "Finally": 6437,
      "80": 6438,
      "Ġelb": 6439,
      "jection": 6440,
      "Ġpromised": 6441,
      "Select": 6442,
      "Ġdriver": 6443,
      "ĠKay": 6444,
      "Ġtape": 6445,
      "Ġintent": 6446,
      "ucked": 6447,
      "Ġspur": 6448,
      "ĠMedium": 6449,
      "à¦": 6450,
      "ummies": 6451,
      "idel": 6452,
      "ĠWeb": 6453,
      "Ġbank": 6454,
      "Ġtrim": 6455,
      "ii": 6456,
      "ĠKing": 6457,
      "Ġattend": 6458,
      "ĠTry": 6459,
      "Ġfunctions": 6460,
      "Î¹": 6461,
      "Ġpackage": 6462,
      "Ġbunch": 6463,
      "oted": 6464,
      "Ġbattle": 6465,
      "Ø¨": 6466,
      "Ġpha": 6467,
      "Ġsilly": 6468,
      "ĠFL": 6469,
      "ĠAL": 6470,
      "ĠFlor": 6471,
      "key": 6472,
      "Ġrequires": 6473,
      "ĠST": 6474,
      "Ġpermission": 6475,
      "vet": 6476,
      "Ben": 6477,
      "acks": 6478,
      "Ġinstructions": 6479,
      "Ġthrill": 6480,
      "isha": 6481,
      "Ġuniform": 6482,
      "Ġreceiving": 6483,
      "ĠJes": 6484,
      "pril": 6485,
      "iveness": 6486,
      "Ġnamed": 6487,
      "Ġintellig": 6488,
      "ĠPhil": 6489,
      "Ġsole": 6490,
      "Ġafterwards": 6491,
      "itary": 6492,
      "Ġinha": 6493,
      "36": 6494,
      "Ã¡": 6495,
      "Ġworn": 6496,
      "Ġder": 6497,
      "bbed": 6498,
      "Ġwarning": 6499,
      "Ġens": 6500,
      "Ġbouncing": 6501,
      "Even": 6502,
      "omy": 6503,
      "Ġcudd": 6504,
      "Ġtex": 6505,
      "Ġcarrying": 6506,
      "Ġlib": 6507,
      "Ġexhib": 6508,
      "ĠEurope": 6509,
      "ĠBeck": 6510,
      "hetic": 6511,
      "essor": 6512,
      "Ġmemory": 6513,
      "Ġhumiliation": 6514,
      "vit": 6515,
      "Ġpsychological": 6516,
      "Ġuncle": 6517,
      "OM": 6518,
      "Ġwrest": 6519,
      "Ġsam": 6520,
      "Hello": 6521,
      "hest": 6522,
      "otes": 6523,
      "Ġfacial": 6524,
      "Ġpale": 6525,
      "Ġdiscount": 6526,
      "Îµ": 6527,
      "Ġfavour": 6528,
      "Ġshad": 6529,
      "Ġrule": 6530,
      "ege": 6531,
      "rad": 6532,
      "âĢļ": 6533,
      "Ġtossed": 6534,
      "Ġconcentrate": 6535,
      "real": 6536,
      "Ġdrawing": 6537,
      "Ġgroups": 6538,
      "Ġstruggle": 6539,
      "Ġbrush": 6540,
      "Ġdecent": 6541,
      "Ġsupply": 6542,
      "Ġmuff": 6543,
      "ĠMichelle": 6544,
      "Ġalive": 6545,
      "ĠUsing": 6546,
      "ĠRose": 6547,
      "Ġsocks": 6548,
      "Ġfascin": 6549,
      "Ġapplied": 6550,
      "Or": 6551,
      "Ġfish": 6552,
      "Ġmoderation": 6553,
      "ĠNB": 6554,
      "Ġjuicy": 6555,
      "Ġsenses": 6556,
      "fault": 6557,
      "ĠBrand": 6558,
      "ĠMal": 6559,
      "ĠCent": 6560,
      "Ġsessions": 6561,
      "Ġbot": 6562,
      "Ġpour": 6563,
      "ĠVer": 6564,
      "Ġmixed": 6565,
      "atory": 6566,
      "iane": 6567,
      "Ġchocol": 6568,
      "Ġunus": 6569,
      "illing": 6570,
      "olution": 6571,
      "fted": 6572,
      "Ġcoat": 6573,
      "unday": 6574,
      "Ġ2014": 6575,
      "Ġexhausted": 6576,
      "Ġstir": 6577,
      "Ġapply": 6578,
      "Ġbench": 6579,
      "Ġboring": 6580,
      "bled": 6581,
      "ech": 6582,
      "____": 6583,
      "Ġinterview": 6584,
      "Ġconcern": 6585,
      "ĠChristmas": 6586,
      "Ġtempt": 6587,
      "Ġfriendship": 6588,
      "Ġdownstairs": 6589,
      "Ġrepres": 6590,
      "stand": 6591,
      "ucking": 6592,
      "ppers": 6593,
      "ĠSize": 6594,
      "Ġgolden": 6595,
      "ĠTop": 6596,
      "uming": 6597,
      "Ġsemi": 6598,
      "Ġtighter": 6599,
      "istr": 6600,
      "Ġcabin": 6601,
      "Ġrising": 6602,
      "ĠChan": 6603,
      "ĠKar": 6604,
      "Ġfighting": 6605,
      "ĠVideo": 6606,
      "Ġpossibility": 6607,
      "Ġaching": 6608,
      "Ġoo": 6609,
      "Ġarticles": 6610,
      "can": 6611,
      "ĠEmma": 6612,
      "Ġcheating": 6613,
      "Ġflowing": 6614,
      "Ġclitoral": 6615,
      "Ġprostitute": 6616,
      "Ġcontains": 6617,
      "Ġeagerly": 6618,
      "First": 6619,
      "ĠMin": 6620,
      "Ġvision": 6621,
      "Ġstimulate": 6622,
      "ĠEveryone": 6623,
      "ĠJam": 6624,
      "Ġremote": 6625,
      "Ġwider": 6626,
      "Ġfright": 6627,
      "Ġtrembling": 6628,
      "Ġimagination": 6629,
      "Hot": 6630,
      "ĠToday": 6631,
      "ĠEmily": 6632,
      "Ġintrigu": 6633,
      "Ġdelicate": 6634,
      "ĠUnder": 6635,
      "ĠBo": 6636,
      "found": 6637,
      "Ġrode": 6638,
      "orter": 6639,
      "Ġvictim": 6640,
      "ĠKevin": 6641,
      "ĠOH": 6642,
      "Post": 6643,
      "Ġpounded": 6644,
      "pre": 6645,
      "Ġaffair": 6646,
      "ua": 6647,
      "ĠSing": 6648,
      "Ġbalance": 6649,
      "ĠBack": 6650,
      "racial": 6651,
      "Fe": 6652,
      "ĠTon": 6653,
      "Ġpositioned": 6654,
      "ĠLauren": 6655,
      "Ġmatches": 6656,
      "Ġgrunted": 6657,
      "ĠTra": 6658,
      "loe": 6659,
      "Ġpounds": 6660,
      "Ġnine": 6661,
      "Ġrushed": 6662,
      "Ġdefe": 6663,
      "Ġtrig": 6664,
      "Ġpointing": 6665,
      "Ġinteraction": 6666,
      "Ġsolution": 6667,
      "Ġbreathed": 6668,
      "Ġdangerous": 6669,
      "ĠGreg": 6670,
      "Ġexplicit": 6671,
      "55": 6672,
      "Ġsource": 6673,
      "Ġanxiety": 6674,
      "Ġpicking": 6675,
      "Ġshall": 6676,
      "alu": 6677,
      "Ġfee": 6678,
      "Ġeyebr": 6679,
      "stity": 6680,
      "Ġsilky": 6681,
      "Ar": 6682,
      "Ġinterrupt": 6683,
      "Sim": 6684,
      "ĠStart": 6685,
      "Ġplain": 6686,
      "istics": 6687,
      "Ġbiting": 6688,
      "Ġcant": 6689,
      "Ġpatient": 6690,
      "ĠBesides": 6691,
      "Ġclosing": 6692,
      "Ġparking": 6693,
      "stick": 6694,
      "umble": 6695,
      "Ġconce": 6696,
      "Ġexploded": 6697,
      "earing": 6698,
      "Ġsnapped": 6699,
      "Ġworship": 6700,
      "Ġnearby": 6701,
      "Looking": 6702,
      "Ġsweaty": 6703,
      "Ġpetite": 6704,
      "kens": 6705,
      "Ġgest": 6706,
      "Ġsplit": 6707,
      "Ġpleasurable": 6708,
      "ĠNova": 6709,
      "Ġsoaking": 6710,
      "owned": 6711,
      "lim": 6712,
      "Ġblanket": 6713,
      "Mistress": 6714,
      "Ġhappiness": 6715,
      "?'": 6716,
      "ĠNicole": 6717,
      "Ġlimited": 6718,
      "Ġjacket": 6719,
      "itching": 6720,
      "Ġeased": 6721,
      "uh": 6722,
      "Ġstaff": 6723,
      "Default": 6724,
      "Ġsom": 6725,
      "Ġrealised": 6726,
      "Ġbooty": 6727,
      "Ġholiday": 6728,
      "based": 6729,
      "ĠSlowly": 6730,
      "ublic": 6731,
      "iance": 6732,
      "Ġblur": 6733,
      "Ġforgotten": 6734,
      "gment": 6735,
      "Ġcart": 6736,
      "33": 6737,
      "Ġebony": 6738,
      "ils": 6739,
      "ĠNothing": 6740,
      "antha": 6741,
      "ĠVan": 6742,
      "Ġsales": 6743,
      "edy": 6744,
      "Ġforgot": 6745,
      "istry": 6746,
      "ĠDuring": 6747,
      "Ġunlike": 6748,
      "osity": 6749,
      "Ġbesides": 6750,
      "Ġstruggled": 6751,
      "cca": 6752,
      "Ġcircumstances": 6753,
      "Ġsets": 6754,
      "Ġmeasure": 6755,
      "En": 6756,
      "Ġclut": 6757,
      "Ġbriefly": 6758,
      "Ñı": 6759,
      "Ġthus": 6760,
      "ĠTina": 6761,
      "Ġmask": 6762,
      "ĠDou": 6763,
      "Ġloss": 6764,
      "ĠAv": 6765,
      "Ġspect": 6766,
      "Ġacknow": 6767,
      "Con": 6768,
      "see": 6769,
      "ensual": 6770,
      "Ġsubmit": 6771,
      "Sc": 6772,
      "Ġcuri": 6773,
      "Ġapparently": 6774,
      "Ġinsec": 6775,
      "Ġmassaged": 6776,
      "Ġbell": 6777,
      "Ġappoint": 6778,
      "Forgot": 6779,
      "Ġunexpected": 6780,
      "Ġholds": 6781,
      "Ġproceeded": 6782,
      "ĠSan": 6783,
      "cho": 6784,
      "bbie": 6785,
      "anta": 6786,
      "Ġdicks": 6787,
      "VE": 6788,
      "umbs": 6789,
      "nded": 6790,
      "ĠTurn": 6791,
      "ket": 6792,
      "Ġgroin": 6793,
      "Ġslapping": 6794,
      "str": 6795,
      "Ġsac": 6796,
      "Ġcro": 6797,
      "Ġpatterns": 6798,
      "Ġpow": 6799,
      "Ġabuse": 6800,
      "Ġcommunicate": 6801,
      "Ġtransform": 6802,
      "ĠSue": 6803,
      "arden": 6804,
      "Ð¼": 6805,
      "Ġtree": 6806,
      "ĠWife": 6807,
      "ĠAlice": 6808,
      "Ġpreferred": 6809,
      "Ġwound": 6810,
      "Ġseductive": 6811,
      "ventually": 6812,
      "Ġpurple": 6813,
      "Ġwiped": 6814,
      "Ġslippery": 6815,
      "ĠRock": 6816,
      "Ġlubricant": 6817,
      "ali": 6818,
      "Ġgodd": 6819,
      "ĠSur": 6820,
      "Ġexperiencing": 6821,
      "ĠPlus": 6822,
      "Ġhd": 6823,
      "ĠRobert": 6824,
      "Ġpeace": 6825,
      "Ġrelig": 6826,
      "Ġbasis": 6827,
      "etish": 6828,
      "Ġreflect": 6829,
      "EA": 6830,
      "Ġdrugs": 6831,
      "New": 6832,
      "Ġbisexual": 6833,
      "ikki": 6834,
      "Ġdesperately": 6835,
      "Ġspin": 6836,
      "osen": 6837,
      "ĠGive": 6838,
      "Ġactress": 6839,
      "nn": 6840,
      "Ġamazed": 6841,
      "Ġadding": 6842,
      "Ġphr": 6843,
      "Ġdressing": 6844,
      "ament": 6845,
      "Ġequally": 6846,
      "Ġslides": 6847,
      "suit": 6848,
      "Only": 6849,
      "69": 6850,
      "Ġmiles": 6851,
      "ouldn": 6852,
      "Ġstraps": 6853,
      "ĠHair": 6854,
      "Ġreplaced": 6855,
      "45": 6856,
      "bang": 6857,
      "ÑĮ": 6858,
      "Ġcapable": 6859,
      "UCK": 6860,
      "berta": 6861,
      "Ġpassionately": 6862,
      "Ġrace": 6863,
      "law": 6864,
      "aze": 6865,
      "ĠLynn": 6866,
      "Ġsubscription": 6867,
      "eur": 6868,
      "ĠMILF": 6869,
      "Ġdragged": 6870,
      "Ġrigid": 6871,
      "Ġdrops": 6872,
      "Ġglistening": 6873,
      "Ġbutter": 6874,
      "Ġtries": 6875,
      "anking": 6876,
      "Ġshift": 6877,
      "ĠMod": 6878,
      "Ġleads": 6879,
      "Ġblindfold": 6880,
      "Ġwashing": 6881,
      "ĠAf": 6882,
      "ja": 6883,
      "Ġcrawled": 6884,
      "da": 6885,
      "Ġincor": 6886,
      "ĠMaria": 6887,
      "ĠUnited": 6888,
      "oken": 6889,
      "ĠSay": 6890,
      "ĠLi": 6891,
      "uded": 6892,
      "Ġdrug": 6893,
      "Ä±n": 6894,
      "Ġtools": 6895,
      "erek": 6896,
      "uzz": 6897,
      "ĠNOT": 6898,
      "ĠIsland": 6899,
      "ĠPM": 6900,
      "Ġsneak": 6901,
      "Ùħ": 6902,
      "Ġadmitted": 6903,
      "Ġtitle": 6904,
      "atically": 6905,
      "rit": 6906,
      "ouch": 6907,
      "Ġâ": 6908,
      "Ġassured": 6909,
      "Ã§": 6910,
      "IC": 6911,
      "Ġexcuse": 6912,
      "Ġmouths": 6913,
      "Ġmatching": 6914,
      "Ġ@": 6915,
      "ĠFlorida": 6916,
      "Ġacts": 6917,
      "Per": 6918,
      "Ġlies": 6919,
      "Since": 6920,
      "imal": 6921,
      "Ã¤": 6922,
      "ĠVib": 6923,
      "ca": 6924,
      "Ġquit": 6925,
      "Ġbabes": 6926,
      "Ġconsent": 6927,
      "empor": 6928,
      "oe": 6929,
      "Ġimpression": 6930,
      "gly": 6931,
      "Ġslaves": 6932,
      "Ġhosp": 6933,
      "Ġstrate": 6934,
      "racting": 6935,
      "Ġhated": 6936,
      "Ġstrategy": 6937,
      "ĠScotia": 6938,
      "Ġsurely": 6939,
      "Ġsmoke": 6940,
      "Ġlifetime": 6941,
      "pa": 6942,
      "Ġpretend": 6943,
      "proof": 6944,
      "',": 6945,
      "Ġprove": 6946,
      "Ġ02": 6947,
      "Ġerr": 6948,
      "ani": 6949,
      "Ġhasn": 6950,
      "Ġpassing": 6951,
      "fin": 6952,
      "ĠOld": 6953,
      "Ġrelaxing": 6954,
      "ĠBad": 6955,
      "Ġdescribed": 6956,
      "quis": 6957,
      "Ġtasting": 6958,
      "Ġphotographs": 6959,
      "ĠSy": 6960,
      "Ġdemand": 6961,
      "ĠTex": 6962,
      "Ġhonestly": 6963,
      "Ġmodern": 6964,
      "Ġdrank": 6965,
      "Ġdialogue": 6966,
      "Ġhorn": 6967,
      "Ġegg": 6968,
      "Ġinviting": 6969,
      "Ġangel": 6970,
      "Ġaband": 6971,
      "Ġsubst": 6972,
      "Ġcode": 6973,
      "Ġrot": 6974,
      "Ġrent": 6975,
      "Ġterrible": 6976,
      "ĠPay": 6977,
      "Ġmaid": 6978,
      "Ġsorts": 6979,
      "Ġdut": 6980,
      "ĠAN": 6981,
      "rily": 6982,
      "ĠTommy": 6983,
      "ĠPA": 6984,
      "More": 6985,
      "acting": 6986,
      "Ġtightened": 6987,
      "Ġyesterday": 6988,
      "Des": 6989,
      "Ġmatt": 6990,
      "ights": 6991,
      "Ġbars": 6992,
      "Ġwrit": 6993,
      "gie": 6994,
      "Ġkneeling": 6995,
      "Ġposts": 6996,
      "Ġstatus": 6997,
      "Ġcombination": 6998,
      "Ġ01": 6999,
      "this": 7000,
      "bell": 7001,
      "Ġreaches": 7002,
      "Ġlicks": 7003,
      "Ġcotton": 7004,
      "Char": 7005,
      "Ġamer": 7006,
      "ĠQuick": 7007,
      "ĠJean": 7008,
      "list": 7009,
      "shot": 7010,
      "Ġstreaming": 7011,
      "ĠEverything": 7012,
      "ĠMarie": 7013,
      "ĠRom": 7014,
      "Ġpreferences": 7015,
      "40": 7016,
      "Ġwicked": 7017,
      "Ġshrugged": 7018,
      "Ġlocated": 7019,
      "Che": 7020,
      "Ġmi": 7021,
      "ilty": 7022,
      "Ġposted": 7023,
      "https": 7024,
      "Ġfund": 7025,
      "Ġcircles": 7026,
      "ĠAunt": 7027,
      "Ġestablish": 7028,
      "Ġnuts": 7029,
      "ĠNude": 7030,
      "Ġremaining": 7031,
      "ĠStar": 7032,
      "Ġoccup": 7033,
      "vision": 7034,
      "ĠFavorite": 7035,
      "Ġprepare": 7036,
      "inte": 7037,
      "Ġredhead": 7038,
      "Ġtechno": 7039,
      "inch": 7040,
      "ĠLovehoney": 7041,
      "ED": 7042,
      "usty": 7043,
      "Ġpissed": 7044,
      "Ġstring": 7045,
      "Ġpolit": 7046,
      "ĠWr": 7047,
      "ĠSuper": 7048,
      "Ġinj": 7049,
      "Ġdoggy": 7050,
      "lot": 7051,
      "ague": 7052,
      "Ġmutual": 7053,
      "Ġknocked": 7054,
      "ĠBel": 7055,
      "ĠTaylor": 7056,
      "ĠYet": 7057,
      "Ġinvite": 7058,
      "Ġnav": 7059,
      "Ġtear": 7060,
      "Ġnic": 7061,
      "Ġindian": 7062,
      "Ġmanip": 7063,
      "Ġmommy": 7064,
      "Ġviewing": 7065,
      "essa": 7066,
      "ĠMus": 7067,
      "Ġdated": 7068,
      "ĠWay": 7069,
      "Ġconstant": 7070,
      "Ġstam": 7071,
      "Ġopens": 7072,
      "Ġsch": 7073,
      "Ġtea": 7074,
      "Ġfier": 7075,
      "Ġarrive": 7076,
      "Ġclock": 7077,
      "ji": 7078,
      "atisf": 7079,
      "Ġhooked": 7080,
      "Ġraw": 7081,
      "Ġruns": 7082,
      "ĠShow": 7083,
      "Ġhundreds": 7084,
      "Ġchocolate": 7085,
      "ĠRay": 7086,
      "Ġconnections": 7087,
      "Ġthousand": 7088,
      "Ġspanked": 7089,
      "Ġteenage": 7090,
      "ĠME": 7091,
      "Ġdeserve": 7092,
      "rill": 7093,
      "47": 7094,
      "ĠMat": 7095,
      "Ġmascul": 7096,
      "Ġsmoking": 7097,
      "ibilities": 7098,
      "Ġrecognized": 7099,
      "icles": 7100,
      "ĠShar": 7101,
      "Ġerectile": 7102,
      "Ñĭ": 7103,
      "Ġlibido": 7104,
      "Ġowner": 7105,
      "vie": 7106,
      "ĠSunday": 7107,
      "Ġcompar": 7108,
      "asure": 7109,
      "ĠBilly": 7110,
      "Ġhiding": 7111,
      "Ġremark": 7112,
      "oses": 7113,
      "Ġcatching": 7114,
      "Ġmic": 7115,
      "Age": 7116,
      "Ġine": 7117,
      "Ġfluid": 7118,
      "aints": 7119,
      "Ġalright": 7120,
      "Î½": 7121,
      "Ġexpectations": 7122,
      "Ġtemper": 7123,
      "ĠMem": 7124,
      "hings": 7125,
      "Ġ+": 7126,
      "95": 7127,
      "ikes": 7128,
      "Ġathle": 7129,
      "Ġcuckold": 7130,
      "ĠThink": 7131,
      "?!": 7132,
      "Ġseason": 7133,
      "Ġspunk": 7134,
      "otted": 7135,
      "Ġstatement": 7136,
      "Ġarch": 7137,
      "Ġtokens": 7138,
      "wing": 7139,
      "ĠðŁ": 7140,
      "Ġtummy": 7141,
      "38": 7142,
      "Ġpages": 7143,
      "Ġcurt": 7144,
      "incip": 7145,
      "Ġfaced": 7146,
      "ordan": 7147,
      "oster": 7148,
      "nic": 7149,
      "ĠTherefore": 7150,
      "ĠChinese": 7151,
      "Ġsilver": 7152,
      "Ġreject": 7153,
      "Ġexplode": 7154,
      "Ġemotionally": 7155,
      "Ġwitness": 7156,
      "ĠHeather": 7157,
      "ables": 7158,
      "nds": 7159,
      "Ġorders": 7160,
      "Ġfrustrated": 7161,
      "Ġhallway": 7162,
      "Ġhabit": 7163,
      "Ġhelpful": 7164,
      "Ġbehaviour": 7165,
      "top": 7166,
      "Ġbeating": 7167,
      "Ġwives": 7168,
      "Ġmes": 7169,
      "Ġadvance": 7170,
      ".....": 7171,
      "Ġattach": 7172,
      "esbian": 7173,
      "Ġpalms": 7174,
      "Ġclenched": 7175,
      "ĠLO": 7176,
      "Ġignored": 7177,
      "Ġseni": 7178,
      "athered": 7179,
      "Ġpremium": 7180,
      "Ġmemories": 7181,
      "Ġsisters": 7182,
      "Sorry": 7183,
      "Ġvig": 7184,
      "ĠRichard": 7185,
      "Ġspasm": 7186,
      "IP": 7187,
      "Ġregist": 7188,
      "Ġundid": 7189,
      "37": 7190,
      "Ġhero": 7191,
      "pers": 7192,
      "Ġutilizing": 7193,
      "hamed": 7194,
      "ifying": 7195,
      "Ġneeding": 7196,
      "Ġspine": 7197,
      "Ġmisin": 7198,
      "Ġskill": 7199,
      "Ġfingertips": 7200,
      "yal": 7201,
      "Tell": 7202,
      "ument": 7203,
      "Ġ35": 7204,
      "Ð´": 7205,
      "Ġliber": 7206,
      "Ġenlar": 7207,
      "Ġlegit": 7208,
      "ĠGrand": 7209,
      "Ġtorso": 7210,
      "vense": 7211,
      "Ġrob": 7212,
      "OK": 7213,
      "Ġthumbs": 7214,
      "town": 7215,
      "ĠAugust": 7216,
      "Ġreminded": 7217,
      "mind": 7218,
      "Ġgradu": 7219,
      "ayed": 7220,
      "Ġmild": 7221,
      "Ġlimits": 7222,
      "Ġchain": 7223,
      "Ġplays": 7224,
      "LY": 7225,
      "ĠLiz": 7226,
      "Ġ60": 7227,
      "ato": 7228,
      "Ġmakeup": 7229,
      "Ġrequirements": 7230,
      "ubble": 7231,
      "Ġregularly": 7232,
      "Ġdiss": 7233,
      "Ġexclaimed": 7234,
      "ros": 7235,
      "ĠNeed": 7236,
      "Ġrect": 7237,
      "Ġscam": 7238,
      "Ġappeal": 7239,
      "Which": 7240,
      "ĠApril": 7241,
      "Ġsuitable": 7242,
      "Would": 7243,
      "Ġstation": 7244,
      "Ġobserve": 7245,
      "Ġtorture": 7246,
      "ht": 7247,
      "Ġhurry": 7248,
      "cient": 7249,
      "Ġfolds": 7250,
      "eline": 7251,
      "Ġvisual": 7252,
      "ĠGuy": 7253,
      "Ġreddit": 7254,
      "Favorite": 7255,
      "ethe": 7256,
      "Ġseparate": 7257,
      "ĠVirgin": 7258,
      "comes": 7259,
      "hanie": 7260,
      "Ġtexting": 7261,
      "Ġpole": 7262,
      "Ġdamage": 7263,
      "ĠQue": 7264,
      "HHHH": 7265,
      "ÙĥØ³": 7266,
      "ĠLast": 7267,
      "Ġbrut": 7268,
      "Ġchamp": 7269,
      "Ġcreamy": 7270,
      "About": 7271,
      "Ġidentity": 7272,
      "Ġdarling": 7273,
      "hor": 7274,
      "Ġcharming": 7275,
      "ĠGetting": 7276,
      "itals": 7277,
      "ancing": 7278,
      "ease": 7279,
      "ĠExp": 7280,
      "Ġoverall": 7281,
      "Ġstrict": 7282,
      "ĠPol": 7283,
      "~~": 7284,
      "Ġmattress": 7285,
      "Ġskinny": 7286,
      "Ġassociated": 7287,
      "Ġcore": 7288,
      "Ġhuh": 7289,
      "Ġstunned": 7290,
      "Ġfault": 7291,
      "ilation": 7292,
      "Ġbone": 7293,
      "iration": 7294,
      "ĠReddit": 7295,
      "Ġdollars": 7296,
      "Ġdoorway": 7297,
      "ĠDam": 7298,
      "ĠReally": 7299,
      "Ġashamed": 7300,
      "Ġgirlfriends": 7301,
      "ources": 7302,
      "asmin": 7303,
      "Ġlistened": 7304,
      "Ġgrowled": 7305,
      "Ġconvinced": 7306,
      "vable": 7307,
      "Ġlinks": 7308,
      "Ġteens": 7309,
      "Ġtaboo": 7310,
      "Ġdecl": 7311,
      "Ġgentleman": 7312,
      "ĠSky": 7313,
      "Does": 7314,
      "standing": 7315,
      "Ġeveryday": 7316,
      "Ġzipper": 7317,
      "Ġinternal": 7318,
      "Ġvacation": 7319,
      "alking": 7320,
      "Ġguilty": 7321,
      "Ġmini": 7322,
      "Ġlanded": 7323,
      "Ġfreedom": 7324,
      "Ġsea": 7325,
      "ĠKyle": 7326,
      "Ġintend": 7327,
      "ĠColor": 7328,
      "ĠValley": 7329,
      "kk": 7330,
      "looking": 7331,
      "isions": 7332,
      "ĠFred": 7333,
      "ĠGab": 7334,
      "Ġcurled": 7335,
      "--------": 7336,
      "Ġsniff": 7337,
      "Ġlaughter": 7338,
      "Ġvirginity": 7339,
      "Ġattempted": 7340,
      "Ġaid": 7341,
      "Ġwed": 7342,
      "Ġvulnerable": 7343,
      "Ġtraditional": 7344,
      "Ġbun": 7345,
      "Ġblew": 7346,
      "Ġregion": 7347,
      "Ġbio": 7348,
      "ĠCount": 7349,
      "vention": 7350,
      "ste": 7351,
      "Ġspank": 7352,
      "ĠLucy": 7353,
      "Ġwishes": 7354,
      "ĠDu": 7355,
      "osition": 7356,
      "Ġmagazine": 7357,
      "Ġgripping": 7358,
      "Ġgul": 7359,
      "ĠRandy": 7360,
      "39": 7361,
      "Ġwhip": 7362,
      "Ġawake": 7363,
      "âĢŃ": 7364,
      "Ġkinda": 7365,
      "Ġinvolves": 7366,
      "Ġspring": 7367,
      "Ġexchan": 7368,
      "ĠCarl": 7369,
      "Ġfours": 7370,
      "Ġtun": 7371,
      "Ġplayful": 7372,
      "Ġpenile": 7373,
      "Ġaccent": 7374,
      "SE": 7375,
      "Ġeducation": 7376,
      "44": 7377,
      "Ġdiam": 7378,
      "ĠMs": 7379,
      "non": 7380,
      "ĠGreen": 7381,
      "Ġflushed": 7382,
      "ĠLady": 7383,
      "nge": 7384,
      "ĠBra": 7385,
      "iki": 7386,
      "Ġquant": 7387,
      "Ġgad": 7388,
      "Ġvisiting": 7389,
      "Damn": 7390,
      "ashes": 7391,
      "Ġengine": 7392,
      "fy": 7393,
      "Ġtastes": 7394,
      "Ġevidence": 7395,
      "verted": 7396,
      "ĠFucking": 7397,
      "Ġhem": 7398,
      "Ġrim": 7399,
      "ĠStates": 7400,
      "Ġbast": 7401,
      "xy": 7402,
      "orted": 7403,
      "Ġunusual": 7404,
      "Ġextender": 7405,
      "Ġignore": 7406,
      "Ġcrush": 7407,
      "Ġbuying": 7408,
      "Ġproduced": 7409,
      "Men": 7410,
      "Ġobey": 7411,
      "Ġesteem": 7412,
      "Ġguilt": 7413,
      "Ġgasping": 7414,
      "illage": 7415,
      "ĠWar": 7416,
      "ĠPriv": 7417,
      "Ġchosen": 7418,
      "ĠBody": 7419,
      "Ġcreep": 7420,
      "Ġfrustration": 7421,
      "Ġrings": 7422,
      "ĠDiane": 7423,
      "ickers": 7424,
      "Ġblowing": 7425,
      "encies": 7426,
      "eding": 7427,
      "Ġprison": 7428,
      "ĠHa": 7429,
      "Tags": 7430,
      "Ġclasses": 7431,
      "Ġbreaks": 7432,
      "ĠAlberta": 7433,
      "Ġpieces": 7434,
      "Ġdevelopment": 7435,
      "ĠView": 7436,
      "Ġthrowing": 7437,
      "cers": 7438,
      "rix": 7439,
      "ĠUK": 7440,
      "Ġfixed": 7441,
      "Ġ2016": 7442,
      "Ġfilth": 7443,
      "nect": 7444,
      "Ġtoe": 7445,
      "Ġfellow": 7446,
      "ĠDate": 7447,
      "Ġshuddered": 7448,
      "ptions": 7449,
      "Ġscar": 7450,
      "Ġwithdrew": 7451,
      "Ġtank": 7452,
      "lored": 7453,
      "Ġregardless": 7454,
      "Ġcontinuing": 7455,
      "Ġmembership": 7456,
      "Ġentry": 7457,
      "Ġdysfunction": 7458,
      "oop": 7459,
      "omas": 7460,
      "Ġspo": 7461,
      "ĠAmaz": 7462,
      "Ġoblig": 7463,
      "Ġsilently": 7464,
      "Ġplanet": 7465,
      "going": 7466,
      "Ġstruggling": 7467,
      "Ġneat": 7468,
      "inky": 7469,
      "Ġassumed": 7470,
      "Ġune": 7471,
      "ĠBeaut": 7472,
      "Ġmotiv": 7473,
      "Somet": 7474,
      "Ġnecessarily": 7475,
      "Ġgrabs": 7476,
      "Ġcams": 7477,
      "Ġlesbians": 7478,
      "ĠLee": 7479,
      "ĠAsk": 7480,
      "Ġmagnific": 7481,
      "Ġflicked": 7482,
      "fon": 7483,
      "ĠBer": 7484,
      "ĠĠĠĠ": 7485,
      "Ġwhimpered": 7486,
      "Ġutter": 7487,
      "ĠPleas": 7488,
      "Ġvibrating": 7489,
      "Ġprecum": 7490,
      "ĠJimmy": 7491,
      "Sexy": 7492,
      "name": 7493,
      "Ġhey": 7494,
      "don": 7495,
      "ĠSomething": 7496,
      "ĠMean": 7497,
      "ĠAmateur": 7498,
      "ĠDean": 7499,
      "Ġfed": 7500,
      "acc": 7501,
      "Ġevil": 7502,
      "ĠWA": 7503,
      "Ġapproaching": 7504,
      "Ġlatex": 7505,
      "Ġgrasp": 7506,
      "Ġ31": 7507,
      "isy": 7508,
      "Ġthoroughly": 7509,
      "Ġvent": 7510,
      "Ġswimming": 7511,
      "Porn": 7512,
      "ĠNJ": 7513,
      "ĠInter": 7514,
      "Ġevalu": 7515,
      "cel": 7516,
      "elcome": 7517,
      "Ġselling": 7518,
      "ĠLab": 7519,
      "Ġprote": 7520,
      "ĠMB": 7521,
      "ĠPete": 7522,
      "Ġperspective": 7523,
      "Ġfactor": 7524,
      "Ġmail": 7525,
      "asp": 7526,
      "rol": 7527,
      "Ġnerve": 7528,
      "via": 7529,
      "had": 7530,
      "bet": 7531,
      "estern": 7532,
      "Ġtax": 7533,
      "Ġconc": 7534,
      "Ġlimp": 7535,
      "ĠTam": 7536,
      "oration": 7537,
      "Ġhorm": 7538,
      "2013": 7539,
      "Ġgadget": 7540,
      "assion": 7541,
      "ĠHD": 7542,
      "Ġ45": 7543,
      "iffany": 7544,
      "John": 7545,
      "Ġ2017": 7546,
      "Ġpussies": 7547,
      "Ġextenders": 7548,
      "ae": 7549,
      "Ġstops": 7550,
      "ĠSoph": 7551,
      "Ġcurve": 7552,
      "Ġhospital": 7553,
      "Ġquar": 7554,
      "Ġschedule": 7555,
      "Ġcousin": 7556,
      "Ïĥ": 7557,
      "ĠJulia": 7558,
      "Ġcrucial": 7559,
      "Ġille": 7560,
      "Ġworkers": 7561,
      "asions": 7562,
      "Ġsnatch": 7563,
      "Ġadmire": 7564,
      "ĠClaire": 7565,
      "acle": 7566,
      "Ø¯": 7567,
      "Ġfootball": 7568,
      "ĠDanny": 7569,
      "Ġembarrassment": 7570,
      "Ġdescription": 7571,
      "oyeur": 7572,
      "iac": 7573,
      "Ġshaped": 7574,
      "Ġentering": 7575,
      "Ġgown": 7576,
      "Ġvs": 7577,
      "Ġboundaries": 7578,
      "Ġqualities": 7579,
      "acked": 7580,
      "Ġ38": 7581,
      "Ġbusty": 7582,
      "Ġbos": 7583,
      "Ġbrothers": 7584,
      "Ġdestroy": 7585,
      "Will": 7586,
      "ĠShut": 7587,
      "Ġstuffed": 7588,
      "Ġinitially": 7589,
      "Ġcommitment": 7590,
      "Ġhurried": 7591,
      "Ġwildly": 7592,
      "Ġdevices": 7593,
      "ĠIL": 7594,
      "ĠEve": 7595,
      "Ġsteel": 7596,
      "Ġamb": 7597,
      "Ġtugged": 7598,
      "Ġdemanded": 7599,
      "Ġboob": 7600,
      "Ġpacked": 7601,
      "Ġwhimper": 7602,
      "ĠMer": 7603,
      "!!!!": 7604,
      "Ġefforts": 7605,
      "ĠGeorg": 7606,
      "Ġupward": 7607,
      "ĠLight": 7608,
      "Ġchurch": 7609,
      "ĠAdvert": 7610,
      "Ġdiscomfort": 7611,
      "Ġrealistic": 7612,
      "Ġintern": 7613,
      "Ġcompat": 7614,
      "Ġdeliber": 7615,
      "Ġbush": 7616,
      "ĠSon": 7617,
      "pond": 7618,
      "Ġtap": 7619,
      "Ġswear": 7620,
      "commod": 7621,
      "ĠSearch": 7622,
      "Ġyout": 7623,
      "Ġfaith": 7624,
      "59": 7625,
      "Ġmal": 7626,
      "Ġtraff": 7627,
      "sk": 7628,
      "Ġrefused": 7629,
      "Ġepis": 7630,
      "Ġnarrow": 7631,
      "ĠAdditionally": 7632,
      "Ġ2019": 7633,
      "Ġconcerns": 7634,
      "dress": 7635,
      "ĠÑģ": 7636,
      "uding": 7637,
      "Ġcommand": 7638,
      "\"\"": 7639,
      "Ġfailed": 7640,
      "aram": 7641,
      "Ġtexture": 7642,
      "vest": 7643,
      "pled": 7644,
      "Ġmessaging": 7645,
      "Ġvids": 7646,
      "Ġstruck": 7647,
      "ĠLife": 7648,
      "gain": 7649,
      "Ġwealth": 7650,
      "ĠPut": 7651,
      "Ġages": 7652,
      "ĠRelationsh": 7653,
      "Ġhen": 7654,
      "ĠSign": 7655,
      "inity": 7656,
      "ĠAri": 7657,
      "Ġdiscussed": 7658,
      "Ġavo": 7659,
      "Ġcars": 7660,
      "Ġintroduce": 7661,
      "http": 7662,
      "ĠWebs": 7663,
      "ees": 7664,
      "Ġenem": 7665,
      "Ġagreement": 7666,
      "Ġswinging": 7667,
      "ula": 7668,
      "ĠSean": 7669,
      "Ġchoosing": 7670,
      "Ġpulsing": 7671,
      "aron": 7672,
      "may": 7673,
      "Ġcompleted": 7674,
      "Ġmasse": 7675,
      "Ġtops": 7676,
      "Ġmall": 7677,
      "31": 7678,
      "Qu": 7679,
      "Ġgathered": 7680,
      "Ġexcess": 7681,
      "Ġteenager": 7682,
      "Ġdiscip": 7683,
      "Ġtubes": 7684,
      "which": 7685,
      "oda": 7686,
      "Ġrare": 7687,
      "Ġneighborhood": 7688,
      "Lovehoney": 7689,
      "pting": 7690,
      "ainte": 7691,
      "%,": 7692,
      "ĠDebbie": 7693,
      "iy": 7694,
      "Ġsenior": 7695,
      "ĠCollege": 7696,
      "host": 7697,
      "Ġspeech": 7698,
      "Ġchastity": 7699,
      "Ġgoo": 7700,
      "ĠHill": 7701,
      "herom": 7702,
      "ĠAnne": 7703,
      "Ġmurmured": 7704,
      "88": 7705,
      "Ġfancy": 7706,
      "Ġinstructed": 7707,
      "ĠLA": 7708,
      "ĠDaniel": 7709,
      "ĠService": 7710,
      "Ġalpha": 7711,
      "ĠRussian": 7712,
      "ĠSlut": 7713,
      "ĠWorld": 7714,
      "Adult": 7715,
      "Ġforms": 7716,
      "Ġperman": 7717,
      "Ġmarry": 7718,
      "Ġclosely": 7719,
      "Tele": 7720,
      "Ġzone": 7721,
      "Ġordinary": 7722,
      "Ġanxious": 7723,
      "Chat": 7724,
      "Ġtang": 7725,
      "Ġsized": 7726,
      "Ġoccasions": 7727,
      "Ġbriefs": 7728,
      "ĠCheck": 7729,
      "Ġgut": 7730,
      "Ġdrool": 7731,
      "Ġaccomplish": 7732,
      "Ġsnow": 7733,
      "ĠMill": 7734,
      "Ġdeliver": 7735,
      "Ġceiling": 7736,
      "hu": 7737,
      "Ġstorm": 7738,
      "***": 7739,
      "Ġperforming": 7740,
      "Ġswallowing": 7741,
      "Ġdrawer": 7742,
      "Ġridic": 7743,
      "mom": 7744,
      "Ġcaring": 7745,
      "gasm": 7746,
      "eri": 7747,
      "Ġreturning": 7748,
      "Ġprompt": 7749,
      "ĠJac": 7750,
      "asted": 7751,
      "girls": 7752,
      "Ġkilled": 7753,
      "Ġpinched": 7754,
      "ucker": 7755,
      "Ġblame": 7756,
      "Ġbold": 7757,
      "Ġnurse": 7758,
      "Ġunders": 7759,
      "Ãĥ": 7760,
      "case": 7761,
      "Ġaccommod": 7762,
      "Watch": 7763,
      "ĠObviously": 7764,
      "Ġpumps": 7765,
      "Ġplayer": 7766,
      "Ùĩ": 7767,
      "Ġcards": 7768,
      "Ġelimin": 7769,
      "Uh": 7770,
      "Ġscreams": 7771,
      "56": 7772,
      "uffed": 7773,
      "life": 7774,
      "Ġlaz": 7775,
      "ĠNaked": 7776,
      "Ġslutty": 7777,
      "Fr": 7778,
      "Rem": 7779,
      "Ġwindows": 7780,
      "Ġundressed": 7781,
      "Ġlad": 7782,
      "ĠAustral": 7783,
      "Ġunf": 7784,
      "ĠCraig": 7785,
      "ĠSyl": 7786,
      ".,": 7787,
      "cont": 7788,
      "Ġgrasped": 7789,
      "gent": 7790,
      "ĠLaw": 7791,
      "Ġ2023": 7792,
      "hose": 7793,
      "ader": 7794,
      "Ġsubtle": 7795,
      "ml": 7796,
      "Ġembarrassing": 7797,
      "Ġlol": 7798,
      "Ġremoving": 7799,
      "Ġast": 7800,
      "arks": 7801,
      "Ġbackwards": 7802,
      "ĠOkay": 7803,
      "idget": 7804,
      "Ġsale": 7805,
      "Ġengaging": 7806,
      "ĠTHE": 7807,
      "Ġbags": 7808,
      "Ġupwards": 7809,
      "cest": 7810,
      "ĠMex": 7811,
      "ago": 7812,
      "ĠStories": 7813,
      "ĠTexas": 7814,
      "Ġclip": 7815,
      "Ġconsum": 7816,
      "Ġcountries": 7817,
      "ĠMO": 7818,
      "fection": 7819,
      "ĠSqu": 7820,
      "Ġship": 7821,
      "Ġpride": 7822,
      "Ġrights": 7823,
      "ĠAltern": 7824,
      "Ġmoon": 7825,
      "Ġprincip": 7826,
      "Ġpuls": 7827,
      "Ġsan": 7828,
      "ication": 7829,
      "onday": 7830,
      "ĠHope": 7831,
      "Ġtense": 7832,
      "âĢ¦âĢ¦": 7833,
      "Ġoccurred": 7834,
      "Ġdepending": 7835,
      "igned": 7836,
      "Ġthrown": 7837,
      "Ġmaximum": 7838,
      "Ġassault": 7839,
      "Ġrepeat": 7840,
      "Ġfulfilling": 7841,
      "Ġugly": 7842,
      "ĠStatus": 7843,
      "Ġaccur": 7844,
      "Ġfiction": 7845,
      "ĠName": 7846,
      "annah": 7847,
      "ĠBecky": 7848,
      "Ġsquirting": 7849,
      "orous": 7850,
      "bro": 7851,
      "Ġtopless": 7852,
      "Ġfreak": 7853,
      "ĠLuc": 7854,
      "Ġjudge": 7855,
      "stars": 7856,
      "ĠAlly": 7857,
      "Ġstudies": 7858,
      "Ġelement": 7859,
      "etheless": 7860,
      "Ġpa": 7861,
      "Ġplate": 7862,
      "Ġimpressive": 7863,
      "Ġstandards": 7864,
      "ĠInstagram": 7865,
      "Ġbacked": 7866,
      "ĠPhot": 7867,
      "Ġsteamy": 7868,
      "ords": 7869,
      "Ġboat": 7870,
      "Ġsubmission": 7871,
      "Ġfinest": 7872,
      "Ġ92": 7873,
      "Ġsurv": 7874,
      "egas": 7875,
      "Ġbay": 7876,
      "Ġfavourite": 7877,
      "thro": 7878,
      "Ġnut": 7879,
      "hentic": 7880,
      "ĠPussy": 7881,
      "than": 7882,
      "ĠXXX": 7883,
      "Ġscenario": 7884,
      "Ġnudity": 7885,
      "Ġapproval": 7886,
      "Ġloads": 7887,
      "Ġ69": 7888,
      "Pe": 7889,
      "harge": 7890,
      "Ġrow": 7891,
      "Ġswell": 7892,
      "Ġpresented": 7893,
      "ĠIll": 7894,
      "enced": 7895,
      "237": 7896,
      "Ġcourage": 7897,
      "Next": 7898,
      "mark": 7899,
      "verts": 7900,
      "hers": 7901,
      "ĠCass": 7902,
      "ĠDespite": 7903,
      "Ġexistence": 7904,
      "Erotic": 7905,
      "IS": 7906,
      "ĠBook": 7907,
      "Ø§ÙĦ": 7908,
      "Ġperce": 7909,
      "Ġconvince": 7910,
      "hell": 7911,
      "ĠCor": 7912,
      "Ġswingers": 7913,
      "49": 7914,
      "Ġexotic": 7915,
      "wed": 7916,
      "Ġrarely": 7917,
      "ĠChristian": 7918,
      "Ġcuriosity": 7919,
      "ccording": 7920,
      "Ġportion": 7921,
      "Ġmum": 7922,
      "olt": 7923,
      "Ġseduce": 7924,
      "Ġtissue": 7925,
      "agon": 7926,
      "abeth": 7927,
      "iments": 7928,
      "ĠRub": 7929,
      "Ġbrushing": 7930,
      "ĠJune": 7931,
      "Ġgreeted": 7932,
      "dale": 7933,
      "ntil": 7934,
      "Ġshiny": 7935,
      "Ġstimulating": 7936,
      "inks": 7937,
      "Ġelevator": 7938,
      "Ġcauses": 7939,
      "rible": 7940,
      "Ġresponsible": 7941,
      "Ġleaking": 7942,
      "ĠMelissa": 7943,
      "ĠToys": 7944,
      "rig": 7945,
      "Ste": 7946,
      "mes": 7947,
      "Ġslowed": 7948,
      "Ġengaged": 7949,
      "uary": 7950,
      "acey": 7951,
      "Ġsentence": 7952,
      "Dis": 7953,
      "Ġguessed": 7954,
      "hall": 7955,
      "Ġcomplicated": 7956,
      "Ġstraddled": 7957,
      "Ã¥": 7958,
      "Ġparl": 7959,
      "Ġopportunities": 7960,
      "ĠBrun": 7961,
      "ĠNight": 7962,
      "Ġswitched": 7963,
      "hab": 7964,
      "sored": 7965,
      "Ġbegun": 7966,
      "ĠSuch": 7967,
      "Ġflipped": 7968,
      "order": 7969,
      "ĠAfric": 7970,
      "orean": 7971,
      "Sam": 7972,
      "Ġfalls": 7973,
      "rr": 7974,
      "Ġsank": 7975,
      "Ġexercises": 7976,
      "Ġreass": 7977,
      "Ġexpand": 7978,
      "Over": 7979,
      "Ġfaint": 7980,
      "Ġdarkness": 7981,
      "aiting": 7982,
      "Ġspots": 7983,
      "ailed": 7984,
      "cast": 7985,
      "Ġmagnificent": 7986,
      "66": 7987,
      "Ġfactors": 7988,
      "ĠCharlie": 7989,
      "Man": 7990,
      "Ġou": 7991,
      "Ġpause": 7992,
      "Ġstamina": 7993,
      "agger": 7994,
      "Ġflew": 7995,
      "Ġcraving": 7996,
      "Ġtwist": 7997,
      "Ġrabb": 7998,
      "Ġstone": 7999,
      "ĠMegan": 8000,
      "lotte": 8001,
      "orged": 8002,
      "Ġdang": 8003,
      "Ġknickers": 8004,
      "icky": 8005,
      "Ġnin": 8006,
      "Ġinex": 8007,
      "Ġrocked": 8008,
      "Ġsimpl": 8009,
      "umbling": 8010,
      "ĠÙħ": 8011,
      "Ġvel": 8012,
      "Ġveh": 8013,
      "Ġsexting": 8014,
      "Ġjizz": 8015,
      "Ġorgasmic": 8016,
      "Ġsmelled": 8017,
      "ĠBaby": 8018,
      "ĠProfile": 8019,
      "zil": 8020,
      "Ġouter": 8021,
      "Ġgenitals": 8022,
      "Ġcage": 8023,
      "ĠTaking": 8024,
      "Ġvary": 8025,
      "Ġflip": 8026,
      "Ġspell": 8027,
      "idding": 8028,
      "Ġister": 8029,
      "Ġ2015": 8030,
      "48": 8031,
      "Big": 8032,
      "post": 8033,
      "Ġemphas": 8034,
      "Ġdelivered": 8035,
      "Ġpose": 8036,
      "ĠMature": 8037,
      "ares": 8038,
      "Ġhurts": 8039,
      "uscious": 8040,
      "Ġclin": 8041,
      "Ġprint": 8042,
      "Ġpersonals": 8043,
      "Ġreliable": 8044,
      "het": 8045,
      "Ġcurvy": 8046,
      "Ġdropping": 8047,
      "Ġbottoms": 8048,
      "Escorts": 8049,
      "Jack": 8050,
      "hal": 8051,
      "Ġprofessor": 8052,
      "stream": 8053,
      "ĠVi": 8054,
      "ĠâĢ¬": 8055,
      "Ġcompanies": 8056,
      "Ġstat": 8057,
      "Ġofficial": 8058,
      "ĠSnapchat": 8059,
      "ĠHum": 8060,
      "Ġencouraged": 8061,
      "aneously": 8062,
      "eries": 8063,
      "ourt": 8064,
      "Ġpanted": 8065,
      "Ġtelef": 8066,
      "Ġguests": 8067,
      "Ġcasually": 8068,
      "Ġflight": 8069,
      "Ġexplan": 8070,
      "ĠUncle": 8071,
      "put": 8072,
      "ĠBarb": 8073,
      "Ġflaw": 8074,
      "ĠEsra": 8075,
      "rove": 8076,
      "ishly": 8077,
      "Ġ37": 8078,
      "Ġcategory": 8079,
      "Ġbru": 8080,
      "Ġcreators": 8081,
      "Ġhorr": 8082,
      "ciously": 8083,
      "ĠCy": 8084,
      "ression": 8085,
      "Ġperf": 8086,
      "agers": 8087,
      "Ġdecides": 8088,
      "Ġundo": 8089,
      "Ġcreative": 8090,
      "ĠFollow": 8091,
      "Ġshortly": 8092,
      "Ġinsane": 8093,
      "Ġinvolve": 8094,
      "Ġletter": 8095,
      "Ġpulse": 8096,
      "ĠBang": 8097,
      "Ġtitt": 8098,
      "Ġdresses": 8099,
      "Ġsensed": 8100,
      "Ġgrinning": 8101,
      "ĠJohnny": 8102,
      "Ġrocking": 8103,
      "box": 8104,
      "Ġsurre": 8105,
      "Ġstudying": 8106,
      "ĠDet": 8107,
      "Ġdecisions": 8108,
      "ĠVictoria": 8109,
      "ĠSally": 8110,
      "Ġdocum": 8111,
      "Ġknife": 8112,
      "ĠMont": 8113,
      "ĠEll": 8114,
      "Ġwrapping": 8115,
      "Ġdedicated": 8116,
      "iot": 8117,
      "yer": 8118,
      "ften": 8119,
      "Ġchallenging": 8120,
      "ĠFil": 8121,
      "altm": 8122,
      "ĠDem": 8123,
      "Ġdanced": 8124,
      "ĠAlways": 8125,
      "forward": 8126,
      "Ġpunished": 8127,
      "Ah": 8128,
      "Ġdried": 8129,
      "Although": 8130,
      "Telefon": 8131,
      "Ġtelefonda": 8132,
      "ĠMarried": 8133,
      "ĠNumaram": 8134,
      "Ġpurse": 8135,
      "ĠVegas": 8136,
      "Ġdozen": 8137,
      "olved": 8138,
      "oga": 8139,
      "cut": 8140,
      "rett": 8141,
      "ology": 8142,
      "Last": 8143,
      "Two": 8144,
      "Ġgiggle": 8145,
      "Ġflying": 8146,
      "Ġsouth": 8147,
      "agine": 8148,
      "hern": 8149,
      "ĠHorny": 8150,
      "Ġreputation": 8151,
      ",âĢĻ": 8152,
      "Ġdining": 8153,
      "Ġfinancial": 8154,
      "Ġraising": 8155,
      "ĠActually": 8156,
      "ĠHold": 8157,
      "Ġmaterials": 8158,
      "Ġchemistry": 8159,
      "Ġregister": 8160,
      "Ġatm": 8161,
      "ĠKnow": 8162,
      "ĠSamantha": 8163,
      "minded": 8164,
      "Ġped": 8165,
      "Ġchapter": 8166,
      "leshlight": 8167,
      "Ġawful": 8168,
      "Ġcrap": 8169,
      "ĠHouse": 8170,
      "Ġgenuinely": 8171,
      "Ġformed": 8172,
      "Ġnotes": 8173,
      "cr": 8174,
      "eras": 8175,
      "Ġcarpet": 8176,
      "bye": 8177,
      "Chapter": 8178,
      "ĠToo": 8179,
      "ĠHarbour": 8180,
      "ĠWood": 8181,
      "roup": 8182,
      "ildo": 8183,
      "Ġdetect": 8184,
      "Ġtransfer": 8185,
      "Ġcums": 8186,
      "uriously": 8187,
      "Ġsupplements": 8188,
      "Ġremains": 8189,
      "ĠAmerica": 8190,
      "ĠCO": 8191,
      "Ġgoals": 8192,
      "ĠreaderReport": 8193,
      "pany": 8194,
      "Ġhighest": 8195,
      "Ġbooth": 8196,
      "anne": 8197,
      "yler": 8198,
      "Ġpelvis": 8199,
      "aver": 8200,
      "ĠFort": 8201,
      "Ġsuspic": 8202,
      "ĠGra": 8203,
      "Ġnervously": 8204,
      "Ġstall": 8205,
      "ĠHu": 8206,
      "Ġobserved": 8207,
      "ĠFre": 8208,
      "ĠRen": 8209,
      "ĠRos": 8210,
      "Ġhotter": 8211,
      "ĠSchool": 8212,
      "UT": 8213,
      "Ġnyl": 8214,
      "Ġlatina": 8215,
      "Ġgal": 8216,
      "umes": 8217,
      "pm": 8218,
      "Ġod": 8219,
      "Ġexec": 8220,
      "Ġenvelo": 8221,
      "Ġsufficient": 8222,
      "hook": 8223,
      "raight": 8224,
      "retty": 8225,
      "Ġkeys": 8226,
      "Ġraped": 8227,
      "VER": 8228,
      "Ġton": 8229,
      "ummer": 8230,
      "water": 8231,
      "Ġ03": 8232,
      "Ġlotion": 8233,
      "Ġpayment": 8234,
      "Ġpublished": 8235,
      "Ġcopy": 8236,
      "sized": 8237,
      "Ġsack": 8238,
      "46": 8239,
      "Make": 8240,
      "table": 8241,
      "ĠTrans": 8242,
      "Ġmotor": 8243,
      "ĠMonica": 8244,
      "Ġisland": 8245,
      "Ġpap": 8246,
      "onica": 8247,
      "Ġboner": 8248,
      "eed": 8249,
      "ï»": 8250,
      "reply": 8251,
      "Ġconduct": 8252,
      "Ġ8000": 8253,
      "Ġdivorced": 8254,
      "ĠSher": 8255,
      "Ġsurrounded": 8256,
      "rive": 8257,
      "Ġcougar": 8258,
      "Ġclaims": 8259,
      "iers": 8260,
      "Ġrealizing": 8261,
      "Ġwaved": 8262,
      "ano": 8263,
      "ĠTX": 8264,
      "empl": 8265,
      "stitution": 8266,
      "Ġinvestig": 8267,
      "aya": 8268,
      "Ġgrate": 8269,
      "ĠBobby": 8270,
      "Ġdealing": 8271,
      "Ġshemale": 8272,
      "asmine": 8273,
      "Ġpornstar": 8274,
      "Ġunzipped": 8275,
      "100": 8276,
      "Ġdifficulty": 8277,
      "57": 8278,
      "ĠLex": 8279,
      "osphere": 8280,
      "ington": 8281,
      "Ġimpressed": 8282,
      "Ġsup": 8283,
      "athy": 8284,
      "ĠJenna": 8285,
      "Ġglory": 8286,
      "Ġcombined": 8287,
      "Ġindex": 8288,
      "Also": 8289,
      "ĠJamie": 8290,
      "Ġestablished": 8291,
      "EL": 8292,
      "ĠDonna": 8293,
      "ĠGold": 8294,
      "Ġpenises": 8295,
      "gery": 8296,
      "Ġpra": 8297,
      "ĠWin": 8298,
      "Ġoutcomes": 8299,
      "Ġpony": 8300,
      "Ġsecrets": 8301,
      "Ġbounced": 8302,
      "othing": 8303,
      "Ġshiver": 8304,
      "Ġfallen": 8305,
      "Ġsissy": 8306,
      "Ġdorm": 8307,
      "Ġfilthy": 8308,
      "Ġlengthy": 8309,
      "Ġgoddess": 8310,
      "ĠHall": 8311,
      "Never": 8312,
      "Ġterrif": 8313,
      "Ġ;": 8314,
      "Ġwhoever": 8315,
      "Ġpit": 8316,
      "Ġcommitted": 8317,
      "Ġrating": 8318,
      "Ġvital": 8319,
      "Ġpleasures": 8320,
      "Ġfifteen": 8321,
      "Ġnowhere": 8322,
      "Search": 8323,
      "Ġgotta": 8324,
      "ios": 8325,
      "Ġmechan": 8326,
      "ĠUniversity": 8327,
      "Ġyellow": 8328,
      "Ġsuggestions": 8329,
      "Ġindicate": 8330,
      "Ġtv": 8331,
      "Ġclaimed": 8332,
      "View": 8333,
      "mates": 8334,
      "ĠØ³": 8335,
      "Ġamerican": 8336,
      "Ġwww": 8337,
      "Ġnoises": 8338,
      "tw": 8339,
      "rigg": 8340,
      "ĠWere": 8341,
      "pg": 8342,
      "abel": 8343,
      "Ġprograms": 8344,
      "ĠHim": 8345,
      "ĠPam": 8346,
      "ients": 8347,
      "Ġdolls": 8348,
      "mother": 8349,
      "Ġresistance": 8350,
      "Ġ00237": 8351,
      "Ġtwe": 8352,
      "Ġcrim": 8353,
      "Ġpursu": 8354,
      "Ġbehave": 8355,
      "impse": 8356,
      "Ġprimary": 8357,
      "Ġconvul": 8358,
      "Ġhomosexual": 8359,
      "Ġawhile": 8360,
      "ynam": 8361,
      "acity": 8362,
      "âĢĻ.": 8363,
      "Ġgrass": 8364,
      "Ġdeny": 8365,
      "Ġoverwhelming": 8366,
      "ĠBlonde": 8367,
      "Ġcontrolled": 8368,
      "person": 8369,
      "aaaa": 8370,
      "Ġhandful": 8371,
      "uce": 8372,
      "Ġflexible": 8373,
      "Ġillegal": 8374,
      "Ġsmirk": 8375,
      "ÏĤ": 8376,
      "Ġbasket": 8377,
      "ĠSal": 8378,
      "Ġdecades": 8379,
      "ĠKn": 8380,
      "Ġbree": 8381,
      "Â»": 8382,
      "Ġfought": 8383,
      "Ġserved": 8384,
      "Ġtraits": 8385,
      "Ġcreampie": 8386,
      "igan": 8387,
      "Ġrecover": 8388,
      "Ġfores": 8389,
      "Ġtelevision": 8390,
      "Ġannounced": 8391,
      "Ġfrag": 8392,
      "Ġspun": 8393,
      "ĠÐ¿": 8394,
      "Ġengorged": 8395,
      "ĠBrenda": 8396,
      "Ġdepends": 8397,
      "ĠSuck": 8398,
      "ĠStop": 8399,
      "bling": 8400,
      "ĠStacy": 8401,
      "Ġneighb": 8402,
      "Ã³": 8403,
      "Ġcells": 8404,
      "Ġrepresent": 8405,
      "Ġnevertheless": 8406,
      "Ġpossibilities": 8407,
      "à¤¾": 8408,
      "tail": 8409,
      "ĠLy": 8410,
      "Ġnudes": 8411,
      "Ġpout": 8412,
      "Ġdimension": 8413,
      "och": 8414,
      "cock": 8415,
      "Ġbbw": 8416,
      "alie": 8417,
      "cams": 8418,
      "geon": 8419,
      "Ġdun": 8420,
      "ĠStreet": 8421,
      "ĠTO": 8422,
      "Ġglimpse": 8423,
      "Ġpile": 8424,
      "ĠStephanie": 8425,
      "ĠFant": 8426,
      "gered": 8427,
      "Ġproperty": 8428,
      "ĠCould": 8429,
      "Ġhurting": 8430,
      "urous": 8431,
      "Ġtechnology": 8432,
      "Ġhire": 8433,
      "ĠJordan": 8434,
      "azz": 8435,
      "Ġlu": 8436,
      "Ġupload": 8437,
      "ĠGrow": 8438,
      "Ġpanic": 8439,
      "itual": 8440,
      "Ġhesitated": 8441,
      "Ġflowers": 8442,
      "Ïģ": 8443,
      "ĠStrip": 8444,
      "ĠLuke": 8445,
      "Ġjigg": 8446,
      "Su": 8447,
      "ĠKiss": 8448,
      "Ġtighten": 8449,
      "ĠJackie": 8450,
      "Ġinterrupted": 8451,
      "Ġathletic": 8452,
      "onent": 8453,
      "Ġuniversity": 8454,
      "Ġstruct": 8455,
      "Ġadmin": 8456,
      "!)": 8457,
      "Ġgarage": 8458,
      "ĠChapter": 8459,
      "ĠWow": 8460,
      "Hair": 8461,
      "Ġqueen": 8462,
      "Ġparked": 8463,
      "Ġabd": 8464,
      "Ġpermit": 8465,
      "Many": 8466,
      "ufact": 8467,
      "Ġescaped": 8468,
      "Ġdirected": 8469,
      "atched": 8470,
      "ĠStud": 8471,
      "Ġhairs": 8472,
      "ban": 8473,
      "Ġgarden": 8474,
      "ifully": 8475,
      "ipment": 8476,
      "Ġdemands": 8477,
      "Ġyard": 8478,
      "Suddenly": 8479,
      "?âĢĻ": 8480,
      "Ġunfor": 8481,
      "Im": 8482,
      "Ġalter": 8483,
      "quality": 8484,
      "renched": 8485,
      "jobs": 8486,
      "ĠHome": 8487,
      "Ġhorrible": 8488,
      "Ġvast": 8489,
      "ĠNE": 8490,
      "Ġharsh": 8491,
      "ĠArt": 8492,
      "Ġejaculate": 8493,
      "Ġdug": 8494,
      "App": 8495,
      "Ġexpose": 8496,
      "Ġclimb": 8497,
      "arette": 8498,
      "FF": 8499,
      "ĠÑ": 8500,
      "Ġthru": 8501,
      "Ġbending": 8502,
      "Ġbackside": 8503,
      "Ġsweetheart": 8504,
      "Ġirr": 8505,
      "alian": 8506,
      "&#": 8507,
      "rystal": 8508,
      "Ġvulva": 8509,
      "ĠDamn": 8510,
      "Ġeth": 8511,
      "Ġdele": 8512,
      "Ġgrace": 8513,
      "Ġappointment": 8514,
      "ĠGoogle": 8515,
      "Ġconditions": 8516,
      "Very": 8517,
      "ĠBB": 8518,
      "Ġdefinition": 8519,
      "Gr": 8520,
      "Girls": 8521,
      "shit": 8522,
      "endy": 8523,
      "ĠSun": 8524,
      "Ġloser": 8525,
      "olve": 8526,
      "Ġatmosphere": 8527,
      "Ġsuction": 8528,
      "ĠLadies": 8529,
      "ĠChloe": 8530,
      "Ġunsure": 8531,
      "Ġswung": 8532,
      "they": 8533,
      "mun": 8534,
      "ĠFUCK": 8535,
      "Ġprices": 8536,
      "Ġvalid": 8537,
      "cription": 8538,
      "Really": 8539,
      "Ġtrained": 8540,
      "good": 8541,
      "Ġshorter": 8542,
      "Ġwooden": 8543,
      "ĠKathy": 8544,
      "ternal": 8545,
      "Ġultimately": 8546,
      "ea": 8547,
      "ĠAM": 8548,
      "Ġdish": 8549,
      "Ġbastard": 8550,
      "ĠEventually": 8551,
      "Ġauthentic": 8552,
      "Ġweather": 8553,
      "ĠBed": 8554,
      "Ġmountain": 8555,
      "Ġdelighted": 8556,
      "anch": 8557,
      "Ġsnugg": 8558,
      "ÃĤ": 8559,
      "Ġflashed": 8560,
      "ĠAnyway": 8561,
      "Alex": 8562,
      "32": 8563,
      "Ġdat": 8564,
      "style": 8565,
      "ĠUnfortunately": 8566,
      "Meet": 8567,
      "Ġpig": 8568,
      "77": 8569,
      "Ġracing": 8570,
      "Ġequal": 8571,
      "ÃŃ": 8572,
      "Ġswift": 8573,
      "Ġshed": 8574,
      "Ġvalues": 8575,
      "Ġbrowse": 8576,
      "Ġcher": 8577,
      "Ġemails": 8578,
      "ĠAngela": 8579,
      "dsm": 8580,
      "Ġfarther": 8581,
      "Ġperky": 8582,
      "Ġsoftware": 8583,
      "Ġunbuttoned": 8584,
      "Ġmuttered": 8585,
      "Ġhesitation": 8586,
      "iders": 8587,
      "cepting": 8588,
      "ĠNice": 8589,
      "Ġado": 8590,
      "Ġdigital": 8591,
      "ĠSecret": 8592,
      "Ho": 8593,
      "lies": 8594,
      "Ġlisted": 8595,
      "ĠFair": 8596,
      "Ġsucceed": 8597,
      "Ġfuriously": 8598,
      "Ġdull": 8599,
      "Ġcredits": 8600,
      "Ġtwisting": 8601,
      "ĠSeeing": 8602,
      "Part": 8603,
      "ĠMarg": 8604,
      "Ġlounge": 8605,
      "Ġadjusted": 8606,
      "Ġcries": 8607,
      "ounds": 8608,
      "Ġrecommended": 8609,
      "Ġintimid": 8610,
      "ET": 8611,
      "ĠIncre": 8612,
      "Ġdesp": 8613,
      "stitute": 8614,
      "AM": 8615,
      "Ġluscious": 8616,
      "ĠNikki": 8617,
      "ĠStation": 8618,
      "ĠClub": 8619,
      "rier": 8620,
      "Ġrubs": 8621,
      "Ġjokes": 8622,
      "Ġunbelie": 8623,
      "Ġsquirmed": 8624,
      "build": 8625,
      "Ġadore": 8626,
      "Ġfuckin": 8627,
      "Ġattrib": 8628,
      "Ġmainly": 8629,
      "ÏĢ": 8630,
      "aly": 8631,
      "ĠJersey": 8632,
      "Ġfal": 8633,
      "ÂŃ": 8634,
      "ensored": 8635,
      "Ġperformers": 8636,
      "Ġaggressive": 8637,
      "ĠRet": 8638,
      "Ġbowl": 8639,
      "Ang": 8640,
      "ashington": 8641,
      "Ġiron": 8642,
      "Ġconclusion": 8643,
      "Ġthicker": 8644,
      "Ġgovern": 8645,
      "Ġdogs": 8646,
      "Ġwer": 8647,
      "Ġtoned": 8648,
      "Ġwatches": 8649,
      "Ġsuggests": 8650,
      "Ġnavig": 8651,
      "Je": 8652,
      "met": 8653,
      "Ġgy": 8654,
      "Ġplayfully": 8655,
      "Ġadvanced": 8656,
      "yles": 8657,
      "ĠHi": 8658,
      "ĠHad": 8659,
      "Ġpeak": 8660,
      "ographic": 8661,
      "ĠLouis": 8662,
      "Top": 8663,
      "Ġregards": 8664,
      "fo": 8665,
      "Ġfurn": 8666,
      "Ġdart": 8667,
      "izabeth": 8668,
      ">>": 8669,
      "Ġmumbled": 8670,
      "Ġerupt": 8671,
      "only": 8672,
      "osure": 8673,
      "Ġtouches": 8674,
      "Ġclassic": 8675,
      "vs": 8676,
      "erry": 8677,
      "isk": 8678,
      "ĠBeach": 8679,
      "orage": 8680,
      "Ġcharm": 8681,
      "Ġrepeatedly": 8682,
      "Ġhighlight": 8683,
      "love": 8684,
      "Ġoverly": 8685,
      "Ġincident": 8686,
      "Ġspoken": 8687,
      "ĠBlue": 8688,
      "Ġtrigger": 8689,
      "Ġrejection": 8690,
      "Ġreven": 8691,
      "ï¼": 8692,
      "Ġcountless": 8693,
      "Ġthread": 8694,
      "ĠBon": 8695,
      "unty": 8696,
      "Ġwaterproof": 8697,
      "Ġreaders": 8698,
      "ĠMartin": 8699,
      "Ġprincess": 8700,
      "Ph": 8701,
      "Ġpinching": 8702,
      "ÂłÂłÂłÂłÂłÂłÂłÂł": 8703,
      "Ġplunged": 8704,
      "zie": 8705,
      "Ġknot": 8706,
      "Ġhardness": 8707,
      "Ġdow": 8708,
      "ĠAndre": 8709,
      "ĠWhatever": 8710,
      "Ġsignal": 8711,
      "Ġcigarette": 8712,
      "Cont": 8713,
      "Ġtur": 8714,
      "otica": 8715,
      "Ġ2010": 8716,
      "ni": 8717,
      "inent": 8718,
      "Ġinfluence": 8719,
      "utions": 8720,
      "ĠTalk": 8721,
      "emporary": 8722,
      "Ġslamming": 8723,
      "ĠDeep": 8724,
      "xic": 8725,
      "Ġnetwork": 8726,
      "ĠMonday": 8727,
      "Ġanimals": 8728,
      "hub": 8729,
      "Ġ04": 8730,
      "El": 8731,
      "Ġbreaths": 8732,
      "Ġequipment": 8733,
      "Ġconfront": 8734,
      "Ġstraightforward": 8735,
      "Ġbike": 8736,
      "Ġrude": 8737,
      "Ġhandc": 8738,
      "Ġshivered": 8739,
      "Ġwinked": 8740,
      "Ġven": 8741,
      "ĠHy": 8742,
      "ĠEnd": 8743,
      "orious": 8744,
      "Ġforty": 8745,
      "Ġsevere": 8746,
      "Ġtram": 8747,
      "Ġol": 8748,
      "Ġcbd": 8749,
      "Ġinterracial": 8750,
      "Ġsooner": 8751,
      "agging": 8752,
      "Ġhesitate": 8753,
      "ĠBa": 8754,
      "Pre": 8755,
      "Ġmedium": 8756,
      "Gu": 8757,
      "Ġmercy": 8758,
      "ĠBab": 8759,
      "Ġankle": 8760,
      "Ġadvertis": 8761,
      "Ġobsc": 8762,
      "Ġlargest": 8763,
      "pack": 8764,
      "ĠTre": 8765,
      "Ġminds": 8766,
      "Without": 8767,
      "some": 8768,
      "Ġdread": 8769,
      "Ġjoint": 8770,
      "Hook": 8771,
      "Ġgagged": 8772,
      "Ġdiscussing": 8773,
      "ĠNet": 8774,
      "Ġprecious": 8775,
      "ĠEver": 8776,
      "arer": 8777,
      "Ġsimult": 8778,
      "Ġabsor": 8779,
      "couldn": 8780,
      "Ġerotica": 8781,
      "Ġdynam": 8782,
      "Ġdevil": 8783,
      "Pr": 8784,
      "Ġperformed": 8785,
      "Ġ199": 8786,
      "Ġsnap": 8787,
      "Ġbounce": 8788,
      "Ġfeedback": 8789,
      "Ġhumiliated": 8790,
      "Ġmasculine": 8791,
      "Ġtrapped": 8792,
      "Similar": 8793,
      "Ġcritical": 8794,
      "Mic": 8795,
      "ĠSweet": 8796,
      "Ġutilized": 8797,
      "Ind": 8798,
      "Ġcritic": 8799,
      "ĠAnonymousreply": 8800,
      "Cam": 8801,
      "Ġlocker": 8802,
      "Ġarranged": 8803,
      "Ġmassages": 8804,
      "ĠReviews": 8805,
      "Ġplatforms": 8806,
      "Ġcared": 8807,
      "Ġthanked": 8808,
      "Ġsettings": 8809,
      "oting": 8810,
      "Ġvamp": 8811,
      "your": 8812,
      "Ġwipe": 8813,
      "ĠAaron": 8814,
      "Ġminded": 8815,
      "Ġaspects": 8816,
      "haired": 8817,
      "Ġrelieved": 8818,
      "umber": 8819,
      "Ġquantity": 8820,
      "uled": 8821,
      "pass": 8822,
      "Ġnotion": 8823,
      "Ġsuits": 8824,
      "ĠThrough": 8825,
      "Ġfetishes": 8826,
      "Ġbattery": 8827,
      "Ġinsisted": 8828,
      "Ġappreciated": 8829,
      "Ġcups": 8830,
      "Ġunderside": 8831,
      "ulling": 8832,
      "Ġmeets": 8833,
      "inds": 8834,
      "Ġtitties": 8835,
      "anie": 8836,
      "ĠLarge": 8837,
      "Ġhamm": 8838,
      "elve": 8839,
      "Ġglow": 8840,
      "!'": 8841,
      "sters": 8842,
      "ko": 8843,
      "Ġmyst": 8844,
      "Ġexquis": 8845,
      "becca": 8846,
      "ĠAndy": 8847,
      "Ġshove": 8848,
      "ĠAlexis": 8849,
      "Ġlovemaking": 8850,
      "ivery": 8851,
      "Ġbeast": 8852,
      "Ġuh": 8853,
      "ĠRead": 8854,
      "Ġjoking": 8855,
      "Ġconfl": 8856,
      "Ġhorror": 8857,
      "point": 8858,
      "robe": 8859,
      "Ġpenetrated": 8860,
      "quest": 8861,
      "ĠLuck": 8862,
      "Experience": 8863,
      "Ġplant": 8864,
      "Ġsucc": 8865,
      "irect": 8866,
      "aph": 8867,
      "Ġhits": 8868,
      "à¥ĩ": 8869,
      "ĠOct": 8870,
      "ĠJerry": 8871,
      "Ġoutdoor": 8872,
      "Ġresort": 8873,
      "ĠInde": 8874,
      "ĠTiffany": 8875,
      "Ġgroans": 8876,
      "ĠSteven": 8877,
      "Ġcuffs": 8878,
      "Ġrack": 8879,
      "==": 8880,
      "Ġspare": 8881,
      "ÄŁ": 8882,
      "irable": 8883,
      "alend": 8884,
      "Ġplump": 8885,
      "ief": 8886,
      "ĠHam": 8887,
      "Ġbetray": 8888,
      "Ġexamine": 8889,
      "ĠGina": 8890,
      "Ġreported": 8891,
      "Ġadventures": 8892,
      "ĠLatina": 8893,
      "ius": 8894,
      "nis": 8895,
      "58": 8896,
      "uel": 8897,
      "ĠSafe": 8898,
      "Ġheter": 8899,
      "ĠIfyou": 8900,
      "logical": 8901,
      "Ġrounded": 8902,
      "Ġcompilation": 8903,
      "ĠMasturb": 8904,
      "Ġdia": 8905,
      "irm": 8906,
      "Ġwiggled": 8907,
      "von": 8908,
      "assage": 8909,
      "ĠÐ½": 8910,
      "Ġgear": 8911,
      "term": 8912,
      "mond": 8913,
      "ĠSk": 8914,
      "IG": 8915,
      "Ġtrade": 8916,
      "Ġshallow": 8917,
      "Ġabilities": 8918,
      "Ġobjective": 8919,
      "Ġmistakes": 8920,
      "Ġcosts": 8921,
      "icate": 8922,
      "ĠThree": 8923,
      "ĠVirginia": 8924,
      "Ġinsist": 8925,
      "Ġanytime": 8926,
      "Ġasses": 8927,
      "gettable": 8928,
      "Ø§Ø": 8929,
      "Ġplane": 8930,
      "ĠKent": 8931,
      "Ġnest": 8932,
      "Ġka": 8933,
      "Ġseparated": 8934,
      "ooo": 8935,
      "ĠDerek": 8936,
      "olic": 8937,
      "Ġtraveling": 8938,
      "cra": 8939,
      "rant": 8940,
      "Ġstraining": 8941,
      "Ġerections": 8942,
      "Ġengulf": 8943,
      "Ġguidel": 8944,
      "Ġfinishing": 8945,
      "Ġlaughs": 8946,
      "Ġrelatively": 8947,
      "Back": 8948,
      "rina": 8949,
      "ulating": 8950,
      "Ġdepartment": 8951,
      "Ġapplication": 8952,
      "RL": 8953,
      "Ġinsides": 8954,
      "Ġtwat": 8955,
      "ndry": 8956,
      "Ġdreamed": 8957,
      "Ġmanufact": 8958,
      "Ġfingered": 8959,
      "Ġstrateg": 8960,
      "Ġ90": 8961,
      "Ġgiggling": 8962,
      "Ġsuffer": 8963,
      "wide": 8964,
      "Ġhal": 8965,
      "Ġnetwor": 8966,
      "Ġki": 8967,
      "ĠWashington": 8968,
      "Ġunion": 8969,
      "Ġseated": 8970,
      "Ġpert": 8971,
      "ĠWithin": 8972,
      "Ġwaistband": 8973,
      "Tom": 8974,
      "aneous": 8975,
      "ĠID": 8976,
      "Ġgir": 8977,
      "ĠTrish": 8978,
      "Ġprotection": 8979,
      "ĠSch": 8980,
      "ĠBoo": 8981,
      "Ġsake": 8982,
      "actly": 8983,
      "Ġdribb": 8984,
      "izza": 8985,
      "Ġjet": 8986,
      "ficial": 8987,
      "Ġuncont": 8988,
      "Ġresponsibility": 8989,
      "ops": 8990,
      "Ġbothered": 8991,
      "Ġfreely": 8992,
      "ĠJackson": 8993,
      "Call": 8994,
      "Ġgenerous": 8995,
      "dess": 8996,
      "Ġgummies": 8997,
      "Ġharness": 8998,
      "Ġvehicle": 8999,
      "Ġknob": 9000,
      "Ġsher": 9001,
      "ĠDirty": 9002,
      "ĠNorm": 9003,
      "Ġleans": 9004,
      "fucking": 9005,
      "Ġfears": 9006,
      "Ġsurrounding": 9007,
      "Ġtherapy": 9008,
      "78": 9009,
      "rod": 9010,
      "ĠCams": 9011,
      "Ġconfirm": 9012,
      "Ġrabbit": 9013,
      "Ġthrilled": 9014,
      "bits": 9015,
      "Ġwise": 9016,
      "Ġlied": 9017,
      "obody": 9018,
      "belie": 9019,
      "ðĿ": 9020,
      "Ġendless": 9021,
      "Ġdisappear": 9022,
      "Jul": 9023,
      "Ġwrigg": 9024,
      "Ġpleasing": 9025,
      "bably": 9026,
      "Ġjoining": 9027,
      "Ġassistance": 9028,
      "uto": 9029,
      "ĠTor": 9030,
      "war": 9031,
      "Ġrequested": 9032,
      "Ġtingling": 9033,
      "Ġnerves": 9034,
      "ĠFo": 9035,
      "Ġstrings": 9036,
      "Ġlapt": 9037,
      "Ġ2009": 9038,
      "Ġtanned": 9039,
      "hem": 9040,
      "ĠBrown": 9041,
      "hend": 9042,
      "Ġtons": 9043,
      "Ġfondling": 9044,
      "ĠErect": 9045,
      "Ġhalfway": 9046,
      "ĠLiter": 9047,
      "hant": 9048,
      "arded": 9049,
      "Ġinvitation": 9050,
      "Ġfren": 9051,
      "ĠFun": 9052,
      "Ġripp": 9053,
      "Ġchannel": 9054,
      "Ġgroaning": 9055,
      "leg": 9056,
      "iger": 9057,
      "ĠSpecial": 9058,
      "tery": 9059,
      "everal": 9060,
      "Brothels": 9061,
      "ĠLord": 9062,
      "Ġchatted": 9063,
      "ĠPrivate": 9064,
      "Ġstool": 9065,
      "Ġforeskin": 9066,
      "ĠRE": 9067,
      "Ġtalks": 9068,
      "Ġsweetie": 9069,
      "Ġacquire": 9070,
      "Ġscient": 9071,
      "Ġtherapist": 9072,
      "Ġvari": 9073,
      "Ġarousing": 9074,
      "Ġterrific": 9075,
      "zer": 9076,
      "ĠSainte": 9077,
      "acter": 9078,
      "ĠLes": 9079,
      "Ġdirt": 9080,
      "ĠThings": 9081,
      "ursday": 9082,
      "Ġautomatically": 9083,
      "ĠPill": 9084,
      "Ġcul": 9085,
      "Ġtraced": 9086,
      "Ġfits": 9087,
      "ĠXxx": 9088,
      "ION": 9089,
      "Ġblush": 9090,
      "Ġfarm": 9091,
      "Ġchicks": 9092,
      "Ġmarks": 9093,
      "enger": 9094,
      "Mr": 9095,
      "Ġseduction": 9096,
      "ĠNancy": 9097,
      "Ġdemanding": 9098,
      "Ġidentify": 9099,
      "ĠHead": 9100,
      "ems": 9101,
      "Ġhello": 9102,
      "Ġdiscussions": 9103,
      "Ġbald": 9104,
      "ĠMia": 9105,
      "Ġreferred": 9106,
      "Ġpoking": 9107,
      "ĠPenn": 9108,
      "Ġvir": 9109,
      "Ġawak": 9110,
      "iffe": 9111,
      "ĠExtender": 9112,
      "osterone": 9113,
      "wen": 9114,
      "Ġflashing": 9115,
      "Ġindulge": 9116,
      "Ġwhipped": 9117,
      "Ġwarned": 9118,
      "iere": 9119,
      "Ġfarts": 9120,
      "ober": 9121,
      "Ġresponses": 9122,
      "Ġfascinating": 9123,
      "foot": 9124,
      "Out": 9125,
      "Ġshowered": 9126,
      "Ġreadily": 9127,
      "ĠIndia": 9128,
      "Ġroommate": 9129,
      "sexy": 9130,
      "bly": 9131,
      "Ġstartled": 9132,
      "onom": 9133,
      "Ġstab": 9134,
      "Ġpantyhose": 9135,
      "Ġintelligent": 9136,
      "Ġhousehold": 9137,
      "Ġintriguing": 9138,
      "azed": 9139,
      "Ġhomemade": 9140,
      "laim": 9141,
      "Ġadvantages": 9142,
      "ĠDiscover": 9143,
      "Ġlasted": 9144,
      "Ġweap": 9145,
      "ĠCreek": 9146,
      "Ġtensed": 9147,
      "Ġinvolving": 9148,
      "opular": 9149,
      "ĠUSA": 9150,
      "inked": 9151,
      "Ġanaly": 9152,
      "ĠYu": 9153,
      "Ġsmirked": 9154,
      "Ġcommanded": 9155,
      "Ġexamples": 9156,
      "Ġwrestling": 9157,
      "ĠTumblr": 9158,
      "Ġrip": 9159,
      "Ġlately": 9160,
      "adox": 9161,
      "Ġsnapchat": 9162,
      "have": 9163,
      "Ġcoc": 9164,
      "Ġwhores": 9165,
      "rum": 9166,
      "Ġflicking": 9167,
      "Ġvalu": 9168,
      "ĠThai": 9169,
      "ĠCost": 9170,
      "Ġobed": 9171,
      "Ġdrifted": 9172,
      "Ġtransl": 9173,
      "parent": 9174,
      "Ġpresents": 9175,
      "ĠFeel": 9176,
      "Ġunforgettable": 9177,
      "ĠLin": 9178,
      "Ġepisode": 9179,
      "rador": 9180,
      "Ġkar": 9181,
      "Â¢": 9182,
      "adem": 9183,
      "Ġnoted": 9184,
      "Ġcelebrity": 9185,
      "Ġviolent": 9186,
      "Ġpillows": 9187,
      "æľ": 9188,
      "Ġtucked": 9189,
      "Ġincome": 9190,
      "Ġprospect": 9191,
      "Ġphotograp": 9192,
      "Mmm": 9193,
      "Ġming": 9194,
      "Ġbubb": 9195,
      "Ġum": 9196,
      "ĠFeb": 9197,
      "Ġmentally": 9198,
      "75": 9199,
      "Ġupright": 9200,
      "Ġenthusiastic": 9201,
      "videos": 9202,
      "Ġcialis": 9203,
      "Ġflut": 9204,
      "anya": 9205,
      "Ġcommunicating": 9206,
      "gency": 9207,
      "Ġecho": 9208,
      "Ġforb": 9209,
      "Ġwasted": 9210,
      "Ġmode": 9211,
      "Ġgifts": 9212,
      "Ġ****": 9213,
      "Ġbelieves": 9214,
      "Ġoccurs": 9215,
      "za": 9216,
      "atrix": 9217,
      "Ġidentical": 9218,
      "Ġgrateful": 9219,
      "Ġstraw": 9220,
      "Ġfitting": 9221,
      "Int": 9222,
      "ĠSupp": 9223,
      "ĠCharles": 9224,
      "ID": 9225,
      "Ġadorable": 9226,
      "Ġwoods": 9227,
      "Ġgasps": 9228,
      "Ġcolors": 9229,
      "Ġclue": 9230,
      "ĠPres": 9231,
      "Ġsexiest": 9232,
      "ĠHookup": 9233,
      "Ġspurt": 9234,
      "Ġdeveloping": 9235,
      "fil": 9236,
      "Ġwis": 9237,
      "Prostitutes": 9238,
      "ĠLabrador": 9239,
      "Ġlake": 9240,
      "Ġtexts": 9241,
      "ĠValent": 9242,
      "Keep": 9243,
      "Ġmanager": 9244,
      "Ġreleasing": 9245,
      "Ġproof": 9246,
      "aughters": 9247,
      "Sm": 9248,
      "eral": 9249,
      "ĠLesbian": 9250,
      "eeee": 9251,
      "ĠSharon": 9252,
      "ĠTed": 9253,
      "Ġbatteries": 9254,
      "ĠTwitter": 9255,
      "Ġgazed": 9256,
      "ĠOhio": 9257,
      "ĠPen": 9258,
      "ĠFleshlight": 9259,
      "Ġpuzz": 9260,
      "foundland": 9261,
      "Ġjew": 9262,
      "Ġcooking": 9263,
      "Ġspiritual": 9264,
      "Ġtraffic": 9265,
      "ĠBu": 9266,
      "Ġrav": 9267,
      "Ġdirections": 9268,
      "ĠMolly": 9269,
      "Ġrespectful": 9270,
      "VD": 9271,
      "Ġreverse": 9272,
      "ĠCandy": 9273,
      "urbate": 9274,
      "Ġvirtual": 9275,
      "Ġinevit": 9276,
      "ÛĮ": 9277,
      "ĠBry": 9278,
      "Ġdigging": 9279,
      "Ġvisitors": 9280,
      "Ġrammed": 9281,
      "gend": 9282,
      "Escort": 9283,
      "ĠNewfoundland": 9284,
      "La": 9285,
      "ĠLib": 9286,
      "Ġquivering": 9287,
      "uration": 9288,
      "essing": 9289,
      "Ġfifty": 9290,
      "Ġstripper": 9291,
      "unte": 9292,
      "Ġspice": 9293,
      "big": 9294,
      "Ġmasturbated": 9295,
      "Name": 9296,
      "Ġwholes": 9297,
      "ĠHaw": 9298,
      "ĠCross": 9299,
      "Ġweed": 9300,
      "Ġkneel": 9301,
      "Ð°Ð": 9302,
      "ĠTant": 9303,
      "Ġinteractions": 9304,
      "Ġuncons": 9305,
      "opy": 9306,
      "ĠYear": 9307,
      "ÐµÐ½": 9308,
      "Real": 9309,
      "Ġcompanions": 9310,
      "Ġvolume": 9311,
      "rian": 9312,
      "arly": 9313,
      "Ġmere": 9314,
      "ĠCare": 9315,
      "Ġtrimmed": 9316,
      "60": 9317,
      "Ġancient": 9318,
      "Ġrou": 9319,
      "ĠRich": 9320,
      "Ġshave": 9321,
      "Ġchats": 9322,
      "Ġsatin": 9323,
      "Ġfollowers": 9324,
      "arse": 9325,
      "Ġexplored": 9326,
      "Ġcompetition": 9327,
      "ĠAly": 9328,
      "urther": 9329,
      "ĠMas": 9330,
      "Ġsignificantly": 9331,
      "Right": 9332,
      "Ġcush": 9333,
      "ĠMount": 9334,
      "cember": 9335,
      "Ġowned": 9336,
      "Ġlasting": 9337,
      "Ġjohn": 9338,
      "Ġsigned": 9339,
[...]
