{
  "version": "1.0",
  "truncation": null,
  "padding": null,
  "added_tokens": [
    {
      "id": 0,
      "content": "<|endoftext|>",
      "single_word": false,
      "lstrip": false,
      "rstrip": false,
      "normalized": false,
      "special": true
    },
    {
      "id": 1,
      "content": "<|pad|>",
      "single_word": false,
      "lstrip": false,
      "rstrip": false,
      "normalized": false,
      "special": true
    },
    {
      "id": 2,
      "content": "<|unk|>",
      "single_word": false,
      "lstrip": false,
      "rstrip": false,
      "normalized": false,
      "special": true
    }
  ],
  "normalizer": null,
  "pre_tokenizer": {
    "type": "ByteLevel",
    "add_prefix_space": false,
    "trim_offsets": true,
    "use_regex": true
  },
  "post_processor": null,
  "decoder": {
    "type": "ByteLevel",
    "add_prefix_space": true,
    "trim_offsets": true,
    "use_regex": true
  },
  "model": {
    "type": "BPE",
    "dropout": null,
    "unk_token": "<|unk|>",
    "continuing_subword_prefix": null,
    "end_of_word_suffix": null,
    "fuse_unk": false,
    "byte_fallback": false,
    "ignore_merges": false,
    "vocab": {
      "<|endoftext|>": 0,
      "<|pad|>": 1,
      "<|unk|>": 2,
      "!": 3,
      "\"": 4,
      "#": 5,
      "$": 6,
      "%": 7,
      "&": 8,
      "'": 9,
      "(": 10,
      ")": 11,
      "*": 12,
      "+": 13,
      ",": 14,
      "-": 15,
      ".": 16,
      "/": 17,
      "0": 18,
      "1": 19,
      "2": 20,
      "3": 21,
      "4": 22,
      "5": 23,
      "6": 24,
      "7": 25,
      "8": 26,
      "9": 27,
      ":": 28,
      ";": 29,
      "<": 30,
      "=": 31,
      ">": 32,
      "?": 33,
      "@": 34,
      "A": 35,
      "B": 36,
      "C": 37,
      "D": 38,
      "E": 39,
      "F": 40,
      "G": 41,
      "H": 42,
      "I": 43,
      "J": 44,
      "K": 45,
      "L": 46,
      "M": 47,
      "N": 48,
      "O": 49,
      "P": 50,
      "Q": 51,
      "R": 52,
      "S": 53,
      "T": 54,
      "U": 55,
      "V": 56,
      "W": 57,
      "X": 58,
      "Y": 59,
      "Z": 60,
      "[": 61,
      "\\": 62,
      "]": 63,
      "^": 64,
      "_": 65,
      "`": 66,
      "a": 67,
      "b": 68,
      "c": 69,
      "d": 70,
      "e": 71,
      "f": 72,
      "g": 73,
      "h": 74,
      "i": 75,
      "j": 76,
      "k": 77,
      "l": 78,
      "m": 79,
      "n": 80,
      "o": 81,
      "p": 82,
      "q": 83,
      "r": 84,
      "s": 85,
      "t": 86,
      "u": 87,
      "v": 88,
      "w": 89,
      "x": 90,
      "y": 91,
      "z": 92,
      "{": 93,
      "|": 94,
      "}": 95,
      "~": 96,
      "¡": 97,
      "¢": 98,
      "£": 99,
      "¤": 100,
      "¥": 101,
      "¦": 102,
      "§": 103,
      "¨": 104,
      "©": 105,
      "ª": 106,
      "«": 107,
      "¬": 108,
      "®": 109,
      "¯": 110,
      "°": 111,
      "±": 112,
      "²": 113,
      "³": 114,
      "´": 115,
      "µ": 116,
      "¶": 117,
      "·": 118,
      "¸": 119,
      "¹": 120,
      "º": 121,
      "»": 122,
      "¼": 123,
      "½": 124,
      "¾": 125,
      "¿": 126,
      "À": 127,
      "Á": 128,
      "Â": 129,
      "Ã": 130,
      "Ä": 131,
      "Å": 132,
      "Æ": 133,
      "Ç": 134,
      "È": 135,
      "É": 136,
      "Ê": 137,
      "Ë": 138,
      "Ì": 139,
      "Í": 140,
      "Î": 141,
      "Ï": 142,
      "Ð": 143,
      "Ñ": 144,
      "Ò": 145,
      "Ó": 146,
      "Ô": 147,
      "Õ": 148,
      "Ö": 149,
      "×": 150,
      "Ø": 151,
      "Ù": 152,
      "Ú": 153,
      "Û": 154,
      "Ü": 155,
      "Ý": 156,
      "Þ": 157,
      "ß": 158,
      "à": 159,
      "á": 160,
      "â": 161,
      "ã": 162,
      "ä": 163,
      "å": 164,
      "æ": 165,
      "ç": 166,
      "è": 167,
      "é": 168,
      "ê": 169,
      "ë": 170,
      "ì": 171,
      "í": 172,
      "î": 173,
      "ï": 174,
      "ð": 175,
      "ñ": 176,
      "ò": 177,
      "ó": 178,
      "ô": 179,
      "õ": 180,
      "ö": 181,
      "÷": 182,
      "ø": 183,
      "ù": 184,
      "ú": 185,
      "û": 186,
      "ü": 187,
      "ý": 188,
      "þ": 189,
      "ÿ": 190,
      "Ā": 191,
      "ā": 192,
      "Ă": 193,
      "ă": 194,
      "Ą": 195,
      "ą": 196,
      "Ć": 197,
      "ć": 198,
      "Ĉ": 199,
      "ĉ": 200,
      "Ċ": 201,
      "ċ": 202,
      "Č": 203,
      "č": 204,
      "Ď": 205,
      "ď": 206,
      "Đ": 207,
      "đ": 208,
      "Ē": 209,
      "ē": 210,
      "Ĕ": 211,
      "ĕ": 212,
      "Ė": 213,
      "ė": 214,
      "Ę": 215,
      "ę": 216,
      "Ě": 217,
      "ě": 218,
      "Ĝ": 219,
      "ĝ": 220,
      "Ğ": 221,
      "ğ": 222,
      "Ġ": 223,
      "ġ": 224,
      "Ģ": 225,
      "ģ": 226,
      "Ĥ": 227,
      "ĥ": 228,
      "Ħ": 229,
      "ħ": 230,
      "Ĩ": 231,
      "ĩ": 232,
      "Ī": 233,
      "ī": 234,
      "Ĭ": 235,
      "ĭ": 236,
      "Į": 237,
      "į": 238,
      "İ": 239,
      "ı": 240,
      "Ĳ": 241,
      "ĳ": 242,
      "Ĵ": 243,
      "ĵ": 244,
      "Ķ": 245,
      "ķ": 246,
      "ĸ": 247,
      "Ĺ": 248,
      "ĺ": 249,
      "Ļ": 250,
      "ļ": 251,
      "Ľ": 252,
      "ľ": 253,
      "Ŀ": 254,
      "ŀ": 255,
      "Ł": 256,
      "ł": 257,
      "Ń": 258,
      "ĠĠ": 259,
      "ĠĠĠĠ": 260,
      "Ġt": 261,
      "in": 262,
      "er": 263,
      "on": 264,
      "Ġa": 265,
      "re": 266,
      "ĠĠĠ": 267,
      "ĠĠĠĠĠĠĠĠ": 268,
      "at": 269,
      "he": 270,
      "or": 271,
      "en": 272,
      "st": 273,
      "se": 274,
      "le": 275,
      "ar": 276,
      "it": 277,
      "Ġc": 278,
      "Ġthe": 279,
      "al": 280,
      "is": 281,
      "an": 282,
      "ion": 283,
      "ou": 284,
      "Ġf": 285,
      "Ġw": 286,
      "ct": 287,
      "ĠĠĠĠĠĠĠ": 288,
      "Ġp": 289,
      "ing": 290,
      "Ġs": 291,
      "de": 292,
      "ĊĠĠĠĠĠĠĠĠ": 293,
      "Ġb": 294,
      "Ġo": 295,
      "es": 296,
      "ro": 297,
      "Ġm": 298,
      "nd": 299,
      "Ġ=": 300,
      "ed": 301,
      "ĊĠĠĠĠĠĠĠ": 302,
      "Ġin": 303,
      "ent": 304,
      "ĊĠĠĠ": 305,
      "ic": 306,
      "Ġto": 307,
      "th": 308,
      "me": 309,
      "Ġof": 310,
      "Ġn": 311,
      "as": 312,
      "Ġand": 313,
      "ur": 314,
      "Ġre": 315,
      "Ġth": 316,
      "Ġh": 317,
      "un": 318,
      "ll": 319,
      "ge": 320,
      "Ġd": 321,
      "Ġe": 322,
      "lo": 323,
      "ve": 324,
      "()": 325,
      "ut": 326,
      "if": 327,
      "id": 328,
      "Ġ\"": 329,
      "\",": 330,
      "Ġ{": 331,
      "ra": 332,
      "ction": 333,
      "om": 334,
      "pe": 335,
      "ce": 336,
      "ch": 337,
      "ĊĠĠĠĠĠĠĠĠĠĠĠ": 338,
      "ig": 339,
      "ate": 340,
      "ad": 341,
      "Ġse": 342,
      "ot": 343,
      "lf": 344,
      "il": 345,
      ");": 346,
      "im": 347,
      "ol": 348,
      "),": 349,
      "ĠS": 350,
      "âĢ": 351,
      "00": 352,
      "Ġl": 353,
      "ĠT": 354,
      "ue": 355,
      "Ġfor": 356,
      "ĠI": 357,
      "ay": 358,
      "Ġy": 359,
      "ation": 360,
      "Ġbe": 361,
      "Ġ}": 362,
      "Ġis": 363,
      "Ġ(": 364,
      "urn": 365,
      "Ġg": 366,
      "ow": 367,
      "Ġst": 368,
      "ly": 369,
      "unction": 370,
      "ver": 371,
      "==": 372,
      "turn": 373,
      "Ġ'": 374,
      "Ġ1": 375,
      "ĠC": 376,
      "ul": 377,
      "ter": 378,
      "am": 379,
      "um": 380,
      "ck": 381,
      "ab": 382,
      "//": 383,
      "::": 384,
      "ĠA": 385,
      "us": 386,
      "ri": 387,
      "Ġde": 388,
      "ame": 389,
      "ĊĠĠĠĠĠĠĠĠĠĠĠĠĠĠĠĠ": 390,
      "Ġon": 391,
      "--": 392,
      "this": 393,
      "ke": 394,
      "ith": 395,
      "te": 396,
      "ĉĉ": 397,
      "\":": 398,
      "Ġyou": 399,
      "Ġ0": 400,
      "Ġv": 401,
      "pt": 402,
      "ir": 403,
      "(\"": 404,
      "ist": 405,
      "function": 406,
      "el": 407,
      "get": 408,
      "],": 409,
      "Ġas": 410,
      "od": 411,
      "ew": 412,
      "ype": 413,
      "ort": 414,
      "Ġcon": 415,
      "res": 416,
      "pp": 417,
      "){": 418,
      "Ġthat": 419,
      "ĠM": 420,
      "',": 421,
      "Ġself": 422,
      "ht": 423,
      "**": 424,
      "ers": 425,
      "ĊĠĠĠĠĠĠĠĠĠĠĠĠĠĠĠ": 426,
      "et": 427,
      "ĠP": 428,
      "ment": 429,
      "out": 430,
      "ode": 431,
      "nt": 432,
      "Ġwith": 433,
      "Ġit": 434,
      "rom": 435,
      "Ġ2": 436,
      "and": 437,
      "xt": 438,
      "to": 439,
      "Ġif": 440,
      "Ġthis": 441,
      "},": 442,
      "Ġu": 443,
      "con": 444,
      "ub": 445,
      "Ġwh": 446,
      "ĠB": 447,
      "ult": 448,
      "Ġr": 449,
      "return": 450,
      "end": 451,
      "Ġle": 452,
      "ass": 453,
      "iz": 454,
      "ata": 455,
      "var": 456,
      "âĢĻ": 457,
      "ess": 458,
      "Ġpro": 459,
      "ect": 460,
      "ĠD": 461,
      "age": 462,
      "Ġan": 463,
      "ĠR": 464,
      "qu": 465,
      "cl": 466,
      "our": 467,
      "em": 468,
      "Ġ-": 469,
      "ill": 470,
      "one": 471,
      "pl": 472,
      "art": 473,
      "&&": 474,
      "ore": 475,
      "ĠF": 476,
      "ĠN": 477,
      "ĠĠĠĠĠ": 478,
      "op": 479,
      "))": 480,
      "for": 481,
      "._": 482,
      "ase": 483,
      "Ġor": 484,
      "able": 485,
      "tr": 486,
      "ile": 487,
      "ag": 488,
      "ĠW": 489,
      "ight": 490,
      "ere": 491,
      "self": 492,
      "ain": 493,
      "ap": 494,
      "ff": 495,
      "os": 496,
      "ity": 497,
      "ive": 498,
      "Ġare": 499,
      "ine": 500,
      "Ġ[": 501,
      "ĠE": 502,
      ").": 503,
      "Ġex": 504,
      "ert": 505,
      "ĠH": 506,
      "pro": 507,
      "all": 508,
      "Ġwe": 509,
      "port": 510,
      "ld": 511,
      "ome": 512,
      "Ġlo": 513,
      "Ġhe": 514,
      "Ġ#": 515,
      "ull": 516,
      "ack": 517,
      "set": 518,
      "ĠL": 519,
      "ind": 520,
      "ĠO": 521,
      "):": 522,
      "Ġcom": 523,
      "ust": 524,
      "Ġat": 525,
      "ĊĠ": 526,
      "Ġ*": 527,
      "ĊĊĠĠĠ": 528,
      "ath": 529,
      "val": 530,
      "ave": 531,
      "ial": 532,
      "ant": 533,
      "oc": 534,
      "Ġnot": 535,
      "ime": 536,
      "int": 537,
      "##": 538,
      "iv": 539,
      "ure": 540,
      "('": 541,
      "01": 542,
      "Ġ+": 543,
      "ĠThe": 544,
      "ac": 545,
      "Ġreturn": 546,
      "ption": 547,
      "ject": 548,
      "ĊĠĠĠĠĠ": 549,
      "__": 550,
      "rou": 551,
      "Ġfrom": 552,
      "ies": 553,
      "ĠG": 554,
      "\",\"": 555,
      "ror": 556,
      "ast": 557,
      "are": 558,
      "name": 559,
      "ide": 560,
      "Ċĉĉ": 561,
      "----": 562,
      "ice": 563,
      "||": 564,
      "Ġ//": 565,
      "Ġch": 566,
      "str": 567,
      "ire": 568,
      "Ġsh": 569,
      ":\"": 570,
      "fa": 571,
      "Ġwas": 572,
      "put": 573,
      "ĠĠĠĠĠĠĠĠĠĠĠĠĠĠĠĠ": 574,
      "sc": 575,
      "ĊĠĠĠĠĠĠĠĠĠĠĠĠĠĠĠĠĠĠĠ": 576,
      "ard": 577,
      "Ġby": 578,
      "ip": 579,
      "type": 580,
      "ok": 581,
      "ize": 582,
      "ost": 583,
      "In": 584,
      "Ġal": 585,
      "ak": 586,
      "ans": 587,
      "com": 588,
      "Ġhave": 589,
      "ord": 590,
      "..": 591,
      "ss": 592,
      "ex": 593,
      "Ġim": 594,
      "est": 595,
      "=\"": 596,
      "eng": 597,
      "Ġcan": 598,
      "Ġres": 599,
      "ild": 600,
      "ext": 601,
      "Ġj": 602,
      "form": 603,
      "Ġyour": 604,
      "ther": 605,
      "Ġ3": 606,
      "ib": 607,
      "\")": 608,
      "per": 609,
      "ould": 610,
      "11": 611,
      "Ġlet": 612,
      "ĠâĢ": 613,
      "ance": 614,
      "ry": 615,
      "****": 616,
      "Ġk": 617,
      ",\"": 618,
      "ite": 619,
      "bject": 620,
      "ple": 621,
      "ount": 622,
      "Ġwill": 623,
      "Ġcl": 624,
      "ition": 625,
      "pon": 626,
      "12": 627,
      "que": 628,
      "key": 629,
      "Ġall": 630,
      "use": 631,
      "Ġsu": 632,
      "act": 633,
      "ber": 634,
      "cc": 635,
      "Ġpl": 636,
      "32": 637,
      "vent": 638,
      "ork": 639,
      "ign": 640,
      "par": 641,
      "10": 642,
      "ĊĊĠĠĠĠĠĠĠ": 643,
      "data": 644,
      "Ġnew": 645,
      "Ġ<": 646,
      "sh": 647,
      "Ġab": 648,
      "ĠU": 649,
      "Ġme": 650,
      "Re": 651,
      "Ċĉ": 652,
      "Ġdo": 653,
      "Ġout": 654,
      "ace": 655,
      "ated": 656,
      "':": 657,
      "ength": 658,
      "St": 659,
      "ĠJ": 660,
      "app": 661,
      "Ġ_": 662,
      "av": 663,
      "Ġ&": 664,
      ")}": 665,
      "ps": 666,
      "ear": 667,
      "Ġad": 668,
      "row": 669,
      "ser": 670,
      "();": 671,
      "ud": 672,
      "cre": 673,
      "ail": 674,
      "hen": 675,
      "['": 676,
      "Ġun": 677,
      "AA": 678,
      "null": 679,
      "ach": 680,
      "Ġhas": 681,
      "Ġ:": 682,
      "arg": 683,
      "atch": 684,
      "ax": 685,
      "'s": 686,
      "Ġi": 687,
      "\"\"": 688,
      "Ġdef": 689,
      "fault": 690,
      "ick": 691,
      "Ġfunction": 692,
      "alue": 693,
      "ake": 694,
      "sion": 695,
      "Ġus": 696,
      "Ġgo": 697,
      "ally": 698,
      "Ġen": 699,
      "ents": 700,
      "Ġar": 701,
      "sed": 702,
      "ĠV": 703,
      "du": 704,
      "own": 705,
      "Ġtr": 706,
      "Ġget": 707,
      "of": 708,
      "Ġ4": 709,
      "99": 710,
      "16": 711,
      "Con": 712,
      "Ġcont": 713,
      "Ġ.": 714,
      "ĠTh": 715,
      "Ġvar": 716,
      "length": 717,
      "dex": 718,
      "ong": 719,
      "20": 720,
      "Ġbut": 721,
      "rror": 722,
      "ang": 723,
      "Ġel": 724,
      "ary": 725,
      "(){": 726,
      "ich": 727,
      "lect": 728,
      "text": 729,
      "The": 730,
      "add": 731,
      "')": 732,
      "lement": 733,
      "ĠIn": 734,
      "ec": 735,
      "so": 736,
      "Ġup": 737,
      "Ġ=>": 738,
      "new": 739,
      "===": 740,
      "ep": 741,
      "up": 742,
      "ence": 743,
      "18": 744,
      "les": 745,
      "ange": 746,
      "we": 747,
      "fer": 748,
      "25": 749,
      "value": 750,
      "[\"": 751,
      "iel": 752,
      "(),": 753,
      "og": 754,
      "sp": 755,
      "Ġ},": 756,
      "ia": 757,
      "####": 758,
      "ray": 759,
      "Ġ$": 760,
      "li": 761,
      "log": 762,
      "gh": 763,
      "64": 764,
      "âĢĿ": 765,
      "ory": 766,
      "che": 767,
      "quest": 768,
      "ield": 769,
      "ob": 770,
      "Ġ5": 771,
      "ree": 772,
      "IC": 773,
      "ove": 774,
      "\":\"": 775,
      "15": 776,
      "Ġne": 777,
      "ph": 778,
      "ded": 779,
      "Pro": 780,
      "alse": 781,
      "Ġstr": 782,
      "Ġbo": 783,
      "ings": 784,
      "\"]": 785,
      "ink": 786,
      "ous": 787,
      "ĊĠĠĠĠĠĠĠĠĠĠĠĠĠĠĠĠĠĠĠĠĠĠĠĠ": 788,
      "line": 789,
      "very": 790,
      "ĊĠĠĠĠĠĠĠĠĠĠĠĠĠĠĠĠĠĠĠĠĠĠĠ": 791,
      "14": 792,
      "Ġpub": 793,
      "Ġmore": 794,
      "po": 795,
      "Ġone": 796,
      "Ġthey": 797,
      "ug": 798,
      "ound": 799,
      "rib": 800,
      "bo": 801,
      "Ġmy": 802,
      "led": 803,
      "Ġtime": 804,
      "def": 805,
      "iew": 806,
      "0000": 807,
      "Error": 808,
      "ĠK": 809,
      "Ġtheir": 810,
      "fig": 811,
      "ations": 812,
      "Ġsome": 813,
      "Ġso": 814,
      "tt": 815,
      "Ġ->": 816,
      "13": 817,
      "']": 818,
      "Ġ==": 819,
      "col": 820,
      "odel": 821,
      "tot": 822,
      "Ġfn": 823,
      "24": 824,
      "ress": 825,
      "ise": 826,
      "ays": 827,
      "Ġdata": 828,
      "ne": 829,
      "ca": 830,
      "--------": 831,
      "ix": 832,
      "ĊĠĠĠĠĠĠĠĠĠ": 833,
      "Ġass": 834,
      "Name": 835,
      "Ġpre": 836,
      "pect": 837,
      "old": 838,
      "19": 839,
      "error": 840,
      "ĠY": 841,
      "pert": 842,
      ">>": 843,
      "ator": 844,
      "from": 845,
      "Ġabout": 846,
      "Ġwhich": 847,
      "ike": 848,
      "ĊĊ": 849,
      "ical": 850,
      "Ġhis": 851,
      "\"),": 852,
      "Ġper": 853,
      "class": 854,
      "ER": 855,
      "Ġelse": 856,
      "path": 857,
      "Ġser": 858,
      "urre": 859,
      "&&(": 860,
      "date": 861,
      "Ġsa": 862,
      "ĠRe": 863,
      "Ġman": 864,
      "Ġwho": 865,
      "17": 866,
      "Ġour": 867,
      "ener": 868,
      "pre": 869,
      "ens": 870,
      "irst": 871,
      "Ġwork": 872,
      "ie": 873,
      "ms": 874,
      "30": 875,
      "js": 876,
      "ft": 877,
      "====": 878,
      "Ag": 879,
      "Ġdis": 880,
      "Ġte": 881,
      "ĠâĢľ": 882,
      "umber": 883,
      "totype": 884,
      "Ġpr": 885,
      "nder": 886,
      "co": 887,
      "ptions": 888,
      "file": 889,
      "(&": 890,
      "ient": 891,
      "].": 892,
      "load": 893,
      "ĠNone": 894,
      "uild": 895,
      "ON": 896,
      "ĠSt": 897,
      "pec": 898,
      "Ġtra": 899,
      "cont": 900,
      "pr": 901,
      "vice": 902,
      "lic": 903,
      "ses": 904,
      "abel": 905,
      "Ġ)": 906,
      "enc": 907,
      "!==": 908,
      "Ġany": 909,
      "tern": 910,
      "fo": 911,
      "33": 912,
      "test": 913,
      "Ġapp": 914,
      "ates": 915,
      "min": 916,
      "Ch": 917,
      "read": 918,
      "essage": 919,
      "Cl": 920,
      "Ġ/": 921,
      "];": 922,
      "Ġco": 923,
      "prototype": 924,
      "IN": 925,
      "Type": 926,
      "ml": 927,
      "Ġ\"\"\"": 928,
      "ush": 929,
      "])": 930,
      "Ġx": 931,
      "ource": 932,
      "di": 933,
      "low": 934,
      "default": 935,
      "orm": 936,
      "={": 937,
      "Ġ///": 938,
      "Id": 939,
      "Ġno": 940,
      "Ġpart": 941,
      "ner": 942,
      "Ġpar": 943,
      "50": 944,
      "Ġro": 945,
      "quire": 946,
      "time": 947,
      "Ġwhen": 948,
      "********": 949,
      "28": 950,
      "urrent": 951,
      "</": 952,
      "66": 953,
      "Ġvalue": 954,
      "ater": 955,
      "27": 956,
      "().": 957,
      "\");": 958,
      "Ġcol": 959,
      "Ġother": 960,
      "Ġ@": 961,
      "nc": 962,
      "LE": 963,
      "Ġlike": 964,
      "Ġ7": 965,
      "uct": 966,
      "Ġqu": 967,
      "ery": 968,
      "Ġimport": 969,
      "Ġag": 970,
      "\\\"": 971,
      "igh": 972,
      "Ġfe": 973,
      "};": 974,
      "ish": 975,
      "Ġ`": 976,
      "Ġyear": 977,
      "ĠCh": 978,
      "Ġcre": 979,
      "ument": 980,
      "Ġuse": 981,
      "Ġalso": 982,
      "Ġover": 983,
      "Ġ6": 984,
      "ts": 985,
      "idth": 986,
      "Object": 987,
      "ors": 988,
      "rit": 989,
      "mut": 990,
      "ĊĠĠĠĠĠĠĠĠĠĠĠĠĠĠĠĠĠĠĠĠĠĠĠĠĠĠĠĠĠĠĠĠ": 991,
      "tring": 992,
      "29": 993,
      "Ġclass": 994,
      "der": 995,
      "aw": 996,
      "ven": 997,
      "Ġbeen": 998,
      "Ġoff": 999,
      "yle": 1000,
      "34": 1001,
      "round": 1002,
      "Ġra": 1003,
      "lock": 1004,
      "io": 1005,
      "pos": 1006,
      "({": 1007,
      "04": 1008,
      "ule": 1009,
      "ues": 1010,
      "Ġthere": 1011,
      "ual": 1012,
      "Ġname": 1013,
      "Ġpe": 1014,
      "its": 1015,
      "div": 1016,
      "fe": 1017,
      "38": 1018,
      "RE": 1019,
      "Ar": 1020,
      "ont": 1021,
      "ng": 1022,
      "mer": 1023,
      "roup": 1024,
      "index": 1025,
      "param": 1026,
      "ash": 1027,
      "((": 1028,
      "ute": 1029,
      "ĠIt": 1030,
      "Ġthem": 1031,
      "oid": 1032,
      "ark": 1033,
      "tem": 1034,
      "list": 1035,
      "}}": 1036,
      "ody": 1037,
      "Ġher": 1038,
      "string": 1039,
      "arget": 1040,
      "Th": 1041,
      "Ġhad": 1042,
      "36": 1043,
      "now": 1044,
      "ponse": 1045,
      "ton": 1046,
      "55": 1047,
      "Ġconst": 1048,
      "De": 1049,
      "fter": 1050,
      "Ċĉĉĉĉ": 1051,
      "='": 1052,
      "Ġtype": 1053,
      "cal": 1054,
      "Ġsp": 1055,
      "AT": 1056,
      "arent": 1057,
      "Ġwere": 1058,
      "gra": 1059,
      "37": 1060,
      "ys": 1061,
      "vel": 1062,
      "ning": 1063,
      "{\"": 1064,
      "back": 1065,
      "Ġwould": 1066,
      "QU": 1067,
      "Ġwhat": 1068,
      "]=": 1069,
      "create": 1070,
      "],[": 1071,
      "26": 1072,
      "Ġthan": 1073,
      "Ġ201": 1074,
      "000": 1075,
      "Ġinto": 1076,
      "mb": 1077,
      "ST": 1078,
      "oint": 1079,
      "Ġtest": 1080,
      "ek": 1081,
      "perty": 1082,
      "Ġjust": 1083,
      "cess": 1084,
      "wo": 1085,
      "ĠWe": 1086,
      "doc": 1087,
      "ating": 1088,
      "dd": 1089,
      "arch": 1090,
      "Ġadd": 1091,
      "Element": 1092,
      "yp": 1093,
      "stat": 1094,
      "Se": 1095,
      "Ġset": 1096,
      "35": 1097,
      "Tr": 1098,
      "Ġcomm": 1099,
      "++": 1100,
      "Ġ8": 1101,
      "code": 1102,
      "ov": 1103,
      "ific": 1104,
      "ĊĠĠĠĠ": 1105,
      "Ġacc": 1106,
      "čĊĠĠĠĠĠĠĠ": 1107,
      "!(": 1108,
      "be": 1109,
      "size": 1110,
      "fore": 1111,
      "thod": 1112,
      ":{": 1113,
      "Ex": 1114,
      ",-": 1115,
      "ICAg": 1116,
      "ices": 1117,
      "Ġassert": 1118,
      "import": 1119,
      "mod": 1120,
      "ative": 1121,
      "lp": 1122,
      "39": 1123,
      "ĠThis": 1124,
      "Data": 1125,
      "Ġfirst": 1126,
      "OR": 1127,
      "ask": 1128,
      "87": 1129,
      "ĠSe": 1130,
      "ma": 1131,
      "url": 1132,
      "ader": 1133,
      "node": 1134,
      "state": 1135,
      "'t": 1136,
      "ose": 1137,
      "Ġresult": 1138,
      "anc": 1139,
      "wn": 1140,
      "ins": 1141,
      "reak": 1142,
      "Res": 1143,
      "String": 1144,
      "ople": 1145,
      "day": 1146,
      "ID": 1147,
      "call": 1148,
      "ions": 1149,
      "play": 1150,
      "Ġonly": 1151,
      "ref": 1152,
      "Ċĉĉĉ": 1153,
      "22": 1154,
      "44": 1155,
      "map": 1156,
      "thing": 1157,
      "rate": 1158,
      "ian": 1159,
      "ger": 1160,
      "Ġfo": 1161,
      "cent": 1162,
      "ious": 1163,
      "ample": 1164,
      "\";": 1165,
      "Ġ10": 1166,
      "Ġact": 1167,
      "Ġinter": 1168,
      "List": 1169,
      "Ġmay": 1170,
      "uff": 1171,
      "dis": 1172,
      "Ġhow": 1173,
      "ting": 1174,
      "move": 1175,
      "Ġits": 1176,
      "Ġsc": 1177,
      "Ġneed": 1178,
      "ages": 1179,
      "ible": 1180,
      "80": 1181,
      "Ġid": 1182,
      "Ġlist": 1183,
      "pan": 1184,
      "!=": 1185,
      "To": 1186,
      "Ġback": 1187,
      "ames": 1188,
      "EN": 1189,
      "ined": 1190,
      "ports": 1191,
      "Ġ#[": 1192,
      "ude": 1193,
      "yst": 1194,
      "case": 1195,
      "stance": 1196,
      "97": 1197,
      "Ġpos": 1198,
      "view": 1199,
      "ren": 1200,
      "Ġstart": 1201,
      ")),": 1202,
      "ters": 1203,
      "ics": 1204,
      "pport": 1205,
      "push": 1206,
      "Ġfile": 1207,
      "ann": 1208,
      "uth": 1209,
      "Ġ});": 1210,
      "Ġmake": 1211,
      "AC": 1212,
      "rite": 1213,
      "Ġsaid": 1214,
      "Ġsub": 1215,
      "indow": 1216,
      "Ġprov": 1217,
      "input": 1218,
      "Com": 1219,
      "########": 1220,
      "ĊĠĠĠĠĠĠĠĠĠĠĠĠĠĠĠĠĠĠĠĠĠĠĠĠĠĠĠ": 1221,
      "mp": 1222,
      "40": 1223,
      "let": 1224,
      "void": 1225,
      "no": 1226,
      "pen": 1227,
      "ures": 1228,
      "ifi": 1229,
      "heck": 1230,
      "reat": 1231,
      "čĊ": 1232,
      "Ġval": 1233,
      "\"},": 1234,
      "Ġincl": 1235,
      ")},": 1236,
      "mat": 1237,
      "Ġkey": 1238,
      "Ġpeople": 1239,
      "hed": 1240,
      "Ġtrue": 1241,
      "56": 1242,
      "Ġreg": 1243,
      "ments": 1244,
      "57": 1245,
      "rough": 1246,
      "const": 1247,
      "Ġnull": 1248,
      "lay": 1249,
      "als": 1250,
      "scri": 1251,
      "ract": 1252,
      "sub": 1253,
      ")]": 1254,
      "ature": 1255,
      "by": 1256,
      "ĠHe": 1257,
      "Ġ>": 1258,
      "Ġshe": 1259,
      "Ġaw": 1260,
      "args": 1261,
      "Ġshould": 1262,
      "ken": 1263,
      "itle": 1264,
      "irect": 1265,
      "čĊĠĠĠ": 1266,
      "ities": 1267,
      "start": 1268,
      "AR": 1269,
      "Ġ__": 1270,
      "ank": 1271,
      ":!": 1272,
      "96": 1273,
      "ctions": 1274,
      "90": 1275,
      "Ġbet": 1276,
      "Ġhelp": 1277,
      "ular": 1278,
      "sl": 1279,
      "Ġ|": 1280,
      "air": 1281,
      "ystem": 1282,
      "));": 1283,
      "ility": 1284,
      "vers": 1285,
      "span": 1286,
      "ait": 1287,
      "Ġent": 1288,
      "ey": 1289,
      "86": 1290,
      "Ġknow": 1291,
      "Ġam": 1292,
      "Ġma": 1293,
      "html": 1294,
      "pres": 1295,
      "pub": 1296,
      "Ġarg": 1297,
      "Cont": 1298,
      "ool": 1299,
      "uments": 1300,
      "Ġ&&": 1301,
      "Value": 1302,
      "Ġspec": 1303,
      "ĠâĢĵ": 1304,
      "=!": 1305,
      "jo": 1306,
      "duct": 1307,
      "://": 1308,
      "ify": 1309,
      "Ġlook": 1310,
      "ock": 1311,
      "typeof": 1312,
      "init": 1313,
      "ape": 1314,
      "201": 1315,
      "ĠDe": 1316,
      "place": 1317,
      "Ġunder": 1318,
      "Time": 1319,
      "Ġwant": 1320,
      "Ġprint": 1321,
      "item": 1322,
      "...": 1323,
      "Class": 1324,
      "Ġwor": 1325,
      "rap": 1326,
      "mon": 1327,
      "ough": 1328,
      "config": 1329,
      "Ġmost": 1330,
      "We": 1331,
      "trans": 1332,
      "\\\\": 1333,
      "77": 1334,
      "llow": 1335,
      "84": 1336,
      "work": 1337,
      "Ġevery": 1338,
      "append": 1339,
      "Ġ%": 1340,
      "umn": 1341,
      "Ġatt": 1342,
      "Ġtwo": 1343,
      "max": 1344,
      "Ġthrough": 1345,
      "ouse": 1346,
      "Ġph": 1347,
      "cond": 1348,
      "54": 1349,
      "');": 1350,
      "Ġdif": 1351,
      ")?": 1352,
      "ved": 1353,
      "user": 1354,
      "roll": 1355,
      "Ġtrans": 1356,
      "cept": 1357,
      "Ġmin": 1358,
      "att": 1359,
      "man": 1360,
      "Ġplay": 1361,
      "inal": 1362,
      "Ġ*/": 1363,
      "Event": 1364,
      "Ġwhere": 1365,
      "model": 1366,
      "amp": 1367,
      "count": 1368,
      "htt": 1369,
      "rid": 1370,
      "not": 1371,
      "erson": 1372,
      "object": 1373,
      "Ġend": 1374,
      "ower": 1375,
      "struct": 1376,
      "su": 1377,
      "ĠUn": 1378,
      "He": 1379,
      "Ġfalse": 1380,
      "}},": 1381,
      "AN": 1382,
      "Ġmut": 1383,
      "Col": 1384,
      "Ġafter": 1385,
      "Ġthese": 1386,
      "SE": 1387,
      "sign": 1388,
      "err": 1389,
      "\").": 1390,
      "ustom": 1391,
      "Ġwell": 1392,
      "88": 1393,
      "raw": 1394,
      ":[": 1395,
      "rop": 1396,
      "ilter": 1397,
      "ily": 1398,
      "60": 1399,
      "ĠAr": 1400,
      "ized": 1401,
      "ĠIf": 1402,
      "ĠCom": 1403,
      "ICAgICAg": 1404,
      "AL": 1405,
      "Ġint": 1406,
      "Ġ};": 1407,
      "Ġright": 1408,
      "Node": 1409,
      "Ġext": 1410,
      "94": 1411,
      "inter": 1412,
      "ccess": 1413,
      "label": 1414,
      "ildren": 1415,
      "ble": 1416,
      "ines": 1417,
      "Ġthen": 1418,
      "formation": 1419,
      "qual": 1420,
      "Ġstate": 1421,
      "Ġcould": 1422,
      "IT": 1423,
      "ĠSome": 1424,
      "off": 1425,
      "Ġread": 1426,
      "Ġcons": 1427,
      "Ġac": 1428,
      "ĠTr": 1429,
      "State": 1430,
      "attr": 1431,
      "///": 1432,
      "Array": 1433,
      "lear": 1434,
      "version": 1435,
      "ward": 1436,
      "ased": 1437,
      "Ġrec": 1438,
      "([": 1439,
      "rol": 1440,
      "format": 1441,
      "itt": 1442,
      "reg": 1443,
      ".__": 1444,
      "Ġ===": 1445,
      "fl": 1446,
      "ife": 1447,
      "red": 1448,
      "Ġhand": 1449,
      "ason": 1450,
      "\"],": 1451,
      "Ġhigh": 1452,
      "ful": 1453,
      "Ġevent": 1454,
      "ider": 1455,
      "========": 1456,
      "iter": 1457,
      "lob": 1458,
      "Ġsee": 1459,
      "Ġcall": 1460,
      "ict": 1461,
      "Ġnow": 1462,
      "Ġsm": 1463,
      "76": 1464,
      "wh": 1465,
      "tra": 1466,
      "ync": 1467,
      "Text": 1468,
      "ypes": 1469,
      ".$": 1470,
      "None": 1471,
      "Ġfl": 1472,
      "Ġlog": 1473,
      "ĠYou": 1474,
      "over": 1475,
      "Ġob": 1476,
      "valid": 1477,
      "width": 1478,
      "ĠCon": 1479,
      "Of": 1480,
      "ĠPro": 1481,
      "ED": 1482,
      "px": 1483,
      "----------------": 1484,
      "else": 1485,
      "ponent": 1486,
      "ams": 1487,
      "ĊĠĠĠĠĠĠĠĠĠĠĠĠĠ": 1488,
      "und": 1489,
      "23": 1490,
      "Ġexpect": 1491,
      "ĊĊĠĠĠĠĠĠĠĠĠĠĠ": 1492,
      "uch": 1493,
      "Ġrel": 1494,
      "sw": 1495,
      "Ġway": 1496,
      "ense": 1497,
      "FB": 1498,
      "Ġused": 1499,
      "Ġrequire": 1500,
      "ffect": 1501,
      "rame": 1502,
      "Ġvery": 1503,
      "Ġnp": 1504,
      "parent": 1505,
      "top": 1506,
      "21": 1507,
      "lection": 1508,
      "Ġmany": 1509,
      "len": 1510,
      "ĊĊĠ": 1511,
      "options": 1512,
      "order": 1513,
      "())": 1514,
      "Ġgood": 1515,
      "cause": 1516,
      "utton": 1517,
      "Ġtry": 1518,
      "Ġeven": 1519,
      "ution": 1520,
      "velo": 1521,
      "=[": 1522,
      "Ġ200": 1523,
      "Ġdown": 1524,
      "ru": 1525,
      "59": 1526,
      "\">": 1527,
      "\".": 1528,
      "word": 1529,
      "Ġyears": 1530,
      "Ġdoes": 1531,
      "ES": 1532,
      "Ġfind": 1533,
      "num": 1534,
      "Par": 1535,
      "Ġmodel": 1536,
      "Ġbecause": 1537,
      "ĠWh": 1538,
      "json": 1539,
      "cation": 1540,
      "\",{": 1541,
      "Ġcase": 1542,
      "Un": 1543,
      "ces": 1544,
      "Ġstud": 1545,
      "By": 1546,
      "ache": 1547,
      "Ġlast": 1548,
      "Ġdon": 1549,
      "Ġ||": 1550,
      "rict": 1551,
      "lot": 1552,
      "result": 1553,
      "bs": 1554,
      "70": 1555,
      "arn": 1556,
      "Ġprovide": 1557,
      "Ġrun": 1558,
      "ale": 1559,
      "right": 1560,
      "lose": 1561,
      "Ġshow": 1562,
      "ww": 1563,
      "opy": 1564,
      "point": 1565,
      "field": 1566,
      "Ġ20": 1567,
      "next": 1568,
      "Ġhim": 1569,
      "remove": 1570,
      "ited": 1571,
      "Ġdid": 1572,
      "OD": 1573,
      "58": 1574,
      "ern": 1575,
      "ta": 1576,
      "uring": 1577,
      "à¤": 1578,
      "****************": 1579,
      "Ġwhile": 1580,
      "200": 1581,
      "Qu": 1582,
      "Ġfield": 1583,
      "current": 1584,
      "alk": 1585,
      "Ġbefore": 1586,
      "other": 1587,
      "98": 1588,
      "ident": 1589,
      "plit": 1590,
      "Ġem": 1591,
      "Ġnumber": 1592,
      "event": 1593,
      "ream": 1594,
      "Sh": 1595,
      "dict": 1596,
      "Ġap": 1597,
      "Ġ\\": 1598,
      "rc": 1599,
      "med": 1600,
      "select": 1601,
      "assert": 1602,
      "Ġmod": 1603,
      "True": 1604,
      "atus": 1605,
      "ott": 1606,
      "loat": 1607,
      "aking": 1608,
      "body": 1609,
      "+\"": 1610,
      "Ġrequest": 1611,
      "Ġ{}": 1612,
      "search": 1613,
      "Ġcount": 1614,
      "Ġhere": 1615,
      "ars": 1616,
      "Ġmem": 1617,
      "ateg": 1618,
      "gan": 1619,
      "color": 1620,
      "dir": 1621,
      "ler": 1622,
      "Ġdiffer": 1623,
      "48": 1624,
      "Ġlong": 1625,
      "Ġcurrent": 1626,
      "Ġz": 1627,
      "../": 1628,
      "Ġ+=": 1629,
      ".âĢĿ": 1630,
      "Ġeach": 1631,
      "ister": 1632,
      "ational": 1633,
      "exports": 1634,
      "ience": 1635,
      "info": 1636,
      "ole": 1637,
      "style": 1638,
      "uilder": 1639,
      "Ġmon": 1640,
      "the": 1641,
      "Ġday": 1642,
      "Ġpoint": 1643,
      "ĠAn": 1644,
      "alth": 1645,
      "][": 1646,
      "Property": 1647,
      "pack": 1648,
      "Ġsuch": 1649,
      "son": 1650,
      "bug": 1651,
      "has": 1652,
      "hand": 1653,
      "ways": 1654,
      "Ġ()": 1655,
      "Ġmar": 1656,
      "ell": 1657,
      "FF": 1658,
      "token": 1659,
      "lease": 1660,
      "Ġagain": 1661,
      "(_": 1662,
      "Ġ9": 1663,
      "Ġsim": 1664,
      "]),": 1665,
      "}),": 1666,
      "box": 1667,
      "iness": 1668,
      "Ġed": 1669,
      "wrap": 1670,
      "ef": 1671,
      "\"===": 1672,
      "Ġmuch": 1673,
      "message": 1674,
      "75": 1675,
      "az": 1676,
      "lete": 1677,
      "Key": 1678,
      "Ġinformation": 1679,
      "ote": 1680,
      "Ġbus": 1681,
      "Ġthink": 1682,
      "#[": 1683,
      "////": 1684,
      "Ġpres": 1685,
      "06": 1686,
      "iss": 1687,
      "ĠEx": 1688,
      "Ġve": 1689,
      "Ġgener": 1690,
      "cur": 1691,
      "oun": 1692,
      "Ġinput": 1693,
      "rand": 1694,
      "Ġ?": 1695,
      "raph": 1696,
      "Ġperson": 1697,
      "ĠAnd": 1698,
      "Ġmatch": 1699,
      "Ġpol": 1700,
      "ood": 1701,
      "(!": 1702,
      "ĠSh": 1703,
      "Ġdefault": 1704,
      "Ġobject": 1705,
      "Ġtake": 1706,
      "imes": 1707,
      "Ġown": 1708,
      "46": 1709,
      "uffer": 1710,
      "Ġbest": 1711,
      "check": 1712,
      "Set": 1713,
      "util": 1714,
      "Ġerror": 1715,
      "bl": 1716,
      "Ġbeing": 1717,
      "100": 1718,
      "IG": 1719,
      "update": 1720,
      "target": 1721,
      "vert": 1722,
      "py": 1723,
      "web": 1724,
      "df": 1725,
      "Ġcal": 1726,
      "vis": 1727,
      "ribute": 1728,
      "aut": 1729,
      "Ġcheck": 1730,
      "parse": 1731,
      "ince": 1732,
      "ween": 1733,
      "Ġrem": 1734,
      "riv": 1735,
      "ags": 1736,
      "AM": 1737,
      "});": 1738,
      "Ġmust": 1739,
      "02": 1740,
      "action": 1741,
      "ialize": 1742,
      "Ġuser": 1743,
      "Ġgu": 1744,
      ">,": 1745,
      "Ġsign": 1746,
      "Ġtext": 1747,
      "Ġitem": 1748,
      "ox": 1749,
      "Ġvis": 1750,
      "Ser": 1751,
      "Ġinst": 1752,
      "Ġsk": 1753,
      "idd": 1754,
      "inner": 1755,
      "ĠRes": 1756,
      "Ġind": 1757,
      "try": 1758,
      "comm": 1759,
      "vices": 1760,
      "Ġdist": 1761,
      "Ġhome": 1762,
      "45": 1763,
      "nect": 1764,
      "Ġnum": 1765,
      "./": 1766,
      "Ġthose": 1767,
      "with": 1768,
      "ric": 1769,
      "UT": 1770,
      ".\"": 1771,
      "arge": 1772,
      "less": 1773,
      "Ġopen": 1774,
      "Ġpath": 1775,
      "';": 1776,
      "Ġsupport": 1777,
      "Ġnext": 1778,
      "Ġbl": 1779,
      "Ġfound": 1780,
      "ception": 1781,
      "Ġmade": 1782,
      "Ġweek": 1783,
      "array": 1784,
      "\":{\"": 1785,
      "gram": 1786,
      "Ġline": 1787,
      "ually": 1788,
      "Index": 1789,
      "ission": 1790,
      ")(": 1791,
      "pper": 1792,
      "velop": 1793,
      "An": 1794,
      "left": 1795,
      "ives": 1796,
      "čĊĠĠĠĠĠĠĠĠĠĠĠ": 1797,
      "Ġdoc": 1798,
      "âĢľ": 1799,
      "=(": 1800,
      "write": 1801,
      "ified": 1802,
      "rag": 1803,
      "ather": 1804,
      "Ġworld": 1805,
      "ee": 1806,
      "Ġcor": 1807,
      "AD": 1808,
      "Ġ);": 1809,
      "ĊĠĠ": 1810,
      "impl": 1811,
      "ope": 1812,
      "47": 1813,
      "md": 1814,
      "chool": 1815,
      "ook": 1816,
      "element": 1817,
      "AB": 1818,
      "utes": 1819,
      "AS": 1820,
      "Im": 1821,
      "Ġke": 1822,
      "annel": 1823,
      "height": 1824,
      "Ġsur": 1825,
      "content": 1826,
      "arguments": 1827,
      "break": 1828,
      "Ġbu": 1829,
      "Ġins": 1830,
      "yn": 1831,
      "Ġsystem": 1832,
      "Ġdec": 1833,
      "ainer": 1834,
      "Ġav": 1835,
      "Ġsame": 1836,
      "ten": 1837,
      "Ġfollow": 1838,
      "At": 1839,
      "ants": 1840,
      "ists": 1841,
      "OM": 1842,
      "ket": 1843,
      "95": 1844,
      "Ġexper": 1845,
      "Ġmed": 1846,
      "AAAA": 1847,
      "Wh": 1848,
      "ailable": 1849,
      "Ġca": 1850,
      "defined": 1851,
      "Ġtop": 1852,
      "Ġcar": 1853,
      "pend": 1854,
      "IM": 1855,
      "Ġpass": 1856,
      "Ġcomple": 1857,
      "uster": 1858,
      "Le": 1859,
      "ik": 1860,
      "Up": 1861,
      "db": 1862,
      "ymb": 1863,
      "Ġfin": 1864,
      "Ġ</": 1865,
      "Ġfam": 1866,
      "akes": 1867,
      "abled": 1868,
      "tes": 1869,
      "ĠCl": 1870,
      "ĠFor": 1871,
      "find": 1872,
      "ĊĠĠĠĠĠĠĠĠĠĠĠĠĠĠĠĠĠĠĠĠĠĠĠĠĠĠĠĠĠĠĠ": 1873,
      "ĠĠĠĠĠĠ": 1874,
      "fn": 1875,
      "status": 1876,
      "Ġcreate": 1877,
      "bu": 1878,
      "uration": 1879,
      "UR": 1880,
      "AP": 1881,
      "eq": 1882,
      "31": 1883,
      "Ġcompan": 1884,
      "mem": 1885,
      "This": 1886,
      "ET": 1887,
      "ymbol": 1888,
      "xe": 1889,
      "ches": 1890,
      "ains": 1891,
      "On": 1892,
      "xa": 1893,
      "xc": 1894,
      "Ġlen": 1895,
      "group": 1896,
      "Ġart": 1897,
      "67": 1898,
      "core": 1899,
      "ION": 1900,
      "ĠNew": 1901,
      "').": 1902,
      "Code": 1903,
      "Mod": 1904,
      "tail": 1905,
      "split": 1906,
      "Ġdi": 1907,
      "da": 1908,
      "last": 1909,
      "Ġgreat": 1910,
      "__(": 1911,
      "07": 1912,
      "ness": 1913,
      "join": 1914,
      "Ġ!": 1915,
      "Ġlife": 1916,
      "run": 1917,
      "true": 1918,
      "ĠAl": 1919,
      "Ġ})": 1920,
      "unwrap": 1921,
      "ension": 1922,
      "Ġrange": 1923,
      "Field": 1924,
      "itch": 1925,
      "lobal": 1926,
      "Ġpost": 1927,
      "Ġproduct": 1928,
      "05": 1929,
      "Ġcontin": 1930,
      "Math": 1931,
      "ever": 1932,
      "Ġ::": 1933,
      "Ġwrit": 1934,
      "ules": 1935,
      "request": 1936,
      "Ġmet": 1937,
      "For": 1938,
      "-.": 1939,
      "scription": 1940,
      "require": 1941,
      "client": 1942,
      "cri": 1943,
      "dition": 1944,
      "ared": 1945,
      "Ġprocess": 1946,
      "ah": 1947,
      "ization": 1948,
      "title": 1949,
      "Ġoutput": 1950,
      "Ġmethod": 1951,
      "ential": 1952,
      "Ġfull": 1953,
      "params": 1954,
      "go": 1955,
      "api": 1956,
      "Ġusing": 1957,
      "Ġreal": 1958,
      "query": 1959,
      "92": 1960,
      "ves": 1961,
      "Ġmat": 1962,
      "Ġoper": 1963,
      "sa": 1964,
      "resh": 1965,
      "xb": 1966,
      "Ġbetween": 1967,
      "part": 1968,
      "ght": 1969,
      "\"==": 1970,
      "oft": 1971,
      "Ġresponse": 1972,
      "Date": 1973,
      "position": 1974,
      "number": 1975,
      "Ġconfig": 1976,
      "ĠAs": 1977,
      "Ġplace": 1978,
      "ier": 1979,
      "riend": 1980,
      "come": 1981,
      "plate": 1982,
      "uthor": 1983,
      "Ġdifferent": 1984,
      "Ġ,": 1985,
      "output": 1986,
      "ift": 1987,
      "08": 1988,
      "vol": 1989,
      "Ġmax": 1990,
      "sm": 1991,
      "ĠX": 1992,
      "Ġreally": 1993,
      "oci": 1994,
      "Ġaround": 1995,
      "As": 1996,
      "std": 1997,
      "base": 1998,
      "ced": 1999,
      "replace": 2000,
      "():": 2001,
      "ctor": 2002,
      "Ġnode": 2003,
      "ference": 2004,
      "Ġcour": 2005,
      "Ġgoing": 2006,
      "etwork": 2007,
      "image": 2008,
      "Ġorder": 2009,
      "\"+": 2010,
      "head": 2011,
      "OT": 2012,
      "itor": 2013,
      "Ġstd": 2014,
      "Ġmessage": 2015,
      "til": 2016,
      "mt": 2017,
      "ĠBut": 2018,
      "'],": 2019,
      "Ġdesign": 2020,
      "ross": 2021,
      "ining": 2022,
      "Ġstill": 2023,
      "Ġallow": 2024,
      "au": 2025,
      "arm": 2026,
      "http": 2027,
      "ground": 2028,
      "nown": 2029,
      "It": 2030,
      "Ġ!=": 2031,
      "loy": 2032,
      "False": 2033,
      "Ġexp": 2034,
      "sole": 2035,
      "Ġ12": 2036,
      "ĠSelf": 2037,
      "ideo": 2038,
      "]);": 2039,
      "enter": 2040,
      "Item": 2041,
      "Ġboth": 2042,
      "Ġmain": 2043,
      "bers": 2044,
      "Ġstruct": 2045,
      "());": 2046,
      "49": 2047,
      "Ġlocal": 2048,
      "Ġdevelop": 2049,
      "ender": 2050,
      "Ġcrate": 2051,
      "ormal": 2052,
      "Ġbuild": 2053,
      "'),": 2054,
      "Ġbreak": 2055,
      "OP": 2056,
      "78": 2057,
      "QUF": 2058,
      "Ġhead": 2059,
      "68": 2060,
      "br": 2061,
      "65": 2062,
      "ency": 2063,
      "xf": 2064,
      "cat": 2065,
      "icon": 2066,
      "ready": 2067,
      "ished": 2068,
      "Ġform": 2069,
      "static": 2070,
      "Or": 2071,
      "Ġfil": 2072,
      "down": 2073,
      "Ġbook": 2074,
      ",âĢĿ": 2075,
      "Ġtoo": 2076,
      "proto": 2077,
      "Form": 2078,
      "ĠTrue": 2079,
      "Ġdirect": 2080,
      "Ġref": 2081,
      "bar": 2082,
      "ital": 2083,
      "method": 2084,
      "ords": 2085,
      "ling": 2086,
      "ries": 2087,
      "Ġoptions": 2088,
      "land": 2089,
      "Ġtarget": 2090,
      "enu": 2091,
      "ids": 2092,
      "Ġ],": 2093,
      "mit": 2094,
      "ternal": 2095,
      "EC": 2096,
      "ittle": 2097,
      "unc": 2098,
      "03": 2099,
      "AG": 2100,
      "Ġtem": 2101,
      "unity": 2102,
      "Ġinclude": 2103,
      "meric": 2104,
      "org": 2105,
      "document": 2106,
      "Ġbr": 2107,
      "light": 2108,
      "atures": 2109,
      "Al": 2110,
      "Ġcomp": 2111,
      "Att": 2112,
      "Ġcare": 2113,
      "ager": 2114,
      "iven": 2115,
      "Ġlabel": 2116,
      "Ġsay": 2117,
      "my": 2118,
      "lication": 2119,
      "lib": 2120,
      "If": 2121,
      "createElement": 2122,
      "bind": 2123,
      "ãģ": 2124,
      "','": 2125,
      "Ġsecond": 2126,
      "Ġfact": 2127,
      "Ġindex": 2128,
      "block": 2129,
      "table": 2130,
      "Ġcustom": 2131,
      "ĠError": 2132,
      "ocus": 2133,
      "ĠOption": 2134,
      "face": 2135,
      "Ġfree": 2136,
      "context": 2137,
      "Ġfeel": 2138,
      "Ġpat": 2139,
      "IS": 2140,
      "ty": 2141,
      "pty": 2142,
      "Request": 2143,
      "Ġsuper": 2144,
      "ĠQ": 2145,
      "do": 2146,
      "ship": 2147,
      "props": 2148,
      "Ġpay": 2149,
      "################": 2150,
      "ĠZ": 2151,
      "throw": 2152,
      "Path": 2153,
      "reen": 2154,
      "Des": 2155,
      "clone": 2156,
      "View": 2157,
      "File": 2158,
      "gs": 2159,
      "window": 2160,
      "sible": 2161,
      "Ġos": 2162,
      "ĠOk": 2163,
      "logy": 2164,
      "Map": 2165,
      "offset": 2166,
      "filter": 2167,
      "},\"": 2168,
      "Ġsol": 2169,
      "cle": 2170,
      "Ġbusiness": 2171,
      "42": 2172,
      "iable": 2173,
      "show": 2174,
      "Int": 2175,
      "iled": 2176,
      "Ġhapp": 2177,
      "Ġ19": 2178,
      "Ġinstance": 2179,
      "Ġ16": 2180,
      ";\\": 2181,
      "tc": 2182,
      "Ġpur": 2183,
      "used": 2184,
      "ffic": 2185,
      "ane": 2186,
      "Ġinit": 2187,
      "pression": 2188,
      "Ġproject": 2189,
      "Ġthree": 2190,
      "{}": 2191,
      "Ġmonth": 2192,
      "Result": 2193,
      "aving": 2194,
      "Ġwithout": 2195,
      "Ġlead": 2196,
      "09": 2197,
      "Ġavailable": 2198,
      "Ġfew": 2199,
      "Ġgame": 2200,
      "ĠThey": 2201,
      "bi": 2202,
      "||(": 2203,
      "Ġ['": 2204,
      "af": 2205,
      "Ġ15": 2206,
      "ĠĠĠĠĠĠĠĠĠĠĠĠĠĠĠĠĠĠĠĠĠĠĠĠĠĠĠĠĠĠĠĠ": 2207,
      "ron": 2208,
      "uck": 2209,
      "Ġeas": 2210,
      "atic": 2211,
      "response": 2212,
      "imit": 2213,
      "uding": 2214,
      "Ġrece": 2215,
      "ingle": 2216,
      "gest": 2217,
      "\"\"\"": 2218,
      "ĠSer": 2219,
      "asses": 2220,
      "Ġrest": 2221,
      "Ġter": 2222,
      "++)": 2223,
      "Equal": 2224,
      "Ġlevel": 2225,
      "Size": 2226,
      "ivers": 2227,
      "ĠLe": 2228,
      "Val": 2229,
      "ets": 2230,
      "ui": 2231,
      "Ġsize": 2232,
      "vir": 2233,
      "Ð°": 2234,
      "Add": 2235,
      "ware": 2236,
      "shape": 2237,
      "ats": 2238,
      "Ġservice": 2239,
      "Ġ[]": 2240,
      "US": 2241,
      "link": 2242,
      "Ġincre": 2243,
      "pi": 2244,
      "vest": 2245,
      "Ġold": 2246,
      "\"))": 2247,
      "Ġthings": 2248,
      "instance": 2249,
      "Ġview": 2250,
      "ks": 2251,
      "Ġchar": 2252,
      "cf": 2253,
      "><": 2254,
      "ique": 2255,
      "Ġgroup": 2256,
      "Ġcode": 2257,
      "Ċĉĉĉĉĉĉ": 2258,
      ",{": 2259,
      "DE": 2260,
      "Select": 2261,
      "active": 2262,
      "Ġpartic": 2263,
      "pped": 2264,
      "source": 2265,
      "ond": 2266,
      "ls": 2267,
      "tag": 2268,
      "Ġtech": 2269,
      "85": 2270,
      "00000000": 2271,
      "lex": 2272,
      "ä¸": 2273,
      "Ġduring": 2274,
      "<'": 2275,
      "ci": 2276,
      "ĠFalse": 2277,
      "Ġcolor": 2278,
      "LL": 2279,
      "button": 2280,
      "HT": 2281,
      "Ġgra": 2282,
      "ING": 2283,
      "vious": 2284,
      "Ġlove": 2285,
      "Ġlow": 2286,
      "ural": 2287,
      "ottom": 2288,
      "cs": 2289,
      "Be": 2290,
      "fix": 2291,
      "ety": 2292,
      "ards": 2293,
      "mission": 2294,
      "Ġelement": 2295,
      "Input": 2296,
      "ration": 2297,
      "Ġbody": 2298,
      "Ġhtt": 2299,
      "rist": 2300,
      "orn": 2301,
      "Ġlittle": 2302,
      "obj": 2303,
      "Ġteam": 2304,
      "Trans": 2305,
      "Ġ--": 2306,
      "ameters": 2307,
      "icy": 2308,
      "gin": 2309,
      "scrib": 2310,
      "Ġdate": 2311,
      "Ġput": 2312,
      "Ġpower": 2313,
      "ision": 2314,
      "Ġhealth": 2315,
      "BQU": 2316,
      "stand": 2317,
      "ought": 2318,
      "Ġear": 2319,
      "Ġkeep": 2320,
      "Message": 2321,
      "Out": 2322,
      "Ġdocument": 2323,
      "ĠAmeric": 2324,
      "Ġquest": 2325,
      "Ġalways": 2326,
      "Ġspe": 2327,
      "ination": 2328,
      "module": 2329,
      "74": 2330,
      "Ġleft": 2331,
      "umer": 2332,
      "Width": 2333,
      "Config": 2334,
      "Ġcho": 2335,
      "aterial": 2336,
      "mark": 2337,
      "52": 2338,
      "gy": 2339,
      "Ġ100": 2340,
      "dom": 2341,
      "Ġstrict": 2342,
      "older": 2343,
      "ĠBe": 2344,
      "Ġmov": 2345,
      "opt": 2346,
      "Color": 2347,
      "Ġconf": 2348,
      "lish": 2349,
      "89": 2350,
      "ours": 2351,
      "Ġanother": 2352,
      "perties": 2353,
      "Ġcontent": 2354,
      "Ġsomething": 2355,
      "ssion": 2356,
      "?\"": 2357,
      "full": 2358,
      "ML": 2359,
      "sg": 2360,
      "Ġcome": 2361,
      "ences": 2362,
      "ĠĠĠĠĠĠĠĠĠĠĠ": 2363,
      "All": 2364,
      "render": 2365,
      "Ġformat": 2366,
      "ism": 2367,
      "Ġargs": 2368,
      "aster": 2369,
      "cluster": 2370,
      "ĠOn": 2371,
      "Ġaut": 2372,
      "ump": 2373,
      "oh": 2374,
      "option": 2375,
      "Ġoffer": 2376,
      "oll": 2377,
      "]:": 2378,
      "Ġsource": 2379,
      "ral": 2380,
      "Info": 2381,
      "sk": 2382,
      "Ġtri": 2383,
      "ĠThere": 2384,
      "Ġstand": 2385,
      "Ġschool": 2386,
      "ability": 2387,
      "Ġsmall": 2388,
      "rel": 2389,
      "false": 2390,
      "ENT": 2391,
      "izer": 2392,
      "script": 2393,
      "Ð¾": 2394,
      "leg": 2395,
      "Ġbig": 2396,
      "+=": 2397,
      "CH": 2398,
      "xd": 2399,
      "Get": 2400,
      "istory": 2401,
      "ium": 2402,
      "ched": 2403,
      "por": 2404,
      "ym": 2405,
      "orage": 2406,
      "bt": 2407,
      "side": 2408,
      "slice": 2409,
      "ĠTo": 2410,
      "Ġincluding": 2411,
      "Ġsure": 2412,
      "Ġperform": 2413,
      "!(\"": 2414,
      "aa": 2415,
      "Ġbetter": 2416,
      "src": 2417,
      "iving": 2418,
      "char": 2419,
      ")&&": 2420,
      "Ġmight": 2421,
      "Ġeffect": 2422,
      ".,": 2423,
      "Ġprodu": 2424,
      "print": 2425,
      "LO": 2426,
      "ources": 2427,
      "ai": 2428,
      "np": 2429,
      "With": 2430,
      "display": 2431,
      "Ġsince": 2432,
      "79": 2433,
      "page": 2434,
      "ession": 2435,
      "/*": 2436,
      "Ġchange": 2437,
      "ĠAll": 2438,
      "EB": 2439,
      "ging": 2440,
      "imate": 2441,
      "children": 2442,
      "ior": 2443,
      "apply": 2444,
      "Ġraise": 2445,
      "53": 2446,
      "Ġinterest": 2447,
      "viron": 2448,
      "rr": 2449,
      "Ġstring": 2450,
      "inline": 2451,
      "Ġposition": 2452,
      "https": 2453,
      "Ġfriend": 2454,
      "\":[": 2455,
      "click": 2456,
      "oken": 2457,
      "/**": 2458,
      "Ġ11": 2459,
      "Ġaccess": 2460,
      "xy": 2461,
      "icle": 2462,
      "Ġsit": 2463,
      "css": 2464,
      "Ġret": 2465,
      "Ġbit": 2466,
      "aces": 2467,
      "column": 2468,
      "into": 2469,
      "expect": 2470,
      "cy": 2471,
      "Ġ**": 2472,
      "69": 2473,
      "ertain": 2474,
      ",'": 2475,
      "mm": 2476,
      "ality": 2477,
      "gg": 2478,
      "Ġgot": 2479,
      "nection": 2480,
      "ĠOr": 2481,
      "Ġwater": 2482,
      "Query": 2483,
      "Ġimage": 2484,
      "Ġprogram": 2485,
      "keys": 2486,
      "ĠHow": 2487,
      "ĠCol": 2488,
      "Ġjob": 2489,
      "stru": 2490,
      "ances": 2491,
      "Ġtable": 2492,
      "Ġwon": 2493,
      "oney": 2494,
      "Each": 2495,
      "Number": 2496,
      "Ġorgan": 2497,
      "ived": 2498,
      "ene": 2499,
      "angu": 2500,
      "ification": 2501,
      "Ġbase": 2502,
      "UN": 2503,
      "Pos": 2504,
      "Ġselect": 2505,
      "ĠMan": 2506,
      "Reg": 2507,
      "Ġbool": 2508,
      "tings": 2509,
      "RO": 2510,
      "oe": 2511,
      "ically": 2512,
      "Ġcompany": 2513,
      "unk": 2514,
      "Ġlot": 2515,
      "Ġproble": 2516,
      "romise": 2517,
      "Ġnever": 2518,
      "ĠShe": 2519,
      "crate": 2520,
      "img": 2521,
      "rl": 2522,
      "ights": 2523,
      "Hand": 2524,
      "72": 2525,
      "Ġgiven": 2526,
      "structor": 2527,
      "Ġnon": 2528,
      "73": 2529,
      "43": 2530,
      "Ġcur": 2531,
      "Ðµ": 2532,
      "Ġfamily": 2533,
      "Ġprof": 2534,
      "ories": 2535,
      "Ġpublic": 2536,
      "ĊĠĠĠĠĠĠĠĠĠĠĠĠĠĠĠĠĠ": 2537,
      "Ġlaw": 2538,
      "âĢ¦": 2539,
      "open": 2540,
      "ero": 2541,
      "En": 2542,
      "81": 2543,
      "Ġplan": 2544,
      "uture": 2545,
      "Ref": 2546,
      "Ġsuccess": 2547,
      "ied": 2548,
      "Ġiss": 2549,
      "Ġturn": 2550,
      "argin": 2551,
      "Ġelif": 2552,
      "Ġstyle": 2553,
      "ename": 2554,
      "mand": 2555,
      "Ġgrow": 2556,
      "rect": 2557,
      "Ġlarge": 2558,
      "Ġchang": 2559,
      "Ġreport": 2560,
      "ird": 2561,
      "Ġ]": 2562,
      ")).": 2563,
      "change": 2564,
      "''": 2565,
      "flow": 2566,
      "Is": 2567,
      "stro": 2568,
      "reate": 2569,
      "}.": 2570,
      "ba": 2571,
      "SS": 2572,
      "Ġvalid": 2573,
      "Loc": 2574,
      "Ġwom": 2575,
      "oper": 2576,
      "Child": 2577,
      "Ġkind": 2578,
      "Ġsw": 2579,
      "Ġvalues": 2580,
      "Ġhard": 2581,
      "values": 2582,
      "Builder": 2583,
      "sum": 2584,
      "fin": 2585,
      "define": 2586,
      "net": 2587,
      "Ġpage": 2588,
      "Ġcost": 2589,
      "Ġide": 2590,
      "Default": 2591,
      "Ġask": 2592,
      "Not": 2593,
      "Ġaccount": 2594,
      "Ġpop": 2595,
      "Lo": 2596,
      "delete": 2597,
      "Ġmult": 2598,
      "cell": 2599,
      "level": 2600,
      "CT": 2601,
      "Ġdays": 2602,
      "HE": 2603,
      "Ġimportant": 2604,
      "iginal": 2605,
      "ĠÐ": 2606,
      "93": 2607,
      "Ġversion": 2608,
      "way": 2609,
      "ouch": 2610,
      "tect": 2611,
      "ĠMar": 2612,
      "ume": 2613,
      "ade": 2614,
      "Ġdone": 2615,
      "Ġtot": 2616,
      "================": 2617,
      "cm": 2618,
      "process": 2619,
      "amb": 2620,
      "83": 2621,
      "ensor": 2622,
      "Ġchildren": 2623,
      "webpack": 2624,
      "Ġdisc": 2625,
      "oot": 2626,
      "post": 2627,
      "Context": 2628,
      "Ġside": 2629,
      "Ġwithin": 2630,
      "Ġopt": 2631,
      "names": 2632,
      "Ġexperience": 2633,
      "first": 2634,
      "Ġparent": 2635,
      "Dis": 2636,
      "Off": 2637,
      "cript": 2638,
      "cale": 2639,
      "ele": 2640,
      "Ġless": 2641,
      "pping": 2642,
      "buf": 2643,
      "Ġmus": 2644,
      "handle": 2645,
      "then": 2646,
      "ameter": 2647,
      "gress": 2648,
      "Status": 2649,
      "Ġsl": 2650,
      "Ġsupp": 2651,
      "rix": 2652,
      "root": 2653,
      "ifier": 2654,
      "ĠâĢĺ": 2655,
      "pace": 2656,
      "ĠPh": 2657,
      "Table": 2658,
      "Ġaction": 2659,
      "Ġappe": 2660,
      "Ġwindow": 2661,
      "IP": 2662,
      "82": 2663,
      "Ġaddition": 2664,
      "Ġagainst": 2665,
      "plic": 2666,
      "range": 2667,
      "abs": 2668,
      "hes": 2669,
      "wargs": 2670,
      "=>": 2671,
      "Ġes": 2672,
      "ending": 2673,
      "Ġexcept": 2674,
      "})": 2675,
      "Ġresults": 2676,
      "ither": 2677,
      "ns": 2678,
      "Option": 2679,
      "Ġblock": 2680,
      "Ġable": 2681,
      "Ġmove": 2682,
      "match": 2683,
      "Ġ30": 2684,
      "adding": 2685,
      "41": 2686,
      "Ġq": 2687,
      "Ġgive": 2688,
      "ounds": 2689,
      "Response": 2690,
      "Ġlink": 2691,
      "idget": 2692,
      "Ġcap": 2693,
      "63": 2694,
      "Ċĉĉĉĉĉ": 2695,
      "ï¼": 2696,
      "And": 2697,
      "idden": 2698,
      "ĊĠĠĠĠĠĠĠĠĠĠĠĠĠĠĠĠĠĠĠĠĠĠĠĠĠĠĠĠĠĠĠĠĠĠĠ": 2699,
      "No": 2700,
      "From": 2701,
      "ention": 2702,
      "close": 2703,
      "App": 2704,
      "ons": 2705,
      "uc": 2706,
      "Ġclear": 2707,
      "Ġpack": 2708,
      "You": 2709,
      "Ġalready": 2710,
      "Ġ[-": 2711,
      "rem": 2712,
      "fil": 2713,
      ">>>": 2714,
      "Me": 2715,
      "Ġrequired": 2716,
      "Ġappro": 2717,
      "ators": 2718,
      ",!": 2719,
      "Ġonline": 2720,
      "acity": 2721,
      "âĢĶ": 2722,
      "LT": 2723,
      "Ġcontrol": 2724,
      "Ġexample": 2725,
      "book": 2726,
      "255": 2727,
      "cor": 2728,
      "Module": 2729,
      "uation": 2730,
      "aining": 2731,
      "Ġgl": 2732,
      "Ġgover": 2733,
      "],[-": 2734,
      "none": 2735,
      "ĠSo": 2736,
      "illion": 2737,
      "Ġconsider": 2738,
      "orch": 2739,
      "Ġrow": 2740,
      "Attribute": 2741,
      "Ġcalled": 2742,
      "ront": 2743,
      "thers": 2744,
      "Ġactiv": 2745,
      "Ġident": 2746,
      "host": 2747,
      "verse": 2748,
      "ply": 2749,
      "rivate": 2750,
      "gen": 2751,
      "ram": 2752,
      "ogle": 2753,
      "ĠNo": 2754,
      "Ġenc": 2755,
      "Ġeng": 2756,
      "Ġsett": 2757,
      "inary": 2758,
      "Ġleg": 2759,
      "ocial": 2760,
      "Man": 2761,
      "?(": 2762,
      "eb": 2763,
      "62": 2764,
      "itive": 2765,
      "ĠâĢĶ": 2766,
      "tx": 2767,
      "Pl": 2768,
      "Ġinvest": 2769,
      "Ġbro": 2770,
      "scope": 2771,
      "ĠAd": 2772,
      "Ġexpected": 2773,
      "types": 2774,
      ",_": 2775,
      "Start": 2776,
      "hether": 2777,
      "iate": 2778,
      "End": 2779,
      "Sub": 2780,
      "ĠReturn": 2781,
      "scroll": 2782,
      "oo": 2783,
      "utils": 2784,
      "Ġ!==": 2785,
      "td": 2786,
      "sor": 2787,
      "Ġ18": 2788,
      "adata": 2789,
      "local": 2790,
      "SON": 2791,
      "her": 2792,
      "Ġ('": 2793,
      "lie": 2794,
      "icense": 2795,
      "arr": 2796,
      "Ġreason": 2797,
      "Ġdri": 2798,
      "Test": 2799,
      "board": 2800,
      "Ġ14": 2801,
      "Ġ{\\": 2802,
      "ãĤ": 2803,
      "Ġarea": 2804,
      "Ġemp": 2805,
      "Ġax": 2806,
      "outh": 2807,
      "51": 2808,
      "Ġoption": 2809,
      "!!": 2810,
      "Ġseem": 2811,
      "pose": 2812,
      "ĠResult": 2813,
      "*/": 2814,
      "forEach": 2815,
      "Ġche": 2816,
      "comp": 2817,
      "($": 2818,
      "Ġsum": 2819,
      "rec": 2820,
      "Ġcontext": 2821,
      "ORT": 2822,
      ")||": 2823,
      "Call": 2824,
      "Count": 2825,
      "ðŁ": 2826,
      "property": 2827,
      "items": 2828,
      "ze": 2829,
      "))}": 2830,
      "vironment": 2831,
      "Ġspecial": 2832,
      "acter": 2833,
      "ording": 2834,
      "header": 2835,
      "Ġawait": 2836,
      "TE": 2837,
      "mode": 2838,
      "uid": 2839,
      "Ġbeh": 2840,
      "Ġlay": 2841,
      "Ġwrite": 2842,
      "bit": 2843,
      "ĊĊĠĠĠĠĠĠĠĠĠĠĠĠĠĠĠ": 2844,
      "Ġcr": 2845,
      "ponents": 2846,
      "OL": 2847,
      "ina": 2848,
      "Ġrespon": 2849,
      "Style": 2850,
      "loc": 2851,
      "Ġurl": 2852,
      "Ġclient": 2853,
      "Ġpresent": 2854,
      "Content": 2855,
      "ably": 2856,
      "gr": 2857,
      "Ġhum": 2858,
      "XG": 2859,
      "Ġadv": 2860,
      "gener": 2861,
      "....": 2862,
      "Ġport": 2863,
      "sel": 2864,
      "////////": 2865,
      "idual": 2866,
      "Case": 2867,
      "iod": 2868,
      "child": 2869,
      "arning": 2870,
      "agement": 2871,
      "ĠPar": 2872,
      "čĊĠĠĠĠĠĠĠĠĠĠĠĠĠĠĠ": 2873,
      "Ġop": 2874,
      "ured": 2875,
      "ired": 2876,
      "},{": 2877,
      "ride": 2878,
      "Ġmeet": 2879,
      "ĠUS": 2880,
      "ZX": 2881,
      "ĠObject": 2882,
      ")):": 2883,
      "Ġarray": 2884,
      "attrs": 2885,
      "iversity": 2886,
      ")?;": 2887,
      "Box": 2888,
      "Button": 2889,
      "ding": 2890,
      "Ġfour": 2891,
      "TR": 2892,
      "Ġworking": 2893,
      "ĠString": 2894,
      "ĠPl": 2895,
      "pet": 2896,
      "Model": 2897,
      "Ġservices": 2898,
      "]],": 2899,
      "Ġuntil": 2900,
      "ead": 2901,
      "www": 2902,
      "Sc": 2903,
      "modules": 2904,
      "layer": 2905,
      "Ġtitle": 2906,
      "kind": 2907,
      "IH": 2908,
      "igger": 2909,
      "pecial": 2910,
      "Ġtimes": 2911,
      "Ġchild": 2912,
      "Ġroom": 2913,
      "orth": 2914,
      "send": 2915,
      "gether": 2916,
      "Ġbas": 2917,
      "ients": 2918,
      "ended": 2919,
      "patch": 2920,
      "Lay": 2921,
      "âĶ": 2922,
      "member": 2923,
      "sing": 2924,
      "Ġ(!": 2925,
      "ĠBl": 2926,
      "anguage": 2927,
      "jor": 2928,
      "](": 2929,
      "AI": 2930,
      "env": 2931,
      "${": 2932,
      "Ġtoday": 2933,
      "********************************": 2934,
      "cp": 2935,
      "\"}},": 2936,
      "ips": 2937,
      "Ġpo": 2938,
      "clusterK": 2939,
      "Ġpast": 2940,
      "Ġfollowing": 2941,
      "Ġsite": 2942,
      "Ġcontinue": 2943,
      "sv": 2944,
      "User": 2945,
      ")+": 2946,
      "(|": 2947,
      "]|": 2948,
      "ulation": 2949,
      "Change": 2950,
      "Height": 2951,
      "ributes": 2952,
      "Ġcourse": 2953,
      "plement": 2954,
      "idx": 2955,
      "aim": 2956,
      "ĠWhen": 2957,
      "Ġ\"+": 2958,
      "ĠInd": 2959,
      "Ġaway": 2960,
      "Ġsays": 2961,
      "xu": 2962,
      "aff": 2963,
      "PI": 2964,
      "Own": 2965,
      "Group": 2966,
      "pop": 2967,
      "Ġla": 2968,
      "Ġfa": 2969,
      "build": 2970,
      "Ġcomplete": 2971,
      "Ġver": 2972,
      "Ġgovern": 2973,
      "></": 2974,
      "Ġ(\"": 2975,
      "alf": 2976,
      "iant": 2977,
      "'re": 2978,
      "Ġstatus": 2979,
      "pol": 2980,
      "concat": 2981,
      "oud": 2982,
      "Ġlight": 2983,
      "Ġmaking": 2984,
      "exec": 2985,
      "Ġsever": 2986,
      "MM": 2987,
      "lean": 2988,
      "Ġconsole": 2989,
      "ograph": 2990,
      "igin": 2991,
      "Ġfood": 2992,
      "dit": 2993,
      "ãĥ": 2994,
      "ategory": 2995,
      "Ġest": 2996,
      "Ġmean": 2997,
      "msg": 2998,
      "req": 2999,
      "Listener": 3000,
      "){\"": 3001,
      "Ġphot": 3002,
      "olean": 3003,
      "ACK": 3004,
      "ounter": 3005,
      "ĠThat": 3006,
      "clude": 3007,
      "na": 3008,
      "Ġemail": 3009,
      "present": 3010,
      "Ġocc": 3011,
      "irm": 3012,
      "ĊĊĠĠĠĠĠ": 3013,
      "olve": 3014,
      "irection": 3015,
      "'.": 3016,
      "ands": 3017,
      "91": 3018,
      "exp": 3019,
      "Ġseason": 3020,
      "Ġdr": 3021,
      "--------------------------------": 3022,
      "ibility": 3023,
      "Ġupdate": 3024,
      "Ġ{'": 3025,
      "ised": 3026,
      "rior": 3027,
      "Ġthing": 3028,
      "struction": 3029,
      "Ġcent": 3030,
      ")/": 3031,
      "insert": 3032,
      ">\\": 3033,
      "allow": 3034,
      "dist": 3035,
      "Ġwebs": 3036,
      "Ġbased": 3037,
      "safe": 3038,
      "Ġtotal": 3039,
      "ving": 3040,
      "_.": 3041,
      "\"}": 3042,
      "ged": 3043,
      "ĠApp": 3044,
      "bn": 3045,
      "frame": 3046,
      "Ġben": 3047,
      "]]": 3048,
      "year": 3049,
      "Ad": 3050,
      "lient": 3051,
      "float": 3052,
      "indexOf": 3053,
      "orld": 3054,
      "``": 3055,
      "iple": 3056,
      "aper": 3057,
      "Ġ13": 3058,
      "&&\"": 3059,
      "Ġshort": 3060,
      "Ph": 3061,
      "Ġresearch": 3062,
      "Ġtalk": 3063,
      "ÑĤ": 3064,
      "verage": 3065,
      "61": 3066,
      "ZW": 3067,
      "iff": 3068,
      "acy": 3069,
      "=\\\"": 3070,
      "Inter": 3071,
      "ICAgICAgICAgICAg": 3072,
      "Ġ...": 3073,
      "Ġpossible": 3074,
      "tails": 3075,
      "rain": 3076,
      "ones": 3077,
      "rt": 3078,
      "Ġcondition": 3079,
      "ley": 3080,
      "alt": 3081,
      "ills": 3082,
      "Point": 3083,
      "sets": 3084,
      "\\/": 3085,
      "aded": 3086,
      "[:": 3087,
      "ster": 3088,
      "Ġmoney": 3089,
      "Ġlooking": 3090,
      "Ġfun": 3091,
      "||\"": 3092,
      "Ð¸": 3093,
      "Ġexist": 3094,
      "Ġwhy": 3095,
      "atter": 3096,
      "ribut": 3097,
      "Options": 3098,
      "Ġann": 3099,
      "store": 3100,
      "irc": 3101,
      "Ġsearch": 3102,
      "Ġste": 3103,
      ")}}": 3104,
      "eded": 3105,
      "EL": 3106,
      "fect": 3107,
      "clear": 3108,
      "roups": 3109,
      "Ġstre": 3110,
      "Token": 3111,
      "čĊĉ": 3112,
      "Ġobj": 3113,
      "ilt": 3114,
      ")&&(": 3115,
      "imum": 3116,
      "Ġmap": 3117,
      "can": 3118,
      "location": 3119,
      "Ġvisit": 3120,
      "met": 3121,
      "une": 3122,
      "bb": 3123,
      "ause": 3124,
      "ops": 3125,
      "Ġsingle": 3126,
      "Ġlate": 3127,
      "Ġpract": 3128,
      "anch": 3129,
      "room": 3130,
      "ĠAt": 3131,
      "undefined": 3132,
      "bytes": 3133,
      "ained": 3134,
      "Ġproperty": 3135,
      "Ġinte": 3136,
      "dG": 3137,
      "late": 3138,
      "Ġgr": 3139,
      "Ġneeds": 3140,
      "Ġspecific": 3141,
      "Ġstudents": 3142,
      "Ġmarket": 3143,
      "Ġthought": 3144,
      "Ġalong": 3145,
      "ĠReg": 3146,
      "imation": 3147,
      "era": 3148,
      "most": 3149,
      "ND": 3150,
      "cket": 3151,
      "Ġstore": 3152,
      "EM": 3153,
      "\")]": 3154,
      "}\\": 3155,
      "(-": 3156,
      "component": 3157,
      "pass": 3158,
      "dim": 3159,
      "Ġload": 3160,
      "Check": 3161,
      "uro": 3162,
      "Ġrecent": 3163,
      "SU": 3164,
      "Ġclose": 3165,
      "IF": 3166,
      "ĠDes": 3167,
      "71": 3168,
      "Ġimpro": 3169,
      "Ġunderstand": 3170,
      "oftware": 3171,
      "ĠTe": 3172,
      "ĠCont": 3173,
      "train": 3174,
      "Update": 3175,
      "\\'": 3176,
      "Ġtogether": 3177,
      "Timeout": 3178,
      "ury": 3179,
      "SP": 3180,
      "extend": 3181,
      "ney": 3182,
      "font": 3183,
      "Ġprom": 3184,
      "cer": 3185,
      "ĠPart": 3186,
      "Ġequ": 3187,
      "transform": 3188,
      "Ġemploy": 3189,
      "Ġdoesn": 3190,
      "Ġwidth": 3191,
      "ĠVec": 3192,
      "ĊĠĠĠĠĠĠĠĠĠĠĠĠ": 3193,
      "Ġasync": 3194,
      "Ġfar": 3195,
      "Ġglobal": 3196,
      "className": 3197,
      "Ġhaving": 3198,
      "Ġusize": 3199,
      "Ġindiv": 3200,
      "Ġbelie": 3201,
      "CC": 3202,
      "Ġ24": 3203,
      "PO": 3204,
      "joy": 3205,
      "Ġnear": 3206,
      "Ġparams": 3207,
      "ĠCo": 3208,
      ")))": 3209,
      "sche": 3210,
      "cast": 3211,
      "Ġjo": 3212,
      "ĠCan": 3213,
      "Str": 3214,
      "Ġparse": 3215,
      "Ġhost": 3216,
      "Line": 3217,
      "OwnProperty": 3218,
      "unic": 3219,
      "()),": 3220,
      "ached": 3221,
      "Ġtell": 3222,
      "long": 3223,
      "Ġpy": 3224,
      "Ġenough": 3225,
      "connect": 3226,
      "pb": 3227,
      "Ġmeans": 3228,
      "Ġcomput": 3229,
      "Ġsche": 3230,
      "ql": 3231,
      "Ġoften": 3232,
      "pc": 3233,
      "Ġdidn": 3234,
      "&&!": 3235,
      "Ġlearn": 3236,
      "ĠSc": 3237,
      "(/": 3238,
      "Ġwin": 3239,
      "oom": 3240,
      ">=": 3241,
      "FBQ": 3242,
      "Ġ/**": 3243,
      "ĠGod": 3244,
      "Ġaddress": 3245,
      "MOD": 3246,
      "Ġmembers": 3247,
      "udio": 3248,
      "derive": 3249,
      "ĠChrist": 3250,
      "conom": 3251,
      "vas": 3252,
      "(\".": 3253,
      "debug": 3254,
      "amed": 3255,
      "ĠSu": 3256,
      "ounc": 3257,
      "ising": 3258,
      "Ġfac": 3259,
      "Ġclo": 3260,
      "Ġpot": 3261,
      "creen": 3262,
      "Ġ50": 3263,
      "lt": 3264,
      "Kind": 3265,
      "::{": 3266,
      "ĠType": 3267,
      "Ġloc": 3268,
      "container": 3269,
      "Url": 3270,
      "address": 3271,
      "vo": 3272,
      "Function": 3273,
      "border": 3274,
      "Log": 3275,
      "Ġquery": 3276,
      "TY": 3277,
      "Ġmom": 3278,
      "vue": 3279,
      "atform": 3280,
      "Component": 3281,
      "Ġvideo": 3282,
      "Ob": 3283,
      "ĠNot": 3284,
      "Click": 3285,
      "Service": 3286,
      "PORT": 3287,
      "ohn": 3288,
      "IB": 3289,
      "tool": 3290,
      "center": 3291,
      "fact": 3292,
      "Ġcountry": 3293,
      "ted": 3294,
      "atab": 3295,
      "Ġindust": 3296,
      "Label": 3297,
      "Image": 3298,
      "Top": 3299,
      "Ġbuy": 3300,
      "catch": 3301,
      "yles": 3302,
      "Ġleast": 3303,
      "TH": 3304,
      "Ġ17": 3305,
      "ĠclassName": 3306,
      "Ġeither": 3307,
      "Ġproducts": 3308,
      "ĠWith": 3309,
      ")){": 3310,
      "ĊĊĉ": 3311,
      "Ġnight": 3312,
      "els": 3313,
      "Ġever": 3314,
      "ĠMay": 3315,
      "scribe": 3316,
      "Ġdisplay": 3317,
      "Ġlive": 3318,
      "Ã©": 3319,
      "Ġcolumn": 3320,
      "assertEqual": 3321,
      "Ġstory": 3322,
      "hash": 3323,
      "where": 3324,
      "Ġ[\"": 3325,
      "Mode": 3326,
      "Ġcommunity": 3327,
      "channel": 3328,
      "ni": 3329,
      "Ð½": 3330,
      "ux": 3331,
      "Ġanal": 3332,
      "YY": 3333,
      "Ġhouse": 3334,
      "Ġmakes": 3335,
      "ye": 3336,
      "ĠMe": 3337,
      "ae": 3338,
      "aring": 3339,
      "Ġindividual": 3340,
      "cover": 3341,
      "Tag": 3342,
      "]+": 3343,
      "lines": 3344,
      "Ġexec": 3345,
      "AY": 3346,
      "server": 3347,
      "Ent": 3348,
      "raint": 3349,
      "//!": 3350,
      "ĠReturns": 3351,
      "'m": 3352,
      "CL": 3353,
      "Ġcopy": 3354,
      "inc": 3355,
      "uss": 3356,
      "main": 3357,
      "Exception": 3358,
      "sure": 3359,
      "Ġfore": 3360,
      "čĊč": 3361,
      "Ġcertain": 3362,
      "Ġtask": 3363,
      "()}": 3364,
      "ĠBo": 3365,
      "Ġvol": 3366,
      "func": 3367,
      "scale": 3368,
      "Ġhttp": 3369,
      "Ġbecome": 3370,
      "atabase": 3371,
      "101": 3372,
      "ds": 3373,
      "ĠGet": 3374,
      ")|": 3375,
      "![": 3376,
      "Ġauthor": 3377,
      "Ġvec": 3378,
      "ĠWhat": 3379,
      "Ġfeatures": 3380,
      "Ġspace": 3381,
      "(\"#": 3382,
      "9999": 3383,
      "icro": 3384,
      "Ġonce": 3385,
      "Su": 3386,
      "Ġredu": 3387,
      "Ġpain": 3388,
      "Ġnetwork": 3389,
      "BQ": 3390,
      "Ġcell": 3391,
      "ipe": 3392,
      "Ġreview": 3393,
      "Ġlength": 3394,
      "à¸": 3395,
      "What": 3396,
      ",[": 3397,
      "ĠĠĠĠĠĠĠĠĠĠĠĠĠĠĠ": 3398,
      "ffff": 3399,
      "loader": 3400,
      "ĠEng": 3401,
      "vec": 3402,
      "ÑĢ": 3403,
      "Ġactually": 3404,
      "Ġweb": 3405,
      "ites": 3406,
      "Ġmaterial": 3407,
      "Ġmode": 3408,
      "Ġamount": 3409,
      "cret": 3410,
      "Ġcontact": 3411,
      "template": 3412,
      "ots": 3413,
      "CA": 3414,
      "mask": 3415,
      "gt": 3416,
      "Ġimp": 3417,
      "Ġheight": 3418,
      "Ġoffic": 3419,
      "Ġair": 3420,
      "obile": 3421,
      "Ġpoints": 3422,
      "fort": 3423,
      "::<": 3424,
      "ĠState": 3425,
      "cd": 3426,
      "ĠErr": 3427,
      "buffer": 3428,
      "task": 3429,
      "Ġgetting": 3430,
      "Ġwhether": 3431,
      "raft": 3432,
      "<<": 3433,
      "hip": 3434,
      "izing": 3435,
      "ĠUniversity": 3436,
      "mo": 3437,
      "Ġtool": 3438,
      "sort": 3439,
      "ĠMy": 3440,
      "Ġothers": 3441,
      "cfg": 3442,
      "rapper": 3443,
      "Types": 3444,
      "Ġcame": 3445,
      "mber": 3446,
      "sol": 3447,
      "Ġintern": 3448,
      "ering": 3449,
      "PS": 3450,
      "Ġprovided": 3451,
      "\":{": 3452,
      "Ġfuture": 3453,
      "ires": 3454,
      "save": 3455,
      "ĊĠĠĠĠĠĠĠĠĠĠĠĠĠĠĠĠĠĠĠĠĠĠĠĠĠĠĠĠĠĠĠĠĠĠĠĠĠĠĠĠĠĠĠĠĠĠĠĠ": 3456,
      "Ġ25": 3457,
      "Ġfeature": 3458,
      "Ġquality": 3459,
      "ĠEn": 3460,
      "oder": 3461,
      "riter": 3462,
      "Ġsug": 3463,
      "Ġ199": 3464,
      "Per": 3465,
      "drop": 3466,
      "queue": 3467,
      "imal": 3468,
      "kwargs": 3469,
      "Ġseveral": 3470,
      "Ġwomen": 3471,
      "Ġdoing": 3472,
      "256": 3473,
      "Ġwebsite": 3474,
      "=[],": 3475,
      "Ġlib": 3476,
      "only": 3477,
      "ulate": 3478,
      "Buffer": 3479,
      "Read": 3480,
      "description": 3481,
      "toString": 3482,
      "Ġjson": 3483,
      "Position": 3484,
      "Ġeasy": 3485,
      "ĠPe": 3486,
      "Ġpersonal": 3487,
      "grid": 3488,
      "iddle": 3489,
      "Ġsort": 3490,
      "stop": 3491,
      "Ġtrack": 3492,
      "Ġtreat": 3493,
      "Ġthrow": 3494,
      "Ġcomb": 3495,
      "ĠGo": 3496,
      "stream": 3497,
      "Ġsocial": 3498,
      "imary": 3499,
      "andom": 3500,
      "avor": 3501,
      "loor": 3502,
      "ambda": 3503,
      "uple": 3504,
      "Ġyet": 3505,
      "Ġtre": 3506,
      "term": 3507,
      "Ġundefined": 3508,
      "Ġmajor": 3509,
      "ĊĠĠĠĠĊĠĠĠ": 3510,
      "CE": 3511,
      "cb": 3512,
      "Ġpick": 3513,
      "isk": 3514,
      "ĠIN": 3515,
      "Ġmusic": 3516,
      "aW": 3517,
      "Tra": 3518,
      "Ġ{\"": 3519,
      "unch": 3520,
      "copy": 3521,
      "Ġpercent": 3522,
      "ialog": 3523,
      "itted": 3524,
      "lished": 3525,
      "Ġthough": 3526,
      "Ġtoken": 3527,
      "Ġconnect": 3528,
      "step": 3529,
      "ĠDo": 3530,
      "ĠCar": 3531,
      "serv": 3532,
      "ĠAdd": 3533,
      "Ġinitial": 3534,
      "irt": 3535,
      "spec": 3536,
      "Ġge": 3537,
      "files": 3538,
      "await": 3539,
      "Ġstep": 3540,
      "Ġunique": 3541,
      "Ġpan": 3542,
      "serialize": 3543,
      "Row": 3544,
      "ĠIm": 3545,
      "Ġhold": 3546,
      "Ġdeli": 3547,
      "Ġcreated": 3548,
      "aps": 3549,
      "UM": 3550,
      "Ġclean": 3551,
      "nology": 3552,
      "âĸ": 3553,
      "ĠSte": 3554,
      "Base": 3555,
      "EX": 3556,
      "Ġenjoy": 3557,
      "amples": 3558,
      "mult": 3559,
      "YW": 3560,
      "export": 3561,
      "Ġlater": 3562,
      "Ġstarted": 3563,
      "plot": 3564,
      "Props": 3565,
      "Ġbenef": 3566,
      "Ġprob": 3567,
      "ctx": 3568,
      "wards": 3569,
      "ĠOR": 3570,
      "fficient": 3571,
      "ordin": 3572,
      "ĠTra": 3573,
      "auto": 3574,
      "*(": 3575,
      "ends": 3576,
      "Ġsent": 3577,
      "je": 3578,
      "Ġacross": 3579,
      "just": 3580,
      "ilities": 3581,
      "Ġcity": 3582,
      "Ġfre": 3583,
      "Ġface": 3584,
      "asure": 3585,
      "cade": 3586,
      "MS": 3587,
      "There": 3588,
      "Ġdiv": 3589,
      "Ġcut": 3590,
      "del": 3591,
      "ATE": 3592,
      "IV": 3593,
      "ublic": 3594,
      "Ġev": 3595,
      "pat": 3596,
      "Column": 3597,
      "Block": 3598,
      "ino": 3599,
      "Pre": 3600,
      "âĶĢ": 3601,
      "pha": 3602,
      "aken": 3603,
      "Ġcou": 3604,
      "Client": 3605,
      "rip": 3606,
      "Ġitems": 3607,
      "'ve": 3608,
      "session": 3609,
      "Ġgovernment": 3610,
      "Ġcomes": 3611,
      "Ġwait": 3612,
      "Ġhot": 3613,
      "Ġparticular": 3614,
      "Ġdiff": 3615,
      "Offset": 3616,
      "XX": 3617,
      "Ġant": 3618,
      "Ġdevice": 3619,
      "ĠIs": 3620,
      "rs": 3621,
      "Ġelect": 3622,
      "defineProperty": 3623,
      "Ġwalk": 3624,
      "constructor": 3625,
      "]}": 3626,
      "asing": 3627,
      "Ġhappen": 3628,
      "bottom": 3629,
      "gl": 3630,
      "ersion": 3631,
      "Ġquick": 3632,
      "IR": 3633,
      "PE": 3634,
      "Ġbox": 3635,
      "issing": 3636,
      "oding": 3637,
      "pth": 3638,
      "selected": 3639,
      "CB": 3640,
      "Ġmind": 3641,
      "bor": 3642,
      "Ġener": 3643,
      "Page": 3644,
      "Ġtorch": 3645,
      "idence": 3646,
      "Ġbelow": 3647,
      "ĠAmerican": 3648,
      "gb": 3649,
      "ĠÂ": 3650,
      "iding": 3651,
      "Ġprofession": 3652,
      "uly": 3653,
      "Ġfiles": 3654,
      "Ġrecord": 3655,
      "128": 3656,
      "each": 3657,
      "ided": 3658,
      "total": 3659,
      "fill": 3660,
      "Ġtraining": 3661,
      "Ġbegin": 3662,
      "times": 3663,
      "ĠFl": 3664,
      "ĠMon": 3665,
      "settings": 3666,
      "equal": 3667,
      "Ġmillion": 3668,
      "ilar": 3669,
      "Ġdeal": 3670,
      "ges": 3671,
      "Ġ&'": 3672,
      "Ġevents": 3673,
      "Ext": 3674,
      "Ġabove": 3675,
      "Ġopport": 3676,
      "ĠMed": 3677,
      "Ġ),": 3678,
      "ison": 3679,
      "ogn": 3680,
      "Ġmark": 3681,
      "prop": 3682,
      "Pr": 3683,
      "Ġhours": 3684,
      "Ġrepresent": 3685,
      "Ġprice": 3686,
      "Doc": 3687,
      "Ġwent": 3688,
      "uest": 3689,
      "space": 3690,
      "åı": 3691,
      "Ġteach": 3692,
      "service": 3693,
      "empty": 3694,
      "',['": 3695,
      "nav": 3696,
      "ugin": 3697,
      "nes": 3698,
      "Ġreq": 3699,
      "Ġshare": 3700,
      "Ġtook": 3701,
      "ecess": 3702,
      "'])": 3703,
      "feature": 3704,
      "ĠThese": 3705,
      "Ġmodule": 3706,
      "'+": 3707,
      "Left": 3708,
      "thon": 3709,
      "urther": 3710,
      "Ġsave": 3711,
      "Ġdict": 3712,
      "Ġhandle": 3713,
      "points": 3714,
      "loss": 3715,
      "roller": 3716,
      "yd": 3717,
      "Fl": 3718,
      "Ġnames": 3719,
      "à¥": 3720,
      "disabled": 3721,
      "ians": 3722,
      "iver": 3723,
      "Valid": 3724,
      "\"],[\"": 3725,
      "apping": 3726,
      "device": 3727,
      "Bo": 3728,
      "Ġfinal": 3729,
      "Ġcover": 3730,
      "Symbol": 3731,
      "Frame": 3732,
      "Ġcamp": 3733,
      "project": 3734,
      "Ġfund": 3735,
      "ixed": 3736,
      "Handler": 3737,
      "Ġknown": 3738,
      "graph": 3739,
      "AU": 3740,
      "aj": 3741,
      "fully": 3742,
      "\"},{\"": 3743,
      "rest": 3744,
      "fields": 3745,
      "YX": 3746,
      "Ġprevious": 3747,
      "normal": 3748,
      "Ñģ": 3749,
      "ball": 3750,
      "GV": 3751,
      "ĠValue": 3752,
      "ĠDis": 3753,
      "Ġexpl": 3754,
      "ĠAss": 3755,
      "Ġ>=": 3756,
      "batch": 3757,
      "ourn": 3758,
      "Ġoffset": 3759,
      "Bl": 3760,
      "Ġtag": 3761,
      "Ġ/*": 3762,
      "Ġproblem": 3763,
      "Ġquestion": 3764,
      "sy": 3765,
      "Ġenvironment": 3766,
      "inst": 3767,
      "ĠCal": 3768,
      "background": 3769,
      "otion": 3770,
      "Ġinvol": 3771,
      "stack": 3772,
      "switch": 3773,
      "\",[": 3774,
      "rypt": 3775,
      "MA": 3776,
      "Ġfloat": 3777,
      "'))": 3778,
      "\"!==": 3779,
      "Ġcallback": 3780,
      "margin": 3781,
      "ĠJohn": 3782,
      "Mon": 3783,
      "iles": 3784,
      "Ġearly": 3785,
      "eral": 3786,
      "HTML": 3787,
      "Ġmodels": 3788,
      "Ġadded": 3789,
      "Ġdevelopment": 3790,
      "uded": 3791,
      "Ġansw": 3792,
      "cache": 3793,
      "pri": 3794,
      "ĠDate": 3795,
      "tty": 3796,
      "Ġmonths": 3797,
      "itude": 3798,
      "Ġhistory": 3799,
      "../../": 3800,
      "Ġinstanceof": 3801,
      "Ġminutes": 3802,
      "Ġfig": 3803,
      "CR": 3804,
      "plete": 3805,
      "wise": 3806,
      "lling": 3807,
      "Ġ40": 3808,
      "ĠSet": 3809,
      "ners": 3810,
      "OS": 3811,
      "callback": 3812,
      "Ġstop": 3813,
      "actions": 3814,
      "[_": 3815,
      "Ġyoung": 3816,
      "ĠPer": 3817,
      "Act": 3818,
      "essages": 3819,
      "UP": 3820,
      "Ġland": 3821,
      "Ġmedia": 3822,
      "Fe": 3823,
      "adow": 3824,
      "Ġseries": 3825,
      "Ġperiod": 3826,
      "month": 3827,
      "fs": 3828,
      "maz": 3829,
      "çļ": 3830,
      "Ġrole": 3831,
      "ĊĠĠĠĠĠĠĠĠĠĠĠĠĠĠĠĠĠĠĠĠĠ": 3832,
      "control": 3833,
      "pay": 3834,
      "Ġbeaut": 3835,
      "cope": 3836,
      "yx": 3837,
      "Ġrelation": 3838,
      "FI": 3839,
      "ĠĠĠĠĠĠĠĠĠ": 3840,
      "radi": 3841,
      "cho": 3842,
      "Var": 3843,
      "urs": 3844,
      "ides": 3845,
      "Ġarguments": 3846,
      "ULE": 3847,
      "Ġtf": 3848,
      "Ð¾Ð": 3849,
      "Ġoriginal": 3850,
      "quence": 3851,
      "Ġextra": 3852,
      "âĢĵ": 3853,
      "any": 3854,
      "CON": 3855,
      "ored": 3856,
      "models": 3857,
      "Ġbar": 3858,
      "ĠLicense": 3859,
      "aged": 3860,
      "Ġhuman": 3861,
      "roid": 3862,
      "Ġstudy": 3863,
      "Link": 3864,
      "Ġimpl": 3865,
      "etch": 3866,
      "ĠOne": 3867,
      "Ġseen": 3868,
      "=-": 3869,
      "Max": 3870,
      "ptr": 3871,
      "mediate": 3872,
      "ithy": 3873,
      "PR": 3874,
      "random": 3875,
      "mail": 3876,
      "Ġbring": 3877,
      "KE": 3878,
      "direct": 3879,
      "Ġgre": 3880,
      "curity": 3881,
      "leep": 3882,
      "Met": 3883,
      "auth": 3884,
      "Ġloss": 3885,
      "ha": 3886,
      "Ġperfect": 3887,
      "My": 3888,
      "eds": 3889,
      "Ġserver": 3890,
      "When": 3891,
      "yl": 3892,
      "Ġmsg": 3893,
      "URL": 3894,
      "apt": 3895,
      "Ġcause": 3896,
      "çļĦ": 3897,
      "Pol": 3898,
      "Ġmen": 3899,
      "sd": 3900,
      "Ġeconom": 3901,
      "should": 3902,
      "classes": 3903,
      "atur": 3904,
      "ivity": 3905,
      "gment": 3906,
      "-\\": 3907,
      ",.": 3908,
      "Length": 3909,
      "Ġcard": 3910,
      "QUFD": 3911,
      "New": 3912,
      "Ġdue": 3913,
      "Ġeverything": 3914,
      "Ġenergy": 3915,
      "Ġheart": 3916,
      "Exp": 3917,
      "Target": 3918,
      "IL": 3919,
      "OW": 3920,
      "Ġchannel": 3921,
      "\"!=": 3922,
      "umb": 3923,
      ">)": 3924,
      "ias": 3925,
      "hidden": 3926,
      "ga": 3927,
      "AQ": 3928,
      "urch": 3929,
      "Container": 3930,
      "ret": 3931,
      "Ġstrong": 3932,
      "ĠFr": 3933,
      "ĠArray": 3934,
      "dated": 3935,
      "atural": 3936,
      "ĠPr": 3937,
      "stroy": 3938,
      "Ġtax": 3939,
      "Ġsimple": 3940,
      "Ġvoid": 3941,
      "ĠInst": 3942,
      "Ġfive": 3943,
      "Ġtold": 3944,
      "Ġerr": 3945,
      "ĠMath": 3946,
      "Ġfilter": 3947,
      "Ġlocation": 3948,
      "ouble": 3949,
      "'ll": 3950,
      "Ġtypes": 3951,
      "115": 3952,
      "Ġwhole": 3953,
      "Ġfail": 3954,
      "Ġplease": 3955,
      "++){": 3956,
      "Ġtrain": 3957,
      "(?": 3958,
      "Ġess": 3959,
      "Selector": 3960,
      "Ġcommand": 3961,
      "Ġneeded": 3962,
      "âĶĢâĶĢ": 3963,
      "Ġchall": 3964,
      "ĠData": 3965,
      "ĠNe": 3966,
      "react": 3967,
      "Ġcommon": 3968,
      "depend": 3969,
      "How": 3970,
      "Ġsend": 3971,
      "Ġhalf": 3972,
      "ĠList": 3973,
      "nap": 3974,
      "docs": 3975,
      "ĠCount": 3976,
      "la": 3977,
      "Debug": 3978,
      "ĊĠĠĠĠĠĠĠĠĠĠĠĠĠĠĠĠĠĠĠĠĠĠĠĠĠĠĠĠĠĠĠĠĠĠĠĠĠĠĠ": 3979,
      "Ġrender": 3980,
      "abor": 3981,
      "aging": 3982,
      "BO": 3983,
      "ĠUnited": 3984,
      "Ġemb": 3985,
      "Ġconc": 3986,
      "kens": 3987,
      "like": 3988,
      "ĠHowever": 3989,
      "rary": 3990,
      "Ġpurch": 3991,
      "Ġassoci": 3992,
      "AME": 3993,
      "Ġfall": 3994,
      "register": 3995,
      "Ġbad": 3996,
      "termin": 3997,
      "CO": 3998,
      "vm": 3999,
      "Ġaccept": 4000,
      "tex": 4001,
      "before": 4002,
      "Ġwatch": 4003,
      "Ġcharacter": 4004,
      "components": 4005,
      "Ġcannot": 4006,
      "PACK": 4007,
      "Ġ<=": 4008,
      "ãĢ": 4009,
      "ental": 4010,
      "prefix": 4011,
      "?;": 4012,
      "lang": 4013,
      "vi": 4014,
      "ĠSp": 4015,
      "('.": 4016,
      "Ġtw": 4017,
      "draw": 4018,
      "So": 4019,
      "WEB": 4020,
      "Ġdes": 4021,
      "bed": 4022,
      "Ġfields": 4023,
      "Sl": 4024,
      "ĠID": 4025,
      "()).": 4026,
      "istic": 4027,
      "Ġnews": 4028,
      ")};": 4029,
      "ï¼Į": 4030,
      "Ġworks": 4031,
      "Ġword": 4032,
      "<=": 4033,
      "Tem": 4034,
      "Ġsubject": 4035,
      "500": 4036,
      "Ġframe": 4037,
      "lege": 4038,
      "utions": 4039,
      "Ġentry": 4040,
      "ĠTest": 4041,
      "BA": 4042,
      "('#": 4043,
      "PL": 4044,
      "Ġ'/": 4045,
      "Render": 4046,
      "amera": 4047,
      "ensions": 4048,
      "`.": 4049,
      "fmt": 4050,
      "))},": 4051,
      "ledge": 4052,
      "Ġimplement": 4053,
      "Ġclaim": 4054,
      "align": 4055,
      "Ġanything": 4056,
      "Acc": 4057,
      "Ġgames": 4058,
      "Vec": 4059,
      "command": 4060,
      "Ġinfo": 4061,
      "Ġwriting": 4062,
      "ĠIntern": 4063,
      "Ġmag": 4064,
      "kit": 4065,
      "Ġmor": 4066,
      "Ġfriends": 4067,
      "ancial": 4068,
      ")*": 4069,
      "Ġregister": 4070,
      "EventListener": 4071,
      "Ġpress": 4072,
      "stamp": 4073,
      "æľ": 4074,
      "ively": 4075,
      "conf": 4076,
      "Ġresource": 4077,
      "focus": 4078,
      "Ġphys": 4079,
      "ucation": 4080,
      "åĪ": 4081,
      "Ġ\\\"": 4082,
      "menu": 4083,
      "ĠMin": 4084,
      "weight": 4085,
      "hide": 4086,
      "mary": 4087,
      "fc": 4088,
      "istration": 4089,
      "izes": 4090,
      "Ġdetails": 4091,
      "itter": 4092,
      "Ġparser": 4093,
      "Ġsomeone": 4094,
      "tempt": 4095,
      "imer": 4096,
      "icker": 4097,
      "Ġindustry": 4098,
      "Ġstay": 4099,
      "()},": 4100,
      "Ġfocus": 4101,
      "Ġcenter": 4102,
      "Ġrecomm": 4103,
      "@@": 4104,
      "airs": 4105,
      "Ġdepend": 4106,
      "TP": 4107,
      "ently": 4108,
      "IA": 4109,
      "enn": 4110,
      "padding": 4111,
      "Ġrele": 4112,
      "Ġclick": 4113,
      "Ġissues": 4114,
      "Ġvari": 4115,
      "anged": 4116,
      "Ġamong": 4117,
      "But": 4118,
      "Ġfill": 4119,
      "bits": 4120,
      "Ġhar": 4121,
      "tab": 4122,
      "Ġexc": 4123,
      "expected": 4124,
      "Ġfront": 4125,
      "Ġdom": 4126,
      "ĠYork": 4127,
      "INT": 4128,
      "tain": 4129,
      "Ġ\"),": 4130,
      "async": 4131,
      "Ġago": 4132,
      "hasOwnProperty": 4133,
      "Ġnecess": 4134,
      "nn": 4135,
      "Ġtaking": 4136,
      "though": 4137,
      "encode": 4138,
      "selves": 4139,
      "000000": 4140,
      "Ġforward": 4141,
      "biAg": 4142,
      "Char": 4143,
      "Ġsoftware": 4144,
      "Ġdraw": 4145,
      "Min": 4146,
      "ava": 4147,
      "ading": 4148,
      "Ġdim": 4149,
      "Output": 4150,
      "ried": 4151,
      "events": 4152,
      "Ġremove": 4153,
      "console": 4154,
      "Ġnormal": 4155,
      "protobuf": 4156,
      "bool": 4157,
      "Ġblack": 4158,
      "Ġpolit": 4159,
      "lin": 4160,
      "ases": 4161,
      "Ġ/>": 4162,
      "Ġ32": 4163,
      "earch": 4164,
      "Source": 4165,
      ")}),": 4166,
      "El": 4167,
      "Ġcult": 4168,
      "Ġquestions": 4169,
      "assign": 4170,
      "Ġbuilding": 4171,
      "account": 4172,
      "success": 4173,
      "ford": 4174,
      "ĠGu": 4175,
      "pecially": 4176,
      "Ġwords": 4177,
      "custom": 4178,
      "trigger": 4179,
      "ysis": 4180,
      "fd": 4181,
      "Ġrunning": 4182,
      "Ġbelieve": 4183,
      "outer": 4184,
      "Ġhope": 4185,
      "igation": 4186,
      ".\",": 4187,
      "angle": 4188,
      "Ġlimit": 4189,
      "meta": 4190,
      "ĉĉĉĉ": 4191,
      "HR": 4192,
      "results": 4193,
      "ung": 4194,
      "ube": 4195,
      "always": 4196,
      "`,": 4197,
      "Ġentire": 4198,
      "LEN": 4199,
      "Ġdb": 4200,
      "Ġeducation": 4201,
      "Range": 4202,
      "Ġdescription": 4203,
      "Ġ21": 4204,
      "getElement": 4205,
      "assed": 4206,
      "ĠRo": 4207,
      "Ġ&[": 4208,
      "Ġissue": 4209,
      "iece": 4210,
      "icult": 4211,
      "BC": 4212,
      "One": 4213,
      "mar": 4214,
      "Ġchanges": 4215,
      "ered": 4216,
      "Down": 4217,
      "Ġinstead": 4218,
      "Ġfit": 4219,
      "urope": 4220,
      "argument": 4221,
      "serde": 4222,
      "Self": 4223,
      "aced": 4224,
      "Ġunsafe": 4225,
      "axis": 4226,
      "Ġregion": 4227,
      ".)": 4228,
      "ama": 4229,
      "Window": 4230,
      "ulum": 4231,
      "Ġsession": 4232,
      "rot": 4233,
      "Ġtyp": 4234,
      "Ġdel": 4235,
      "non": 4236,
      "tf": 4237,
      "Ġblog": 4238,
      "mouse": 4239,
      "while": 4240,
      ",(": 4241,
      "Ġweight": 4242,
      "Ġri": 4243,
      "Invalid": 4244,
      "cing": 4245,
      "Ġele": 4246,
      "ĠWest": 4247,
      "Ġroot": 4248,
      ";)": 4249,
      "Ġbutton": 4250,
      "Action": 4251,
      "Us": 4252,
      "done": 4253,
      "107": 4254,
      "Ġiter": 4255,
      "ĠSim": 4256,
      "known": 4257,
      "Ġsuggest": 4258,
      "cap": 4259,
      "Ġisinstance": 4260,
      "ĠPres": 4261,
      "Const": 4262,
      "example": 4263,
      "Ġgir": 4264,
      "iting": 4265,
      "Ġusers": 4266,
      "]))": 4267,
      "SI": 4268,
      "MODULE": 4269,
      "zer": 4270,
      "xl": 4271,
      "Ġcompanies": 4272,
      "Ġgen": 4273,
      "Ġplayer": 4274,
      "ĠBy": 4275,
      "IMPORT": 4276,
      "VER": 4277,
      "Back": 4278,
      "Over": 4279,
      "\")}": 4280,
      "aur": 4281,
      "filename": 4282,
      "rowser": 4283,
      "Ġcoll": 4284,
      "teger": 4285,
      "Ġscreen": 4286,
      "Ġmember": 4287,
      "Ġpotential": 4288,
      "WEBPACK": 4289,
      "ancel": 4290,
      "Ġrandom": 4291,
      "+'": 4292,
      "ili": 4293,
      "resolve": 4294,
      "ĠUp": 4295,
      "Ġvariable": 4296,
      "AF": 4297,
      "sim": 4298,
      "coming": 4299,
      "({},": 4300,
      "ometry": 4301,
      "aker": 4302,
      "application": 4303,
      "Ġrelationship": 4304,
      "Ġcorrect": 4305,
      "fb": 4306,
      "Ġur": 4307,
      "ĠPol": 4308,
      "Ġflow": 4309,
      "Ġsix": 4310,
      "expr": 4311,
      "Ġdf": 4312,
      "ĠCity": 4313,
      "anced": 4314,
      "ises": 4315,
      "Ġstrateg": 4316,
      "alance": 4317,
      "tree": 4318,
      "Ġmarke": 4319,
      "Header": 4320,
      "Ġtaken": 4321,
      "Ġpict": 4322,
      "Ġmer": 4323,
      "anks": 4324,
      "################################": 4325,
      "Part": 4326,
      "Instance": 4327,
      "ana": 4328,
      "Create": 4329,
      "Some": 4330,
      "Ġeff": 4331,
      "\"):": 4332,
      "Ġapplic": 4333,
      "Co": 4334,
      "ĠĠĠĠĠĠĠĠĠĠĠĠ": 4335,
      "Ġidea": 4336,
      "ĠGe": 4337,
      "elt": 4338,
      "pare": 4339,
      "week": 4340,
      "Params": 4341,
      "ĠYour": 4342,
      "Filter": 4343,
      "Ġfurther": 4344,
      "åħ": 4345,
      "pa": 4346,
      "illed": 4347,
      "ĊĠĠĠĠĠĠĠĠĊĠĠĠĠĠĠĠ": 4348,
      "Ġdefin": 4349,
      "Ġindic": 4350,
      ")[": 4351,
      "116": 4352,
      "+(": 4353,
      "Ġshape": 4354,
      "Ġ2012": 4355,
      "Ġage": 4356,
      "ensive": 4357,
      "Ġ}),": 4358,
      "Ġperformance": 4359,
      "ĠGener": 4360,
      "ĠMc": 4361,
      "Ġrate": 4362,
      "reset": 4363,
      "Ġapplication": 4364,
      "cription": 4365,
      "Ġalmost": 4366,
      "Ġthird": 4367,
      "istry": 4368,
      "Ġtrying": 4369,
      "ada": 4370,
      "Ġdig": 4371,
      "ĠDep": 4372,
      "rie": 4373,
      "hel": 4374,
      "Ed": 4375,
      "mean": 4376,
      "png": 4377,
      "Ġreceived": 4378,
      "ores": 4379,
      "esh": 4380,
      "ynam": 4381,
      "Ġpun": 4382,
      "prev": 4383,
      "Ġnothing": 4384,
      "eps": 4385,
      "DB": 4386,
      "tip": 4387,
      "Ġbatch": 4388,
      "Ġ$(": 4389,
      "ä»": 4390,
      "ony": 4391,
      "Ġsrc": 4392,
      "Ġ((": 4393,
      "Ġtakes": 4394,
      "Ġparticip": 4395,
      "ilit": 4396,
      "300": 4397,
      "ios": 4398,
      "Ġaf": 4399,
      "achine": 4400,
      "Ġhttps": 4401,
      "rong": 4402,
      "Ġisn": 4403,
      "sib": 4404,
      "itions": 4405,
      "Ġtransform": 4406,
      "čĊčĊĠĠĠ": 4407,
      "ĠFrom": 4408,
      "lood": 4409,
      "Ġneg": 4410,
      "resource": 4411,
      "=_": 4412,
      "Ġtechnology": 4413,
      "ithub": 4414,
      "card": 4415,
      "Ġeval": 4416,
      "ĠOur": 4417,
      "Ġ\",": 4418,
      "Ġcook": 4419,
      "TO": 4420,
      "utf": 4421,
      "Ġlim": 4422,
      "chie": 4423,
      "Oper": 4424,
      "ĠVal": 4425,
      "Ġapply": 4426,
      "\\\":": 4427,
      "Ġcouple": 4428,
      "tection": 4429,
      "Ġ60": 4430,
      "anges": 4431,
      "Ġprovides": 4432,
      "gex": 4433,
      "cial": 4434,
      "Ġprivate": 4435,
      "bG": 4436,
      "Ġvarious": 4437,
      "ĠCor": 4438,
      "btn": 4439,
      "Ġfoot": 4440,
      "iful": 4441,
      "Ġpretty": 4442,
      "Ġbre": 4443,
      "screen": 4444,
      "email": 4445,
      "zz": 4446,
      ":[\"": 4447,
      "Stream": 4448,
      "Ġgraph": 4449,
      "DD": 4450,
      "bin": 4451,
      "____": 4452,
      "Ġfire": 4453,
      "Ġlikely": 4454,
      "Ġimprove": 4455,
      "dec": 4456,
      "Ġquite": 4457,
      "Ġmoment": 4458,
      "Ġeveryone": 4459,
      "Ġfavor": 4460,
      "Ġdest": 4461,
      "super": 4462,
      "],\"": 4463,
      "apter": 4464,
      "ads": 4465,
      "Ġaccording": 4466,
      "global": 4467,
      "Ġctx": 4468,
      "oute": 4469,
      "Ġbrand": 4470,
      "second": 4471,
      "Ġstream": 4472,
      "IE": 4473,
      "ĠInt": 4474,
      "Open": 4475,
      "atio": 4476,
      "After": 4477,
      "ring": 4478,
      "Format": 4479,
      "ĠAfter": 4480,
      "IMPORTED": 4481,
      "gu": 4482,
      "force": 4483,
      "vision": 4484,
      "rows": 4485,
      "Ġsignific": 4486,
      "lots": 4487,
      "cr": 4488,
      "ĠRep": 4489,
      "Ġhit": 4490,
      "Ġtravel": 4491,
      "Ġwanted": 4492,
      "clus": 4493,
      "ATION": 4494,
      "Ġbackground": 4495,
      "sess": 4496,
      "Ġ[],": 4497,
      "Ġadditional": 4498,
      "Ġeffort": 4499,
      "ued": 4500,
      "Ġwhite": 4501,
      "ĠSee": 4502,
      "äº": 4503,
      "Ġprior": 4504,
      "flex": 4505,
      "Ġcy": 4506,
      "ĠStates": 4507,
      "Ġmanagement": 4508,
      ">(": 4509,
      "aste": 4510,
      "Ġprotect": 4511,
      "entry": 4512,
      "Ġ'''": 4513,
      "Ġrather": 4514,
      "Vis": 4515,
      "Ġraw": 4516,
      "iol": 4517,
      "cn": 4518,
      "Ġensure": 4519,
      "augh": 4520,
      "Ġhowever": 4521,
      "unities": 4522,
      "Ke": 4523,
      "tags": 4524,
      "VS": 4525,
      "tml": 4526,
      "dest": 4527,
      "ĠWorld": 4528,
      "Run": 4529,
      "fit": 4530,
      "rown": 4531,
      "Ġà¤": 4532,
      "Rec": 4533,
      "Ġengine": 4534,
      "ĊĠĠĠĠĠĠ": 4535,
      "dataset": 4536,
      "}\",": 4537,
      "acc": 4538,
      "Names": 4539,
      "Ġprobably": 4540,
      "area": 4541,
      "Ġplt": 4542,
      "[:,": 4543,
      "Ġsimply": 4544,
      "Ġsimilar": 4545,
      "yes": 4546,
      "game": 4547,
      "Parser": 4548,
      "Ġcollect": 4549,
      "Ġoffers": 4550,
      "Ġ22": 4551,
      "Control": 4552,
      "Ġareas": 4553,
      "Ġsex": 4554,
      "Ġlanguage": 4555,
      "make": 4556,
      "Ġcompet": 4557,
      "čĊĠĠĠĠĠĠĠĠĠĠĠĠĠĠĠĠĠĠĠ": 4558,
      "Ġcustomers": 4559,
      "Ġhor": 4560,
      "sec": 4561,
      "Ġsafe": 4562,
      "ggle": 4563,
      "Ġpolicy": 4564,
      "Ġcomment": 4565,
      "Ġfilm": 4566,
      "ĠDr": 4567,
      "Ġactive": 4568,
      "prov": 4569,
      "ĠJan": 4570,
      "ĠAct": 4571,
      "headers": 4572,
      "Access": 4573,
      "SB": 4574,
      "Ġinside": 4575,
      "Method": 4576,
      "AE": 4577,
      "icles": 4578,
      "JSON": 4579,
      "ĠEurope": 4580,
      "Ġcomponent": 4581,
      "RU": 4582,
      "symbol": 4583,
      "days": 4584,
      "dule": 4585,
      "čĊĉĉ": 4586,
      "admin": 4587,
      "]},": 4588,
      "Manager": 4589,
      "Ġdam": 4590,
      "Op": 4591,
      "ĠCheck": 4592,
      "andid": 4593,
      "ĠTrans": 4594,
      "aily": 4595,
      "Fa": 4596,
      "Ġwonder": 4597,
      "parser": 4598,
      "section": 4599,
      "Ġfont": 4600,
      "Ġespecially": 4601,
      "Ġcollection": 4602,
      "Lower": 4603,
      "job": 4604,
      "Icon": 4605,
      "Ġcontract": 4606,
      "Ġ..": 4607,
      "access": 4608,
      "AV": 4609,
      "ĠTHE": 4610,
      "ĠOut": 4611,
      "Ġofficial": 4612,
      "Ġunit": 4613,
      "ufact": 4614,
      "Ġ[];": 4615,
      "Float": 4616,
      "\"}},[": 4617,
      "ribution": 4618,
      "esModule": 4619,
      "Do": 4620,
      "holder": 4621,
      "Ġwide": 4622,
      "common": 4623,
      "Ġcommit": 4624,
      "labels": 4625,
      "arter": 4626,
      "tee": 4627,
      "Ms": 4628,
      "Ġcalc": 4629,
      "Ġways": 4630,
      "SH": 4631,
      "oto": 4632,
      "Ġvia": 4633,
      "Ġasked": 4634,
      "Ġdifficult": 4635,
      "Address": 4636,
      "atory": 4637,
      "shift": 4638,
      "sop": 4639,
      "Ġoutside": 4640,
      "anger": 4641,
      "Ġpa": 4642,
      "Ġ[`": 4643,
      "Ġconnection": 4644,
      "Ġrefer": 4645,
      "ĠWill": 4646,
      "]*": 4647,
      "uk": 4648,
      "Na": 4649,
      ":$": 4650,
      "Ġcoming": 4651,
      "\\\",": 4652,
      "Ġ${": 4653,
      "author": 4654,
      "199": 4655,
      "ately": 4656,
      "Ġcompl": 4657,
      "oss": 4658,
      "Ġphone": 4659,
      "Ġ2013": 4660,
      "Ġoffice": 4661,
      "ĠNational": 4662,
      "Ġstaff": 4663,
      "Ġincludes": 4664,
      "Ġrisk": 4665,
      "Ġlines": 4666,
      "Sto": 4667,
      "Ġfast": 4668,
      "ev": 4669,
      "AAAAAAAA": 4670,
      "osp": 4671,
      "Ġmultiple": 4672,
      "Ġready": 4673,
      "Ġcurrently": 4674,
      "Ġhel": 4675,
      "after": 4676,
      "bm": 4677,
      "Ġmatter": 4678,
      "words": 4679,
      "nov": 4680,
      "ĠSouth": 4681,
      "Ġoil": 4682,
      "Ġsecurity": 4683,
      "Ġetc": 4684,
      "Ab": 4685,
      "Ġselected": 4686,
      "OC": 4687,
      "ua": 4688,
      "\"));": 4689,
      "Ġmis": 4690,
      "'].": 4691,
      "dic": 4692,
      "ĠHis": 4693,
      "respon": 4694,
      "Ġadmin": 4695,
      "Ġsoon": 4696,
      "ector": 4697,
      "reshold": 4698,
      "Ġgeneral": 4699,
      "initial": 4700,
      "svg": 4701,
      "Ġcatch": 4702,
      "aves": 4703,
      "ĠQu": 4704,
      "MD": 4705,
      "ii": 4706,
      "tBQU": 4707,
      "ny": 4708,
      "Callback": 4709,
      ".\"\"\"": 4710,
      "lat": 4711,
      "ĠNorth": 4712,
      "Ġ23": 4713,
      ":'": 4714,
      "images": 4715,
      ")}},": 4716,
      "logical": 4717,
      "track": 4718,
      "Ġrelease": 4719,
      "Ġrespect": 4720,
      "quired": 4721,
      "Ġlogger": 4722,
      "Ge": 4723,
      ":-": 4724,
      "Right": 4725,
      "Ġexperi": 4726,
      "Ġproblems": 4727,
      "shot": 4728,
      "ĠOF": 4729,
      "github": 4730,
      "ival": 4731,
      "encies": 4732,
      "Ġcirc": 4733,
      ".\\": 4734,
      "hent": 4735,
      "pm": 4736,
      "ploy": 4737,
      "ĠAf": 4738,
      "ws": 4739,
      "Ġbuilder": 4740,
      "uint": 4741,
      "Ġbehind": 4742,
      "\")]),": 4743,
      "scriptor": 4744,
      "Mat": 4745,
      "some": 4746,
      "Ġboard": 4747,
      "Ġinv": 4748,
      "enumer": 4749,
      "Tree": 4750,
      "aly": 4751,
      "Ġpattern": 4752,
      "Ġsection": 4753,
      "Ġautom": 4754,
      "Ġfinancial": 4755,
      "ĠSchool": 4756,
      "xml": 4757,
      "iet": 4758,
      "weet": 4759,
      "COM": 4760,
      "Ġrights": 4761,
      "city": 4762,
      "txt": 4763,
      "Gener": 4764,
      "Document": 4765,
      "Ġassist": 4766,
      "rad": 4767,
      "Scroll": 4768,
      "Ġsys": 4769,
      "unit": 4770,
      "urance": 4771,
      "tn": 4772,
      "spe": 4773,
      "checked": 4774,
      "serial": 4775,
      "DF": 4776,
      "\"].": 4777,
      "properties": 4778,
      "Ġliving": 4779,
      "gle": 4780,
      "ĠBar": 4781,
      "ById": 4782,
      ".</": 4783,
      "ĠSm": 4784,
      "Ġdownload": 4785,
      "uge": 4786,
      "_,": 4787,
      "Ġcrit": 4788,
      "Ġregular": 4789,
      "Version": 4790,
      "pu": 4791,
      "Ġsong": 4792,
      "Ġsignificant": 4793,
      "oved": 4794,
      "artment": 4795,
      "Ġinfl": 4796,
      "owner": 4797,
      "}(": 4798,
      "Ġarticle": 4799,
      "Ġprofessional": 4800,
      "addClass": 4801,
      "čĊĠĠĠĠĠ": 4802,
      "href": 4803,
      "Ġ<<": 4804,
      "ĠPark": 4805,
      "Ġyourself": 4806,
      "emit": 4807,
      "Ġ'\\": 4808,
      "annot": 4809,
      "media": 4810,
      "ĠCopy": 4811,
      "gn": 4812,
      "rodu": 4813,
      "ables": 4814,
      "Ġreading": 4815,
      "builder": 4816,
      "Ġreturns": 4817,
      "ln": 4818,
      "Widget": 4819,
      "gree": 4820,
      "Ġep": 4821,
      "hr": 4822,
      "Ġground": 4823,
      "Ġreceive": 4824,
      "=/": 4825,
      "astic": 4826,
      "ĠDefault": 4827,
      "Ġlonger": 4828,
      "Ġparty": 4829,
      "erc": 4830,
      "II": 4831,
      "eval": 4832,
      "Ġmock": 4833,
      "hentic": 4834,
      "Ġupon": 4835,
      "ignore": 4836,
      "ncy": 4837,
      "Ġprevent": 4838,
      "icks": 4839,
      "Ġscale": 4840,
      "åĲ": 4841,
      "Ġelements": 4842,
      "based": 4843,
      "Ġdecl": 4844,
      "oon": 4845,
      "Ġsepar": 4846,
      "ridge": 4847,
      "iment": 4848,
      "Ġmot": 4849,
      "Eq": 4850,
      "EO": 4851,
      "smithy": 4852,
      "Obj": 4853,
      "metadata": 4854,
      "||!": 4855,
      "Ident": 4856,
      "win": 4857,
      "(\"\\": 4858,
      "ulumi": 4859,
      "rupt": 4860,
      "Ġparameters": 4861,
      "Rl": 4862,
      "Cell": 4863,
      "timeout": 4864,
      "Ne": 4865,
      "Ġexact": 4866,
      "å®": 4867,
      "Ġ\"\\": 4868,
      "Ġreser": 4869,
      "Ste": 4870,
      "Ġradi": 4871,
      "important": 4872,
      "Ġlower": 4873,
      "Ġmask": 4874,
      "ka": 4875,
      "include": 4876,
      "nodes": 4877,
      "Ġ``": 4878,
      "bound": 4879,
      "Ġpaper": 4880,
      "ernel": 4881,
      "Ġincluded": 4882,
      "Ġinf": 4883,
      "Ġborder": 4884,
      "ying": 4885,
      "Ġ2011": 4886,
      "TI": 4887,
      "TS": 4888,
      "aws": 4889,
      "variable": 4890,
      "Ġrecogn": 4891,
      "pril": 4892,
      "Ġincrease": 4893,
      "Ġsample": 4894,
      "reme": 4895,
      "184": 4896,
      "Ġopp": 4897,
      "wner": 4898,
      "Ġimpact": 4899,
      "LowerCase": 4900,
      "Ġnatural": 4901,
      "Ġdeep": 4902,
      "Ġcommunic": 4903,
      "Ġoperation": 4904,
      "Ġdeath": 4905,
      "Ġgroups": 4906,
      "ixel": 4907,
      "lier": 4908,
      "ErrorKind": 4909,
      "Ġweeks": 4910,
      "Ġchoose": 4911,
      "She": 4912,
      "Ġinstall": 4913,
      "çĶ": 4914,
      "ĠAust": 4915,
      "Ġexpert": 4916,
      "[-": 4917,
      "Ġhigher": 4918,
      "LC": 4919,
      "Mem": 4920,
      "Ġattack": 4921,
      "required": 4922,
      "ille": 4923,
      "Ġ{},": 4924,
      "Ġleave": 4925,
      "Ax": 4926,
      "Ġplatform": 4927,
      "Resource": 4928,
      "Ġlearning": 4929,
      "Ġreturned": 4930,
      "1111": 4931,
      "Ġpopular": 4932,
      "amily": 4933,
      "pg": 4934,
      "Ġterms": 4935,
      "sample": 4936,
      "Menu": 4937,
      "Ġtree": 4938,
      "posed": 4939,
      "car": 4940,
      "Ġ\"/": 4941,
      "Ġ\"\",": 4942,
      "Fact": 4943,
      "ĠCenter": 4944,
      "=>{": 4945,
      "etail": 4946,
      "Prop": 4947,
      "Level": 4948,
      "Ġattempt": 4949,
      "ĠOct": 4950,
      "layout": 4951,
      "(\"./": 4952,
      "Ġconditions": 4953,
      "Ġcore": 4954,
      "ICB": 4955,
      "Ġheader": 4956,
      "ĠJust": 4957,
      "Layout": 4958,
      "å¤": 4959,
      "Web": 4960,
      "Ġachie": 4961,
      "Ġspecified": 4962,
      "Ġwar": 4963,
      "player": 4964,
      "Ġusually": 4965,
      "aign": 4966,
      "ĠAcc": 4967,
      "ĊĠĠĠĠĠĠĠĠĠĠĠĠĠĠĠĠĠĠĠĠĠĠĠĠĠ": 4968,
      "writ": 4969,
      "acing": 4970,
      "Ġagree": 4971,
      "Ġimages": 4972,
      "isArray": 4973,
      "Em": 4974,
      "ĠOptional": 4975,
      "Ġsound": 4976,
      "edit": 4977,
      ":(": 4978,
      ")(\"": 4979,
      "grams": 4980,
      "Ġseems": 4981,
      "high": 4982,
      "Ġparts": 4983,
      "FT": 4984,
      "PU": 4985,
      "soft": 4986,
      "Ġconcern": 4987,
      "123": 4988,
      "Ġcases": 4989,
      "score": 4990,
      "pk": 4991,
      "lim": 4992,
      "decode": 4993,
      "iance": 4994,
      "och": 4995,
      "Ġplayers": 4996,
      "HO": 4997,
      "Ġsettings": 4998,
      "ĠPre": 4999,
      "lower": 5000,
      "GET": 5001,
      "logger": 5002,
      "oice": 5003,
      "ributed": 5004,
      "ĠRec": 5005,
      "Ġdelete": 5006,
      "Ġstandard": 5007,
      "hy": 5008,
      "Ġround": 5009,
      "ĠCreate": 5010,
      "toLowerCase": 5011,
      "Ġ28": 5012,
      "mas": 5013,
      "ĠTypeError": 5014,
      "Ġpi": 5015,
      "Ġestab": 5016,
      "schema": 5017,
      "duration": 5018,
      "Ġtradition": 5019,
      "MC": 5020,
      "ESS": 5021,
      "={},": 5022,
      "Ġimg": 5023,
      "NAME": 5024,
      "ĠAb": 5025,
      "bot": 5026,
      "Ġempty": 5027,
      "cmd": 5028,
      "Day": 5029,
      "iB": 5030,
      "ĠAug": 5031,
      "Dec": 5032,
      "quare": 5033,
      "('/": 5034,
      "Ġnote": 5035,
      "quires": 5036,
      "Ġactual": 5037,
      "password": 5038,
      "ZG": 5039,
      "ĠNow": 5040,
      "////////////////": 5041,
      "hood": 5042,
      "hib": 5043,
      "Ġheld": 5044,
      "Ġrelated": 5045,
      "Ġshows": 5046,
      "destroy": 5047,
      "RL": 5048,
      "Ġred": 5049,
      "free": 5050,
      "Arg": 5051,
      "AGE": 5052,
      "ĠInter": 5053,
      "gre": 5054,
      "look": 5055,
      ";;": 5056,
      "dev": 5057,
      "ĠHigh": 5058,
      "xx": 5059,
      "Ġpassed": 5060,
      "ĊĠĠĠĠĠĠĠĠĠĠĠĠĠĠ": 5061,
      "ournal": 5062,
      "profile": 5063,
      "Ġsystems": 5064,
      "Ġ64": 5065,
      "NS": 5066,
      "~~": 5067,
      "Ġdiscus": 5068,
      "Sign": 5069,
      "Ġbed": 5070,
      "Ġsat": 5071,
      "Ġitself": 5072,
      "ament": 5073,
      "semb": 5074,
      "Ġ26": 5075,
      "va": 5076,
      "des": 5077,
      "mic": 5078,
      "Body": 5079,
      "Util": 5080,
      "ij": 5081,
      "ĠOff": 5082,
      "olid": 5083,
      "bc": 5084,
      "support": 5085,
      "ming": 5086,
      "system": 5087,
      "':'": 5088,
      "came": 5089,
      "Ð°Ð": 5090,
      "atal": 5091,
      "ooks": 5092,
      "(__": 5093,
      "Hash": 5094,
      "BB": 5095,
      "Ġlayer": 5096,
      "Ġlogging": 5097,
      "webkit": 5098,
      "lied": 5099,
      "HJ": 5100,
      "oring": 5101,
      "ĠCounty": 5102,
      "Ã¡": 5103,
      "Ġgoal": 5104,
      "\")),": 5105,
      "matrix": 5106,
      "internal": 5107,
      "Ġtmp": 5108,
      "Sche": 5109,
      "/***/": 5110,
      "ĠAmerica": 5111,
      "Ġstatic": 5112,
      "Descript": 5113,
      "Ġmass": 5114,
      "flags": 5115,
      "Ġbeautiful": 5116,
      "ĠAny": 5117,
      "ĠDon": 5118,
      "Ġresources": 5119,
      "istor": 5120,
      "irth": 5121,
      "=[];": 5122,
      "Location": 5123,
      "$.": 5124,
      "Ġappear": 5125,
      "metr": 5126,
      "Command": 5127,
      "Pe": 5128,
      "cel": 5129,
      "Ġfrequ": 5130,
      "aries": 5131,
      "Ġparameter": 5132,
      "ĠRed": 5133,
      "Ġkids": 5134,
      "Rem": 5135,
      "Entry": 5136,
      "čĊĠ": 5137,
      "SET": 5138,
      "Ass": 5139,
      "Ġaccom": 5140,
      "Ġwritten": 5141,
      "Server": 5142,
      "Ġdesigned": 5143,
      "ĠEd": 5144,
      "enced": 5145,
      "Title": 5146,
      "operation": 5147,
      "contains": 5148,
      "product": 5149,
      "Ġir": 5150,
      "addr": 5151,
      "EST": 5152,
      "uary": 5153,
      "Ġmethods": 5154,
      "staticClass": 5155,
      "]).": 5156,
      "Ġ}\\": 5157,
      "collect": 5158,
      "pool": 5159,
      "Ġ>>>": 5160,
      "Ġhref": 5161,
      "lambda": 5162,
      "Ġaud": 5163,
      "Ġopportunity": 5164,
      "Ġtreatment": 5165,
      "Ġbuilt": 5166,
      "comput": 5167,
      "400": 5168,
      "hs": 5169,
      "tmp": 5170,
      "role": 5171,
      "Ġlatest": 5172,
      "Ġknowledge": 5173,
      "}/": 5174,
      "Ġdeliver": 5175,
      "help": 5176,
      "aven": 5177,
      "translate": 5178,
      "transition": 5179,
      "Ġexports": 5180,
      "FL": 5181,
      "SC": 5182,
      "Storage": 5183,
      "Ġaxis": 5184,
      "Ġremember": 5185,
      "\"},{": 5186,
      "dc": 5187,
      "Search": 5188,
      "xs": 5189,
      "Ġarch": 5190,
      "uni": 5191,
      "toggle": 5192,
      "Ġanswer": 5193,
      "urable": 5194,
      "band": 5195,
      "Ġsense": 5196,
      "mi": 5197,
      "short": 5198,
      "Ġwrong": 5199,
      "ington": 5200,
      "Ġnecessary": 5201,
      "ERR": 5202,
      "appendChild": 5203,
      "ulated": 5204,
      "EE": 5205,
      "Ġveh": 5206,
      "185": 5207,
      "Ġnice": 5208,
      "Rect": 5209,
      "parentNode": 5210,
      "iders": 5211,
      "dy": 5212,
      "MT": 5213,
      "tocol": 5214,
      "127": 5215,
      "objects": 5216,
      "Ġregard": 5217,
      "dot": 5218,
      "Ġaffect": 5219,
      "riday": 5220,
      "ĠTime": 5221,
      "ĠKey": 5222,
      "mount": 5223,
      "ees": 5224,
      "API": 5225,
      "Ġterm": 5226,
      "temp": 5227,
      "Ġwriter": 5228,
      "999": 5229,
      "erm": 5230,
      "ZE": 5231,
      "Ġskin": 5232,
      "endar": 5233,
      "Ġ27": 5234,
      "Ġchoice": 5235,
      "Ġill": 5236,
      "Ġbytes": 5237,
      "æĸ": 5238,
      "wd": 5239,
      "ĠRob": 5240,
      "reet": 5241,
      "Ġanyone": 5242,
      "Ġfeed": 5243,
      "Full": 5244,
      "]?": 5245,
      "parameters": 5246,
      "PC": 5247,
      "IO": 5248,
      "dates": 5249,
      "IST": 5250,
      "Ġ{};": 5251,
      "attributes": 5252,
      "sys": 5253,
      "Ġworth": 5254,
      "more": 5255,
      "(`": 5256,
      "Ġdrop": 5257,
      "Ġdecision": 5258,
      "Ġleaders": 5259,
      "lections": 5260,
      "validate": 5261,
      "google": 5262,
      "Sw": 5263,
      "Ġtown": 5264,
      "Lj": 5265,
      "Ġthroughout": 5266,
      "Ġgrowth": 5267,
      "ado": 5268,
      "ĠSk": 5269,
      "za": 5270,
      "Ġcustomer": 5271,
      "ircle": 5272,
      "dt": 5273,
      "Ġapproach": 5274,
      "120": 5275,
      "posit": 5276,
      "yg": 5277,
      "Post": 5278,
      "Ġ'.": 5279,
      "ABLE": 5280,
      "Ġscope": 5281,
      "Ġproperties": 5282,
      "iam": 5283,
      "Ġ255": 5284,
      "Init": 5285,
      "aby": 5286,
      "Ġsy": 5287,
      "Ġmanufact": 5288,
      "ĠMarch": 5289,
      "ĠDay": 5290,
      "istics": 5291,
      "ja": 5292,
      "mock": 5293,
      "ĠSw": 5294,
      "================================": 5295,
      "cos": 5296,
      "'},": 5297,
      "ague": 5298,
      "ODO": 5299,
      "ĠArt": 5300,
      "bg": 5301,
      "Ġlives": 5302,
      "Ġproduction": 5303,
      "Ġcomfort": 5304,
      "Ġreplace": 5305,
      "Aut": 5306,
      "ĠHar": 5307,
      "Ġallowed": 5308,
      "OK": 5309,
      "Ġsaw": 5310,
      ",\\": 5311,
      "rust": 5312,
      "è¯": 5313,
      "Ġcas": 5314,
      "Ġenum": 5315,
      "udget": 5316,
      "$/": 5317,
      "visible": 5318,
      "ĠOb": 5319,
      "ibBuilder": 5320,
      "Ġlost": 5321,
      "Ġenter": 5322,
      "mitted": 5323,
      "Ġsales": 5324,
      "video": 5325,
      "Can": 5326,
      "Values": 5327,
      "(\\": 5328,
      "Ġaverage": 5329,
      "ĊĊĠĠĠĠĠĠĠĠĠĠĠĠĠĠĠĠĠĠĠ": 5330,
      "ĠIS": 5331,
      "features": 5332,
      "columns": 5333,
      "Ġbooks": 5334,
      "ĠMore": 5335,
      "erman": 5336,
      "Parent": 5337,
      "Bar": 5338,
      "Ġreach": 5339,
      "Ġthemselves": 5340,
      "rew": 5341,
      "irit": 5342,
      "ham": 5343,
      "Ġhappy": 5344,
      "sq": 5345,
      "modal": 5346,
      "aul": 5347,
      "Ġallows": 5348,
      "Ġ2018": 5349,
      "addEventListener": 5350,
      "Expression": 5351,
      "ica": 5352,
      "Ġ2010": 5353,
      "={};": 5354,
      "Ġbuffer": 5355,
      "ĠPresident": 5356,
      "Order": 5357,
      "acters": 5358,
      "ris": 5359,
      "ĠWork": 5360,
      "Sp": 5361,
      "fi": 5362,
      "missions": 5363,
      "Ġsn": 5364,
      "Ġmargin": 5365,
      "hold": 5366,
      "alle": 5367,
      "Ġimmediate": 5368,
      "ĠCent": 5369,
      "Cache": 5370,
      "BE": 5371,
      "ĠSub": 5372,
      "Ġviol": 5373,
      "Ġlevels": 5374,
      "pany": 5375,
      "_(": 5376,
      "ĠDav": 5377,
      "ctuation": 5378,
      "bd": 5379,
      "Ġtouch": 5380,
      "AND": 5381,
      "Ġexplo": 5382,
      "']['": 5383,
      "inger": 5384,
      "Ġrecently": 5385,
      "Ġ''": 5386,
      "Ġsec": 5387,
      "aint": 5388,
      "edia": 5389,
      "enge": 5390,
      "atives": 5391,
      "00000": 5392,
      "sent": 5393,
      "Mark": 5394,
      "TYPE": 5395,
      "ĠInc": 5396,
      "network": 5397,
      "Ġthread": 5398,
      "Ġnational": 5399,
      "attle": 5400,
      "Ġnumpy": 5401,
      "ĠAg": 5402,
      "ancy": 5403,
      "Ġpractice": 5404,
      "BU": 5405,
      "{'": 5406,
      "PT": 5407,
      "Ġmid": 5408,
      "cli": 5409,
      "KEY": 5410,
      "âĤ": 5411,
      "Ġroad": 5412,
      "Ġfmt": 5413,
      "opacity": 5414,
      "hi": 5415,
      "Ġcredit": 5416,
      "ĠMr": 5417,
      "Template": 5418,
      "gba": 5419,
      "ĠBro": 5420,
      "Ġexisting": 5421,
      "ĠJune": 5422,
      "ĠHouse": 5423,
      "ening": 5424,
      "Dep": 5425,
      "Cal": 5426,
      "111": 5427,
      "VAL": 5428,
      "126": 5429,
      "ART": 5430,
      "Ġplaying": 5431,
      "Ġmedical": 5432,
      "vc": 5433,
      "ociety": 5434,
      "ACT": 5435,
      "uri": 5436,
      "Ġ;": 5437,
      "Return": 5438,
      "Ġavoid": 5439,
      "ĠCour": 5440,
      "Ġ2017": 5441,
      "hover": 5442,
      "FO": 5443,
      "spl": 5444,
      "Ġcele": 5445,
      "rames": 5446,
      "Ġstarting": 5447,
      "Ġfailed": 5448,
      "Port": 5449,
      "ĠmibBuilder": 5450,
      "QL": 5451,
      "Ġattention": 5452,
      "pair": 5453,
      "handler": 5454,
      "ĠFeb": 5455,
      "Current": 5456,
      "tems": 5457,
      "Ġstat": 5458,
      "enumerable": 5459,
      "Te": 5460,
      "___": 5461,
      "'d": 5462,
      "Ġsell": 5463,
      "SA": 5464,
      "olution": 5465,
      "ederal": 5466,
      "Ġstudent": 5467,
      "ipment": 5468,
      "Enc": 5469,
      "6666": 5470,
      "Ġmemory": 5471,
      "Ġdrive": 5472,
      "ĠHealth": 5473,
      "Last": 5474,
      "Ġwall": 5475,
      "Ġassociated": 5476,
      "Ġmorning": 5477,
      "Ġcontains": 5478,
      "Ġbottom": 5479,
      "Ġgoes": 5480,
      "Task": 5481,
      "aved": 5482,
      "Iter": 5483,
      "Ġformer": 5484,
      "Ġpositive": 5485,
      "Description": 5486,
      "Ġproper": 5487,
      "Ġstates": 5488,
      "FD": 5489,
      "Ġtemp": 5490,
      "\")},": 5491,
      "ĠApril": 5492,
      "Ġdirectly": 5493,
      "GB": 5494,
      "vention": 5495,
      "__.": 5496,
      "Ġquickly": 5497,
      "Ġstock": 5498,
      "Ġscore": 5499,
      "vant": 5500,
      "Ġtemplate": 5501,
      "âĢ¢": 5502,
      "Ġdatabase": 5503,
      "Ġli": 5504,
      "csv": 5505,
      "Ġparents": 5506,
      "ĠRead": 5507,
      "Ġmeeting": 5508,
      "Spec": 5509,
      "Ind": 5510,
      "Ġability": 5511,
      "FR": 5512,
      "ography": 5513,
      "Ġstorage": 5514,
      "ĠEvent": 5515,
      "tw": 5516,
      "Ġlock": 5517,
      "Ġstack": 5518,
      "ĠCON": 5519,
      "Ġsuff": 5520,
      "Work": 5521,
      "ĠBox": 5522,
      "125": 5523,
      "System": 5524,
      "Del": 5525,
      "Ġneigh": 5526,
      "skip": 5527,
      "category": 5528,
      "TC": 5529,
      "Ġ2014": 5530,
      "nb": 5531,
      "Ġmeta": 5532,
      "arrow": 5533,
      "Ġattr": 5534,
      "Layer": 5535,
      "Ġ>>": 5536,
      "Ġaff": 5537,
      "ynamic": 5538,
      "ragment": 5539,
      "Ġ($": 5540,
      "(*": 5541,
      "Ġcapt": 5542,
      "'):": 5543,
      "ĠFin": 5544,
      "widget": 5545,
      "DEF": 5546,
      "Ġworked": 5547,
      "Descriptor": 5548,
      "ĊĊĉĉ": 5549,
      "REE": 5550,
      "ho": 5551,
      "redu": 5552,
      "chart": 5553,
      "Ġchanged": 5554,
      ")\",": 5555,
      "Ġgets": 5556,
      "Ġple": 5557,
      "ĠPlease": 5558,
      "layers": 5559,
      "Ġactivities": 5560,
      "tember": 5561,
      "Ġassign": 5562,
      "ĠService": 5563,
      "Ġbank": 5564,
      "Ġkeys": 5565,
      "ĠHere": 5566,
      "ĠMem": 5567,
      "ĠFe": 5568,
      "ĠWeb": 5569,
      "usiness": 5570,
      "Texts": 5571,
      "Ġseek": 5572,
      "Ġspeed": 5573,
      "ĠUse": 5574,
      "Ġexecut": 5575,
      "Ġsun": 5576,
      "):(": 5577,
      "Ġforce": 5578,
      "Ġrule": 5579,
      "Edit": 5580,
      "Tool": 5581,
      "greg": 5582,
      "Ġutil": 5583,
      "105": 5584,
      "Ġintrodu": 5585,
      "Ġprojects": 5586,
      "Ġclients": 5587,
      "æķ": 5588,
      "()))": 5589,
      "ĊĠĠĠĠĠĠĠĠĠĠĠĠĠĠĠĠĠĠĠĠ": 5590,
      "Dom": 5591,
      "Ġexpression": 5592,
      "Hel": 5593,
      "Que": 5594,
      "ober": 5595,
      "Ġtechn": 5596,
      "zh": 5597,
      "Ġfinally": 5598,
      "ĠCre": 5599,
      "Are": 5600,
      "ran": 5601,
      "]||": 5602,
      "Ġwasn": 5603,
      "clo": 5604,
      "rime": 5605,
      "Ġpatients": 5606,
      "Ġ31": 5607,
      "aturday": 5608,
      "Ġapi": 5609,
      "Ġprograms": 5610,
      "Ġconvert": 5611,
      "Ġ2016": 5612,
      "mac": 5613,
      "Ġicon": 5614,
      "Our": 5615,
      "ropri": 5616,
      "errors": 5617,
      "Ġfine": 5618,
      "chain": 5619,
      "Ġ29": 5620,
      "Ġbits": 5621,
      "Ġreference": 5622,
      "uses": 5623,
      "GR": 5624,
      "ATA": 5625,
      "ea": 5626,
      "Active": 5627,
      "Settings": 5628,
      "rive": 5629,
      "napshot": 5630,
      "ordinates": 5631,
      "foo": 5632,
      "Ġoptim": 5633,
      "Ġrecommend": 5634,
      "stroke": 5635,
      "---": 5636,
      "Ġmyself": 5637,
      "Ġlegal": 5638,
      "Ġwoman": 5639,
      "ĠAPI": 5640,
      "sive": 5641,
      "Rule": 5642,
      "Ġ\"<": 5643,
      "Ġskills": 5644,
      "Ġswitch": 5645,
      "Ġchance": 5646,
      "Next": 5647,
      "ĠWhile": 5648,
      "Ġsal": 5649,
      "Ġdise": 5650,
      "eta": 5651,
      "('\\": 5652,
      "uel": 5653,
      "Ġcareer": 5654,
      "stats": 5655,
      "structure": 5656,
      "QT": 5657,
      "Ġargument": 5658,
      "Ġshall": 5659,
      "Ġserial": 5660,
      "desc": 5661,
      "Ġlooks": 5662,
      "UI": 5663,
      "ji": 5664,
      "depth": 5665,
      "Ġjud": 5666,
      "Ġinj": 5667,
      "ĠGoogle": 5668,
      "ĠFree": 5669,
      "Ġedge": 5670,
      "loadTexts": 5671,
      "Sk": 5672,
      "Ġdra": 5673,
      "bose": 5674,
      "Sim": 5675,
      "ĠSep": 5676,
      "ĠAND": 5677,
      "Ġones": 5678,
      "views": 5679,
      "Ġhair": 5680,
      "UE": 5681,
      "ferred": 5682,
      "Ġoptional": 5683,
      "getElementById": 5684,
      "Ġtypeof": 5685,
      "Ġ'<": 5686,
      "ALL": 5687,
      "pressed": 5688,
      "peat": 5689,
      "NaN": 5690,
      "wait": 5691,
      "aled": 5692,
      "Ġbegan": 5693,
      "Ġprogress": 5694,
      "opts": 5695,
      "effect": 5696,
      "dr": 5697,
      "seq": 5698,
      "ĠAN": 5699,
      "execute": 5700,
      "Ġstructure": 5701,
      "ban": 5702,
      "Red": 5703,
      "FFFF": 5704,
      "ught": 5705,
      "Ġleading": 5706,
      "\"])": 5707,
      "AW": 5708,
      "),\"": 5709,
      "ari": 5710,
      "invalid": 5711,
      "Ġflex": 5712,
      "public": 5713,
      "username": 5714,
      "<&": 5715,
      "Ġimm": 5716,
      "agn": 5717,
      "aches": 5718,
      "urrency": 5719,
      "bum": 5720,
      "vey": 5721,
      "azy": 5722,
      "Ġcert": 5723,
      "Ġdataset": 5724,
      "Ġeasily": 5725,
      "den": 5726,
      "querySelector": 5727,
      "ĠJSON": 5728,
      "Ġgenerate": 5729,
      "selection": 5730,
      "Ġbehav": 5731,
      "ĠSan": 5732,
      "Ġcourt": 5733,
      "Ġmulti": 5734,
      "114": 5735,
      "prevent": 5736,
      "ĠNumber": 5737,
      "ialEq": 5738,
      "ÐµÐ": 5739,
      ":#": 5740,
      "Ġ\"-": 5741,
      "phone": 5742,
      "DC": 5743,
      "ĠĠĠĠĠĠĠĠĠĠ": 5744,
      "Properties": 5745,
      "Ġsil": 5746,
      "ĊĊĊĠĠĠ": 5747,
      "allet": 5748,
      "Month": 5749,
      "Ġfresh": 5750,
      "Ġchalleng": 5751,
      "wood": 5752,
      "Ġsaf": 5753,
      "chan": 5754,
      "ĠJuly": 5755,
      "Found": 5756,
      "limit": 5757,
      "ĠTech": 5758,
      "DR": 5759,
      "ITY": 5760,
      "Ġpunctuation": 5761,
      "drag": 5762,
      "ales": 5763,
      "ä½": 5764,
      "nodeType": 5765,
      "Ġsummer": 5766,
      "ĠLo": 5767,
      "Ġinsp": 5768,
      "ospital": 5769,
      "Ġmention": 5770,
      "Ġpool": 5771,
      "inding": 5772,
      "ĠDist": 5773,
      "oday": 5774,
      "Ġ$.": 5775,
      "ĠStud": 5776,
      "Ġpiece": 5777,
      "Year": 5778,
      "haps": 5779,
      "trim": 5780,
      "lation": 5781,
      "Bu": 5782,
      "Ġorigin": 5783,
      "108": 5784,
      "Ġpolitical": 5785,
      "XT": 5786,
      "izont": 5787,
      "unt": 5788,
      "ao": 5789,
      "ounded": 5790,
      "Ġmovie": 5791,
      "Ġinvolved": 5792,
      "Show": 5793,
      "Go": 5794,
      "Ġbecame": 5795,
      "vd": 5796,
      "boolean": 5797,
      "ĠAssoci": 5798,
      "unday": 5799,
      "Ġenumer": 5800,
      "Ġball": 5801,
      "strip": 5802,
      "Ġcomputer": 5803,
      "Before": 5804,
      "ĠThen": 5805,
      "bas": 5806,
      "alpha": 5807,
      "Ġ2015": 5808,
      "heel": 5809,
      "Ġtele": 5810,
      "110": 5811,
      "hex": 5812,
      "Ġstra": 5813,
      "iring": 5814,
      "itution": 5815,
      "oms": 5816,
      "gor": 5817,
      "Ġplot": 5818,
      "(()": 5819,
      "Ġdrug": 5820,
      "Ġsleep": 5821,
      "ĠMich": 5822,
      "Ġabsol": 5823,
      "Ġserious": 5824,
      "ctionary": 5825,
      "ĠBlack": 5826,
      "warn": 5827,
      "Ñĥ": 5828,
      "Ġcountries": 5829,
      "inputs": 5830,
      "Ġalign": 5831,
      "ĠWar": 5832,
      "Num": 5833,
      "Ig": 5834,
      "ĠFace": 5835,
      "wt": 5836,
      "ĠEl": 5837,
      "Po": 5838,
      "ĠDirect": 5839,
      "ĠNOT": 5840,
      "Items": 5841,
      "edge": 5842,
      "ĠTH": 5843,
      "Ġsus": 5844,
      "see": 5845,
      "Ġ\"\"": 5846,
      "Ġcross": 5847,
      "Ġheaders": 5848,
      "eners": 5849,
      "aria": 5850,
      "Ġspr": 5851,
      "ovember": 5852,
      "vertical": 5853,
      "åĮ": 5854,
      "Ġtrust": 5855,
      "ECT": 5856,
      "wrapper": 5857,
      "pending": 5858,
      "Parse": 5859,
      "domain": 5860,
      "ĠPat": 5861,
      "Ġnumbers": 5862,
      "record": 5863,
      "ĊĠĠĠĠĠĠĠĠĠĠ": 5864,
      "setAttribute": 5865,
      "fail": 5866,
      "Ġrelative": 5867,
      "Ġmount": 5868,
      "ĠAtt": 5869,
      "Ġpark": 5870,
      "Ġstage": 5871,
      "rought": 5872,
      "Ġguide": 5873,
      "but": 5874,
      "Ġ80": 5875,
      "comes": 5876,
      "ript": 5877,
      "Ġcampaign": 5878,
      "čĊčĊĠĠĠĠĠĠĠ": 5879,
      "Ġdecided": 5880,
      "Ġhour": 5881,
      "ĠBrit": 5882,
      "Ġrules": 5883,
      "avy": 5884,
      "Ġobjects": 5885,
      "ango": 5886,
      "ounce": 5887,
      "iteral": 5888,
      "pattern": 5889,
      "Ġeffective": 5890,
      "Ġpadding": 5891,
      "real": 5892,
      "inue": 5893,
      "bf": 5894,
      "ĠST": 5895,
      "Ġdirection": 5896,
      "Ġconsum": 5897,
      "ouncil": 5898,
      "ifest": 5899,
      "Prov": 5900,
      "\":{},\"": 5901,
      "ipping": 5902,
      "iform": 5903,
      "covery": 5904,
      "Qt": 5905,
      "Reader": 5906,
      "Ġinternational": 5907,
      "Ġparam": 5908,
      "Ġamaz": 5909,
      "Ġrot": 5910,
      "Ġcosts": 5911,
      "Ġabsolute": 5912,
      "cursor": 5913,
      "fg": 5914,
      "ĠConst": 5915,
      "Ġhom": 5916,
      "ĊĠĠĠĠĠĠĠĠĠĠĠĠĠĠĠĠĠĠĠĠĠĠĠĠĠĠĠĠĠĠĠĠĠĠĠĠĠĠĠĠĠĠĠ": 5917,
      "ida": 5918,
      "floor": 5919,
      "Ġscript": 5920,
      "Effect": 5921,
      "removeClass": 5922,
      "Ġprop": 5923,
      "Ġsolution": 5924,
      "Ġreported": 5925,
      "Ġsetting": 5926,
      "Ġ'-": 5927,
      "Ġsymbol": 5928,
      "Ġhands": 5929,
      "OV": 5930,
      "Ġfilename": 5931,
      "Events": 5932,
      "ĠEast": 5933,
      "NT": 5934,
      "SV": 5935,
      "Ġfelt": 5936,
      "Ġgreen": 5937,
      "Ø§": 5938,
      "Ġcharg": 5939,
      "Ġfight": 5940,
      "ously": 5941,
      "Ac": 5942,
      "ico": 5943,
      "Ġuses": 5944,
      "Ġanalysis": 5945,
      "sb": 5946,
      "mercial": 5947,
      "That": 5948,
      "(\"/": 5949,
      "Vy": 5950,
      "het": 5951,
      "xD": 5952,
      "275": 5953,
      "Ġinner": 5954,
      "Ġ2009": 5955,
      "ĠĠĠĠĠĠĠĠĠĠĠĠĠ": 5956,
      "Ġslow": 5957,
      "iling": 5958,
      "104": 5959,
      "Ġerrors": 5960,
      "Ġsupported": 5961,
      "GE": 5962,
      ";++": 5963,
      "ĠSystem": 5964,
      "Account": 5965,
      "Mult": 5966,
      "cls": 5967,
      "ĠChar": 5968,
      "Ġcomplex": 5969,
      "Av": 5970,
      "(?:": 5971,
      "orrow": 5972,
      "Ġdark": 5973,
      "Ġdescrib": 5974,
      "ĠPost": 5975,
      "ĠTV": 5976,
      "ĠGroup": 5977,
      "250": 5978,
      "coll": 5979,
      "Ġbyte": 5980,
      "enabled": 5981,
      "Ġfavorite": 5982,
      "800": 5983,
      "cancel": 5984,
      "spect": 5985,
      "ĠTODO": 5986,
      "rics": 5987,
      "Ġcra": 5988,
      "ctors": 5989,
      "connection": 5990,
      "loaded": 5991,
      "Api": 5992,
      "original": 5993,
      "jection": 5994,
      "zy": 5995,
      "ĠHT": 5996,
      "delta": 5997,
      "áµ": 5998,
      "Ok": 5999,
      "Ġtrade": 6000,
      "])}": 6001,
      "Display": 6002,
      "iny": 6003,
      "Ġhear": 6004,
      "Ġden": 6005,
      "ĠCustom": 6006,
      "ĠStr": 6007,
      "Ġcool": 6008,
      "Ġmarketing": 6009,
      "thern": 6010,
      "Coe": 6011,
      "rial": 6012,
      "Ġpd": 6013,
      "ĠAm": 6014,
      "Ġpers": 6015,
      "ĠIsl": 6016,
      "activ": 6017,
      "animation": 6018,
      "grad": 6019,
      "Ġspeak": 6020,
      "¿½": 6021,
      "sequ": 6022,
      "Ġgives": 6023,
      "hest": 6024,
      "styles": 6025,
      "\"},\"": 6026,
      "ĠOf": 6027,
      "ondon": 6028,
      "rd": 6029,
      "LF": 6030,
      "isode": 6031,
      "Rad": 6032,
      "Ġpublished": 6033,
      "Ġorganization": 6034,
      "ĠAfric": 6035,
      "Mouse": 6036,
      "pointer": 6037,
      "Ġsho": 6038,
      "ares": 6039,
      "radius": 6040,
      "Ġdev": 6041,
      "izontal": 6042,
      "Ġinc": 6043,
      "Ġund": 6044,
      "Ġ197": 6045,
      "ĠAustral": 6046,
      "Ġnet": 6047,
      "Ġauth": 6048,
      "SD": 6049,
      "urt": 6050,
      "EF": 6051,
      "ĠFirst": 6052,
      "zero": 6053,
      "Ġfinish": 6054,
      "Clone": 6055,
      "Ġten": 6056,
      "Ġdebug": 6057,
      "vt": 6058,
      "otal": 6059,
      "ĠEnglish": 6060,
      "ĠUser": 6061,
      "Ġeyes": 6062,
      "loading": 6063,
      "iler": 6064,
      "Ġideas": 6065,
      "lict": 6066,
      "aling": 6067,
      "Ġenv": 6068,
      "Qg": 6069,
      "Ċĉĉĉĉĉĉĉ": 6070,
      "Ġblood": 6071,
      "3333": 6072,
      "Ġhuge": 6073,
      "Ġ'#": 6074,
      "Ġencou": 6075,
      "ampl": 6076,
      "Ġvict": 6077,
      "ecause": 6078,
      "Ġdemand": 6079,
      "Ġdead": 6080,
      "Def": 6081,
      "cks": 6082,
      "Ġactivity": 6083,
      "Root": 6084,
      "Ġsites": 6085,
      "ĠMus": 6086,
      "sync": 6087,
      "Ġdoor": 6088,
      "ĠSto": 6089,
      "117": 6090,
      "\",(": 6091,
      "Ġgave": 6092,
      "llo": 6093,
      "\"></": 6094,
      "$(": 6095,
      "132": 6096,
      "Ġconsidered": 6097,
      "sn": 6098,
      "Ġyield": 6099,
      "entials": 6100,
      "GF": 6101,
      "angular": 6102,
      "ĠAugust": 6103,
      "Ġdepart": 6104,
      "Ġ90": 6105,
      "entity": 6106,
      "fire": 6107,
      "Ġbenefits": 6108,
      "fast": 6109,
      "itute": 6110,
      "Ġconsist": 6111,
      "Ġcreating": 6112,
      "Ġqual": 6113,
      "complete": 6114,
      "æĹ": 6115,
      "Ġlabels": 6116,
      "Grid": 6117,
      "Ġcharacters": 6118,
      "calc": 6119,
      "Boolean": 6120,
      "lg": 6121,
      "Ġpassword": 6122,
      "region": 6123,
      "Ġloop": 6124,
      "Ver": 6125,
      "ĠValueError": 6126,
      "Detail": 6127,
      "Ġjoin": 6128,
      "Ġemer": 6129,
      "Ġtests": 6130,
      "]['": 6131,
      "ocused": 6132,
      "iration": 6133,
      "Ġsuccessful": 6134,
      "150": 6135,
      "ĠComm": 6136,
      "Ġtools": 6137,
      "deserialize": 6138,
      "']]],": 6139,
      "Promise": 6140,
      "Ġ{:": 6141,
      "Ġplans": 6142,
      "reed": 6143,
      "gorith": 6144,
      "Direct": 6145,
      "ĠMod": 6146,
      "Ġdiscover": 6147,
      "cember": 6148,
      "ceed": 6149,
      ");\\": 6150,
      "Ġvariety": 6151,
      "ĠĊĠĠĠĠĠĠĠ": 6152,
      "Ġcandid": 6153,
      "math": 6154,
      "Nodes": 6155,
      "ĠFriday": 6156,
      "Ġmix": 6157,
      "153": 6158,
      "Ġreader": 6159,
      "Ġvot": 6160,
      "Ġauto": 6161,
      "Ġled": 6162,
      "(\"_": 6163,
      "bounds": 6164,
      "ĠTw": 6165,
      "Ġdaily": 6166,
      "Ġpackage": 6167,
      "Ġdro": 6168,
      "Ġstuff": 6169,
      "ĠSch": 6170,
      "Ġdistance": 6171,
      "irtual": 6172,
      ")\\": 6173,
      "ĠDepartment": 6174,
      "ÃŃ": 6175,
      "]):": 6176,
      "Delete": 6177,
      "Ġstreng": 6178,
      "END": 6179,
      "Ġdrink": 6180,
      "Ġcontainer": 6181,
      "river": 6182,
      "........": 6183,
      "Ġsou": 6184,
      "Ġphysical": 6185,
      "chen": 6186,
      "Ġbuf": 6187,
      "rule": 6188,
      "ï¿½": 6189,
      "Ġcache": 6190,
      "Ġcontaining": 6191,
      "FC": 6192,
      "æĪ": 6193,
      "icrosoft": 6194,
      "Ġclasses": 6195,
      "dispatch": 6196,
      "Ġfair": 6197,
      "cons": 6198,
      "Ġfloor": 6199,
      "ius": 6200,
      "Ġlocated": 6201,
      "Ġ\"#": 6202,
      "attribute": 6203,
      "enty": 6204,
      "Ġsaying": 6205,
      "storage": 6206,
      "Ġstatement": 6207,
      "pipe": 6208,
      "Custom": 6209,
      "Ġnn": 6210,
      "cut": 6211,
      "NE": 6212,
      "ĠException": 6213,
      "ttp": 6214,
      "ya": 6215,
      "INE": 6216,
      "Ġpolice": 6217,
      "ODE": 6218,
      "Ro": 6219,
      "Ġmother": 6220,
      "Ġplayed": 6221,
      "Ġmodern": 6222,
      "Ġgrid": 6223,
      "Ġdating": 6224,
      "Ġcompletely": 6225,
      "manager": 6226,
      "Ġsafety": 6227,
      "Ġdefined": 6228,
      "Ġsens": 6229,
      "Ġsolid": 6230,
      "Ġmobile": 6231,
      "Ġcontain": 6232,
      "Constraint": 6233,
      "001": 6234,
      "ief": 6235,
      "conv": 6236,
      "Ġband": 6237,
      "Ġaws": 6238,
      "Ġdetermin": 6239,
      "Ġpurchase": 6240,
      "ĠOpen": 6241,
      "iterator": 6242,
      "Ġer": 6243,
      "Transform": 6244,
      "Ġdtype": 6245,
      "',['../": 6246,
      "route": 6247,
      "ĠAir": 6248,
      "First": 6249,
      "overn": 6250,
      "/*!": 6251,
      "Coefficient": 6252,
      "æĺ": 6253,
      "she": 6254,
      "Ġdir": 6255,
      "IGHT": 6256,
      "Ġsteps": 6257,
      "bur": 6258,
      "kg": 6259,
      "ĠHer": 6260,
      "501": 6261,
      "QQ": 6262,
      "lu": 6263,
      "Ġkwargs": 6264,
      "enable": 6265,
      "}>": 6266,
      ")-": 6267,
      "Ġrequests": 6268,
      "Ġprec": 6269,
      "Ġowner": 6270,
      "Ġpush": 6271,
      "MP": 6272,
      "exists": 6273,
      "ounced": 6274,
      "exit": 6275,
      "Ġthinking": 6276,
      "Ġmaybe": 6277,
      "iforn": 6278,
      "Ġbound": 6279,
      "private": 6280,
      "ups": 6281,
      "VSOP": 6282,
      "wide": 6283,
      ">;": 6284,
      "Ġhimself": 6285,
      "102": 6286,
      "}}),": 6287,
      "160": 6288,
      "Prototype": 6289,
      "Ġgiving": 6290,
      "Ġnamed": 6291,
      "Ġdigital": 6292,
      "aran": 6293,
      "ville": 6294,
      "usize": 6295,
      "ĠKe": 6296,
      "112": 6297,
      "Ġsometimes": 6298,
      "diff": 6299,
      "Ġder": 6300,
      "Ġearn": 6301,
      "perature": 6302,
      "namespace": 6303,
      "Ġproviding": 6304,
      "Ġ2008": 6305,
      "Ġpresident": 6306,
      "Mut": 6307,
      "progress": 6308,
      ":`": 6309,
      "Ġdirectory": 6310,
      "ĠUK": 6311,
      "elcome": 6312,
      "è¿": 6313,
      "ilies": 6314,
      "DA": 6315,
      "embed": 6316,
      "ira": 6317,
      "returns": 6318,
      "Ġprimary": 6319,
      "rename": 6320,
      "ĠVar": 6321,
      "Ġinteresting": 6322,
      "GG": 6323,
      "volution": 6324,
      "Ġattribute": 6325,
      "izations": 6326,
      "riving": 6327,
      "ME": 6328,
      "Ġsituation": 6329,
      "Ġplaces": 6330,
      "ĠDec": 6331,
      "Ġheard": 6332,
      "avsop": 6333,
      "Any": 6334,
      "****************************************************************": 6335,
      "vb": 6336,
      "Ġrequires": 6337,
      "RC": 6338,
      "Ġord": 6339,
      "ĠJanuary": 6340,
      "Ġcounter": 6341,
      "Ġdatetime": 6342,
      "[\\": 6343,
      "idents": 6344,
      "Ġcarry": 6345,
      "yy": 6346,
      "xff": 6347,
      "Ġaavsop": 6348,
      "åŃ": 6349,
      "Ġknew": 6350,
      "Ġsold": 6351,
      "Fn": 6352,
      "Local": 6353,
      "created": 6354,
      "Queue": 6355,
      "ulations": 6356,
      "delay": 6357,
      "ula": 6358,
      "isions": 6359,
      "Ġgold": 6360,
      "Ġplant": 6361,
      "hor": 6362,
      "åĬ": 6363,
      "canvas": 6364,
      "Ġet": 6365,
      "Ġdifference": 6366,
      "Ġmissing": 6367,
      "Ġconduct": 6368,
      "asm": 6369,
      "Ġcamera": 6370,
      "Ġequal": 6371,
      "Ġmeasure": 6372,
      "itable": 6373,
      "Store": 6374,
      "ugins": 6375,
      "jni": 6376,
      "Ġsplit": 6377,
      "Pack": 6378,
      "Ġbroad": 6379,
      "\"><": 6380,
      "Dir": 6381,
      "payload": 6382,
      "owned": 6383,
      "à®": 6384,
      "ãĢĤ": 6385,
      "(())": 6386,
      "Ġsen": 6387,
      "Ġmiddle": 6388,
      "reference": 6389,
      ")],": 6390,
      "shadow": 6391,
      "norm": 6392,
      "arily": 6393,
      "Ġmessages": 6394,
      "Ġ{}\",": 6395,
      "Ġupdated": 6396,
      "cape": 6397,
      "ĠOctober": 6398,
      "Ġmaterials": 6399,
      "Ġselection": 6400,
      "bon": 6401,
      "pid": 6402,
      "ifornia": 6403,
      "Ġaltern": 6404,
      "Ġflag": 6405,
      "ker": 6406,
      "Ġfunctions": 6407,
      "press": 6408,
      "CK": 6409,
      "ĠPromise": 6410,
      "uler": 6411,
      "ĠRem": 6412,
      "Ġexcell": 6413,
      "Ġnature": 6414,
      "itional": 6415,
      "Load": 6416,
      "Ġextreme": 6417,
      "âķ": 6418,
      "tokens": 6419,
      "ota": 6420,
      "Ġinflu": 6421,
      "Ġhash": 6422,
      "Ġconfiguration": 6423,
      "thread": 6424,
      "Inst": 6425,
      "EV": 6426,
      "report": 6427,
      "ĠInternational": 6428,
      "login": 6429,
      "qa": 6430,
      "Ġnotice": 6431,
      "tBQUN": 6432,
      "variant": 6433,
      "NC": 6434,
      "ĠAre": 6435,
      "urity": 6436,
      "600": 6437,
      "Ġson": 6438,
      "illing": 6439,
      "ĠSeptember": 6440,
      "hc": 6441,
      "Channel": 6442,
      "Parameter": 6443,
      "ĠWash": 6444,
      "site": 6445,
      "Ġstri": 6446,
      "eces": 6447,
      "Ġappropri": 6448,
      "Json": 6449,
      "Ġreli": 6450,
      "Ġ1000": 6451,
      "ĠChe": 6452,
      "âĸ«": 6453,
      "olute": 6454,
      "DS": 6455,
      "wi": 6456,
      "datetime": 6457,
      "Ġ500": 6458,
      "RS": 6459,
      "Ġlimited": 6460,
      "disable": 6461,
      "Ġamazing": 6462,
      "foot": 6463,
      "eth": 6464,
      "rage": 6465,
      "grade": 6466,
      "innerHTML": 6467,
      "áµĴ": 6468,
      "Core": 6469,
      "Ġexactly": 6470,
      "termine": 6471,
      "zeros": 6472,
      "Ġfish": 6473,
      "android": 6474,
      "DOM": 6475,
      "yb": 6476,
      "itely": 6477,
      "ĠStreet": 6478,
      "Ġfully": 6479,
      "Ġturned": 6480,
      "Ġactions": 6481,
      "zone": 6482,
      "voke": 6483,
      "Ġproces": 6484,
      "imately": 6485,
      "ara": 6486,
      "ĠWindow": 6487,
      "that": 6488,
      "dm": 6489,
      "itation": 6490,
      "Ġwish": 6491,
      "Vector": 6492,
      "Ġmoving": 6493,
      "Ġ$('#": 6494,
      "preventDefault": 6495,
      "ĠPublic": 6496,
      "LENBQU": 6497,
      "agent": 6498,
      "Ġkit": 6499,
      "003": 6500,
      "Please": 6501,
      "direction": 6502,
      "BL": 6503,
      "Ġotherwise": 6504,
      "ĠHome": 6505,
      "Dict": 6506,
      "ARE": 6507,
      "ĠRun": 6508,
      "ocket": 6509,
      "house": 6510,
      "pin": 6511,
      "Ġreleased": 6512,
      "primary": 6513,
      "Ġbasic": 6514,
      "pad": 6515,
      "]/": 6516,
      "Ġcred": 6517,
      "Ġmeas": 6518,
      "edding": 6519,
      "incip": 6520,
      "Ġbeginning": 6521,
      "'\\": 6522,
      "faces": 6523,
      "Ġidx": 6524,
      "Ġinsurance": 6525,
      "jQuery": 6526,
      "Ġ(_": 6527,
      "Ġhighly": 6528,
      "Ġmachine": 6529,
      "ĠLoc": 6530,
      "]{": 6531,
      "lying": 6532,
      "ĠForm": 6533,
      "ĠSen": 6534,
      "ĠSaturday": 6535,
      "ael": 6536,
      "\\\">": 6537,
      "ĠClass": 6538,
      "Ġessential": 6539,
      "Ġexam": 6540,
      "Ġmatches": 6541,
      "180": 6542,
      "stract": 6543,
      "folder": 6544,
      "()?": 6545,
      "Ġharmon": 6546,
      "?âĢĿ": 6547,
      "IGN": 6548,
      "åį": 6549,
      "rill": 6550,
      "ĊĠĠĠĠĠĠĠĠĠĠĠĠĠĠĠĠĠĠĠĠĠĠĠĠĠĠĠĠĠ": 6551,
      "Ġì": 6552,
      "resize": 6553,
      "Cur": 6554,
      ".\")": 6555,
      "lc": 6556,
      "imin": 6557,
      "Stack": 6558,
      "Ġrace": 6559,
      "Ġhelps": 6560,
      "kets": 6561,
      "iced": 6562,
      "erry": 6563,
      "orge": 6564,
      "Ġbrought": 6565,
      "Ġ2019": 6566,
      "å¸": 6567,
      "sibility": 6568,
      "ilo": 6569,
      "Ġtowards": 6570,
      "sup": 6571,
      "ivil": 6572,
      "Ġstories": 6573,
      "ĠLib": 6574,
      "Ġpair": 6575,
      "AULT": 6576,
      "prec": 6577,
      "abilities": 6578,
      "Policy": 6579,
      "initialize": 6580,
      "ĠLa": 6581,
      "ĠFacebook": 6582,
      "Ġprofile": 6583,
      "Ġpartners": 6584,
      "using": 6585,
      "Selection": 6586,
      "CAA": 6587,
      "PRE": 6588,
      "ruary": 6589,
      "resses": 6590,
      "Ġcmd": 6591,
      "Ġgradu": 6592,
      "Ġreduce": 6593,
      "byte": 6594,
      "Ġrestaur": 6595,
      "home": 6596,
      "Ġconstant": 6597,
      "awn": 6598,
      "Interval": 6599,
      "Ġshared": 6600,
      "ĠGra": 6601,
      "__,": 6602,
      "ĠLondon": 6603,
      "512": 6604,
      "uit": 6605,
      "ipped": 6606,
      "Ġletter": 6607,
      "Attr": 6608,
      "Ġmoved": 6609,
      "lers": 6610,
      "arden": 6611,
      "Required": 6612,
      "ĠSunday": 6613,
      "Ġindividuals": 6614,
      "ros": 6615,
      "ĠPort": 6616,
      "Ġrepl": 6617,
      "})}": 6618,
      "Ġbra": 6619,
      "Ġwhose": 6620,
      "Ġcharge": 6621,
      "POST": 6622,
      "Aw": 6623,
      "fr": 6624,
      "dependent": 6625,
      "Ġlack": 6626,
      "Ġexception": 6627,
      "Ġcomments": 6628,
      "venue": 6629,
      "usion": 6630,
      "Close": 6631,
      "Ġ```": 6632,
      "Ġeffects": 6633,
      "ollow": 6634,
      "ĠClone": 6635,
      "ĠLog": 6636,
      "fetch": 6637,
      "Match": 6638,
      "AX": 6639,
      "Ġgas": 6640,
      "ifying": 6641,
      "stringify": 6642,
      "Empty": 6643,
      "ĠâĢ¦": 6644,
      "Ġaccur": 6645,
      "ĠAut": 6646,
      "Ġtokens": 6647,
      "Pass": 6648,
      "Handle": 6649,
      "loop": 6650,
      "ĠPy": 6651,
      "which": 6652,
      "omen": 6653,
      "(;": 6654,
      "Ġut": 6655,
      "ĠWhy": 6656,
      "Ġpurpose": 6657,
      "Ġpen": 6658,
      "rote": 6659,
      "comment": 6660,
      "ĠCall": 6661,
      "exception": 6662,
      "Ġlooked": 6663,
      "Bytes": 6664,
      "ooth": 6665,
      "Ġskip": 6666,
      "inder": 6667,
      "ursday": 6668,
      "BS": 6669,
      "Ġimag": 6670,
      "Bit": 6671,
      "),(": 6672,
      "OU": 6673,
      "ĠKing": 6674,
      "ilitary": 6675,
      "slide": 6676,
      "Animation": 6677,
      "indices": 6678,
      "prise": 6679,
      "3076": 6680,
      "Ġnodes": 6681,
      "Ġdouble": 6682,
      "NA": 6683,
      "ĠLet": 6684,
      "elem": 6685,
      "Ġhtml": 6686,
      "Ġstar": 6687,
      "Ġblue": 6688,
      "ensity": 6689,
      "109": 6690,
      "ĠBen": 6691,
      "upload": 6692,
      "tensor": 6693,
      "Ġ',": 6694,
      "ERS": 6695,
      "inesses": 6696,
      "istr": 6697,
      "Now": 6698,
      "234": 6699,
      "ĠFile": 6700,
      "Ġfirm": 6701,
      "XC": 6702,
      "Ġeconomic": 6703,
      "neg": 6704,
      "LS": 6705,
      "Ġ\".": 6706,
      "series": 6707,
      "Ġwood": 6708,
      "ĠEvery": 6709,
      "147": 6710,
      "Ġtrip": 6711,
      "users": 6712,
      "plugin": 6713,
      "ology": 6714,
      "rome": 6715,
      "Struct": 6716,
      "oph": 6717,
      "ocr": 6718,
      "ĠNovember": 6719,
      "Ġadvant": 6720,
      "ĠExt": 6721,
      "arger": 6722,
      "xE": 6723,
      "ĊĠĠĠĠĠĠĠĠĠĠĠĠĠĠĠĠĠĠĠĠĠĠĠĠĠĠĠĠĠĠĠĠĠĠĠĠĠĠĠĠĠĠĠĠĠĠĠĠĠĠĠĠĠĠĠĠĠĠĠĠĠĠĠĠ": 6724,
      "Ġ2020": 6725,
      "ĠDem": 6726,
      "URE": 6727,
      "Ġbirth": 6728,
      "alled": 6729,
      "ORM": 6730,
      "Ġdry": 6731,
      "ĠGerman": 6732,
      "Ġgreater": 6733,
      "ARR": 6734,
      "equ": 6735,
      "ĠDel": 6736,
      "uesday": 6737,
      "0001": 6738,
      "unused": 6739,
      "Ġnation": 6740,
      "ario": 6741,
      "rank": 6742,
      "Ġspent": 6743,
      "Script": 6744,
      "Ġguest": 6745,
      "Ġaware": 6746,
      "ntax": 6747,
      "mn": 6748,
      "ĠPartialEq": 6749,
      "Ġmo": 6750,
      "ĠOver": 6751,
      "Ġsym": 6752,
      "Device": 6753,
      "Ġgam": 6754,
      "Gl": 6755,
      "signed": 6756,
      "Process": 6757,
      "Ġemployees": 6758,
      "sig": 6759,
      "Ġdevices": 6760,
      "how": 6761,
      "berg": 6762,
      "Ġwants": 6763,
      "Ġpages": 6764,
      "ĠNews": 6765,
      "}`": 6766,
      "0000000000000000": 6767,
      "Zm": 6768,
      "sur": 6769,
      "Ġequipment": 6770,
      "alert": 6771,
      "diction": 6772,
      "Ġexport": 6773,
      "Ġ$(\"#": 6774,
      "224": 6775,
      "æķ°": 6776,
      "ĠCalifornia": 6777,
      "ĠServices": 6778,
      "Ġwarm": 6779,
      "vs": 6780,
      "Ġpicture": 6781,
      "Ġinterested": 6782,
      "Ġclub": 6783,
      "ç»": 6784,
      "{\"_": 6785,
      "Ġ'./": 6786,
      "Ġconcept": 6787,
      ":/": 6788,
      "dx": 6789,
      "aml": 6790,
      "\",\"$": 6791,
      "touch": 6792,
      "crib": 6793,
      "ĠPath": 6794,
      "ĠDebug": 6795,
      "Ġheat": 6796,
      "Ġseconds": 6797,
      "ĊĠĠĠĠĠĠĠĠĠĠĠĠĠĠĠĠĠĠĠĠĠĠ": 6798,
      "ĠLT": 6799,
      "čĊĉĉĉ": 6800,
      "Ġremain": 6801,
      "ĠChina": 6802,
      "Rel": 6803,
      "Ġ37": 6804,
      "eries": 6805,
      "history": 6806,
      "epoch": 6807,
      "Ġbudget": 6808,
      "Ġ35": 6809,
      "origin": 6810,
      "ago": 6811,
      ")>": 6812,
      "zip": 6813,
      "Ġanim": 6814,
      "ĠAlso": 6815,
      "Ġachieve": 6816,
      "price": 6817,
      "Ġcertainly": 6818,
      "Ġevidence": 6819,
      "Ii": 6820,
      "Ġ45": 6821,
      "eff": 6822,
      "0002": 6823,
      "ednes": 6824,
      "190": 6825,
      "Ġcategory": 6826,
      "Ġ_.": 6827,
      "Ġcollege": 6828,
      "yt": 6829,
      "Ċĉĉĉĉĉĉĉĉ": 6830,
      "Ġ).": 6831,
      "Ġreve": 6832,
      "Ġcast": 6833,
      "Ġphotos": 6834,
      "Ġtried": 6835,
      "blue": 6836,
      "ĠGreen": 6837,
      "Ġfather": 6838,
      "ils": 6839,
      "))),": 6840,
      "setTimeout": 6841,
      "Ġshown": 6842,
      "Ġsurface": 6843,
      "selector": 6844,
      "Ð»": 6845,
      "LW": 6846,
      "porary": 6847,
      "Enter": 6848,
      "uate": 6849,
      "Ġtransport": 6850,
      "ĠLaw": 6851,
      "=[\"": 6852,
      "Ġdemon": 6853,
      "ifications": 6854,
      "jango": 6855,
      "Ġadjust": 6856,
      "Head": 6857,
      "064": 6858,
      "rench": 6859,
      "ĠOper": 6860,
      "Ġcalls": 6861,
      "+=\"": 6862,
      "Ġhistor": 6863,
      "ĠMo": 6864,
      "Ðº": 6865,
      "Ġdepth": 6866,
      "React": 6867,
      "Ġgrowing": 6868,
      "}},{": 6869,
      "hb": 6870,
      "subscribe": 6871,
      "Ġfeeling": 6872,
      "Ġpressure": 6873,
      "},{\"": 6874,
      "road": 6875,
      "Connection": 6876,
      "Ġult": 6877,
      "ims": 6878,
      "Ġmedic": 6879,
      "Ġsubst": 6880,
      "expression": 6881,
      "ĠMake": 6882,
      "Ġadult": 6883,
      "Msg": 6884,
      "192": 6885,
      "yond": 6886,
      "dash": 6887,
      "Ym": 6888,
      "dk": 6889,
      "hl": 6890,
      "Ġreports": 6891,
      "descriptor": 6892,
      "Ġmaster": 6893,
      "Ġrequirements": 6894,
      "classList": 6895,
      "qt": 6896,
      "Ġspend": 6897,
      "obs": 6898,
      "Ġfinished": 6899,
      "[(": 6900,
      "Failed": 6901,
      "ĠHash": 6902,
      "Step": 6903,
      "fx": 6904,
      "Ġ'',": 6905,
      "Ġdeveloped": 6906,
      "Ġbasis": 6907,
      "relative": 6908,
      "well": 6909,
      "ĠDecember": 6910,
      "Ġmaximum": 6911,
      "Ġreject": 6912,
      "Ġprices": 6913,
      "MIB": 6914,
      "collection": 6915,
      "124": 6916,
      "Ġinternal": 6917,
      "Ġeat": 6918,
      "âĢĿ.": 6919,
      "Ġmetadata": 6920,
      "::*": 6921,
      "ĠDavid": 6922,
      "čĊĠĠĠĠĠĠĠĠĠĠĠĠĠĠĠĠĠĠĠĠĠĠĠ": 6923,
      "Ġscene": 6924,
      "ĊĉĠĠĠ": 6925,
      "Ġmenu": 6926,
      "atever": 6927,
      "Ġplanning": 6928,
      "erialize": 6929,
      "}}}": 6930,
      "ĠJap": 6931,
      "Ġsecret": 6932,
      "Pan": 6933,
      "Ġrout": 6934,
      "Ġfeet": 6935,
      "care": 6936,
      "lr": 6937,
      "reci": 6938,
      "ĠPM": 6939,
      "ĠCollege": 6940,
      "******": 6941,
      "ĠName": 6942,
      "raction": 6943,
      "ruit": 6944,
      "Ġthreat": 6945,
      "theme": 6946,
      "Enum": 6947,
      "related": 6948,
      "Graph": 6949,
      "Card": 6950,
      "Ġtour": 6951,
      "istance": 6952,
      "Ġrank": 6953,
      "enum": 6954,
      "AK": 6955,
      "Ġdomain": 6956,
      "ONE": 6957,
      "Matrix": 6958,
      "åĽ": 6959,
      "Ġtic": 6960,
      "PAT": 6961,
      "PH": 6962,
      "Ñı": 6963,
      "Ġinform": 6964,
      "\",\"#": 6965,
      "ĠĠĠĠĠĠĠĠĠĠĠĠĠĠĠĠĠĠĠ": 6966,
      "Ġexerc": 6967,
      "rgb": 6968,
      "Ġimmediately": 6969,
      "ĠJes": 6970,
      "Ġconv": 6971,
      "anned": 6972,
      "uuid": 6973,
      "Sm": 6974,
      "ategories": 6975,
      "ednesday": 6976,
      "-%": 6977,
      "picker": 6978,
      "ĠIndia": 6979,
      "Ġstrategy": 6980,
      "small": 6981,
      "timestamp": 6982,
      "material": 6983,
      "ĠWhite": 6984,
      "channels": 6985,
      "Ġnearly": 6986,
      "master": 6987,
      "uman": 6988,
      "Ġdog": 6989,
      "Ġnor": 6990,
      "Ġhon": 6991,
      "136": 6992,
      "Ġculture": 6993,
      "Ġeye": 6994,
      "Ġinnov": 6995,
      "jpg": 6996,
      "Factory": 6997,
      "ened": 6998,
      "Copy": 6999,
      "rules": 7000,
      "Ġjobs": 7001,
      "ĠĊĠĠĠ": 7002,
      "923076": 7003,
      "ancing": 7004,
      "Ġbeyond": 7005,
      "Ġtuple": 7006,
      "Ġcapital": 7007,
      "Ġnorm": 7008,
      "antic": 7009,
      "Ġteams": 7010,
      "Ġdou": 7011,
      "Ġtraditional": 7012,
      "ĠMost": 7013,
      "Ġmanager": 7014,
      "ĠRE": 7015,
      "Ġgoals": 7016,
      "Ġoperations": 7017,
      "'][": 7018,
      "illa": 7019,
      "Ġcv": 7020,
      "=\\'": 7021,
      "Session": 7022,
      "Ġ[[": 7023,
      "Ġnumer": 7024,
      "STR": 7025,
      "ĠOther": 7026,
      "Ġprops": 7027,
      "Div": 7028,
      "Ġlambda": 7029,
      "Ġapplications": 7030,
      "}',": 7031,
      "omb": 7032,
      "ĠCourt": 7033,
      "While": 7034,
      "Ġdesc": 7035,
      "Ġdisease": 7036,
      ";){": 7037,
      "Ġther": 7038,
      "convert": 7039,
      "ĠEven": 7040,
      "Ġbi": 7041,
      "flag": 7042,
      "SER": 7043,
      "amount": 7044,
      "Ġbur": 7045,
      "CD": 7046,
      "Ġhop": 7047,
      "ald": 7048,
      "dialog": 7049,
      "è®": 7050,
      "rael": 7051,
      "Ġspot": 7052,
      "Ġfix": 7053,
      "Ġmeaning": 7054,
      "Week": 7055,
      "They": 7056,
      "splice": 7057,
      "144": 7058,
      ":\\": 7059,
      "setState": 7060,
      "Ġshot": 7061,
      "produ": 7062,
      "Ġfamilies": 7063,
      "GL": 7064,
      "parseInt": 7065,
      "commit": 7066,
      "merge": 7067,
      "configurable": 7068,
      "Ġhealthy": 7069,
      "ĠWashington": 7070,
      "Ġpaid": 7071,
      "Ġbusinesses": 7072,
      "Ġremoved": 7073,
      "Ġstraight": 7074,
      "Ġcompleted": 7075,
      "':{'": 7076,
      "expand": 7077,
      "yal": 7078,
      "wg": 7079,
      "Ġconsult": 7080,
      "ques": 7081,
      "editor": 7082,
      "router": 7083,
      "ĠJo": 7084,
      "Integer": 7085,
      "Ġinsert": 7086,
      "Short": 7087,
      "gers": 7088,
      "Ġaspect": 7089,
      "MENT": 7090,
      "ificate": 7091,
      "Ġdegree": 7092,
      "JS": 7093,
      "rief": 7094,
      "Ġautomatic": 7095,
      "Align": 7096,
      "Ġarr": 7097,
      "Tab": 7098,
      "generate": 7099,
      "Schema": 7100,
      "]&&": 7101,
      "interval": 7102,
      "Ġwife": 7103,
      "LEV": 7104,
      "Ġlinks": 7105,
      "white": 7106,
      "ĠFound": 7107,
      "ĠCopyright": 7108,
      "Ġing": 7109,
      "country": 7110,
      "Ġextension": 7111,
      "Ġpromise": 7112,
      "PD": 7113,
      "ighest": 7114,
      "ĠColor": 7115,
      "power": 7116,
      "aughter": 7117,
      "SIZE": 7118,
      "ĠMonday": 7119,
      "dat": 7120,
      "Ġrecords": 7121,
      "Selected": 7122,
      "106": 7123,
      "Ġproced": 7124,
      "Cre": 7125,
      "à¤¾": 7126,
      "ecurity": 7127,
      "Ġoverall": 7128,
      "Ġvoice": 7129,
      "Ġreflect": 7130,
      "Nav": 7131,
      "ression": 7132,
      "Ġcolors": 7133,
      "Ġremote": 7134,
      "olar": 7135,
      "Nl": 7136,
      "ria": 7137,
      "Ġextract": 7138,
      "Here": 7139,
      "apped": 7140,
      "pd": 7141,
      "ixt": 7142,
      "unn": 7143,
      "186": 7144,
      "ampion": 7145,
      "Ġsmart": 7146,
      "Ġnone": 7147,
      "itect": 7148,
      "([\"": 7149,
      "Ġdistributed": 7150,
      "Ġpayload": 7151,
      "Ġprefix": 7152,
      "ĠÃ": 7153,
      "Ġcommercial": 7154,
      "Modal": 7155,
      "SM": 7156,
      "Ġschools": 7157,
      "watch": 7158,
      "Ġearlier": 7159,
      "months": 7160,
      "elements": 7161,
      "ĠURL": 7162,
      "plan": 7163,
      "ĠVe": 7164,
      "asy": 7165,
      ":\"%": 7166,
      "Conf": 7167,
      "Ġcompar": 7168,
      "ĠNode": 7169,
      "Ġsolutions": 7170,
      "`](": 7171,
      "west": 7172,
      "Ġwrote": 7173,
      "lor": 7174,
      "Play": 7175,
      "Ġshoot": 7176,
      "rgba": 7177,
      "Dialog": 7178,
      "\\\\\\\"": 7179,
      "Ġunderstanding": 7180,
      "Ġenable": 7181,
      "writer": 7182,
      "Ġfigure": 7183,
      "Ġpet": 7184,
      "Ġalone": 7185,
      "Ġpull": 7186,
      "ZS": 7187,
      "Ġfunc": 7188,
      "hh": 7189,
      "Ġserve": 7190,
      "-=": 7191,
      "ĠBig": 7192,
      "undred": 7193,
      "zen": 7194,
      "Ġspirit": 7195,
      "åİ": 7196,
      "ĠWell": 7197,
      "Fin": 7198,
      "Ġsing": 7199,
      "Ġharmony": 7200,
      "Ġpredict": 7201,
      "ech": 7202,
      "Ġrelig": 7203,
      "ky": 7204,
      "erve": 7205,
      "Ġparticularly": 7206,
      "Ġowners": 7207,
      "Ġnav": 7208,
      "Ġ--------": 7209,
      "Ġweekend": 7210,
      "final": 7211,
      "ĠEar": 7212,
      "\"}),": 7213,
      "PrototypeOf": 7214,
      "Scale": 7215,
      "SW": 7216,
      "Ġexcellent": 7217,
      ")));": 7218,
      ")==": 7219,
      "Ġincreasing": 7220,
      "Ġtesting": 7221,
      "Ġdistrict": 7222,
      "211": 7223,
      "Ġthous": 7224,
      "ĠId": 7225,
      "Ġdirector": 7226,
      "Ġtalking": 7227,
      "unknown": 7228,
      "uh": 7229,
      "distance": 7230,
      "vector": 7231,
      "details": 7232,
      "Sync": 7233,
      "ĠGr": 7234,
      "Ġspre": 7235,
      "Keys": 7236,
      ".')": 7237,
      "Feature": 7238,
      "360": 7239,
      "torch": 7240,
      "Ġpartner": 7241,
      "ERROR": 7242,
      "Ġrent": 7243,
      "Ġsale": 7244,
      "groups": 7245,
      "Track": 7246,
      "Ġfem": 7247,
      "pred": 7248,
      "\"\\": 7249,
      "Ġ70": 7250,
      "ashion": 7251,
      "Args": 7252,
      "Ġopportunities": 7253,
      "policy": 7254,
      "Ġdoll": 7255,
      "??": 7256,
      "Ġvehicle": 7257,
      "ĠGeneral": 7258,
      "áĥ": 7259,
      "ĠEm": 7260,
      "tools": 7261,
      "(!(": 7262,
      "oman": 7263,
      "Ġuseful": 7264,
      "CP": 7265,
      "Ġexists": 7266,
      "Ġip": 7267,
      "Ġbenefit": 7268,
      "ajax": 7269,
      "Ġresp": 7270,
      "Ġbaby": 7271,
      "ıâĢ": 7272,
      "Ġphoto": 7273,
      "ĠRuss": 7274,
      "arp": 7275,
      "âĶĢâĶĢâĶĢâĶĢ": 7276,
      "1000": 7277,
      "Ġproduce": 7278,
      "found": 7279,
      "getAttribute": 7280,
      "Ġincreased": 7281,
      "Only": 7282,
      "ĊĠĠĠĠĠĠĠĠĠĠĠĠĠĠĠĠĠĠĠĠĠĠĠĠĠĠĠĠ": 7283,
      "ĠMor": 7284,
      "Ġenh": 7285,
      "Ġinvestment": 7286,
      "rece": 7287,
      "++;": 7288,
      "Ġvolume": 7289,
      "icip": 7290,
      "tests": 7291,
      "Move": 7292,
      "Ġalbum": 7293,
      "men": 7294,
      "ĠJack": 7295,
      "Ġappropriate": 7296,
      "arity": 7297,
      "Ġhidden": 7298,
      "103": 7299,
      "Ġgirl": 7300,
      "TER": 7301,
      "Ġ2007": 7302,
      "Ġcolumns": 7303,
      "Ġton": 7304,
      "gorithm": 7305,
      "ideos": 7306,
      "clean": 7307,
      "Ġdamage": 7308,
      "ronic": 7309,
      "Ġsatis": 7310,
      "RT": 7311,
      "Ġinvalid": 7312,
      "Ġrates": 7313,
      "sqrt": 7314,
      "goog": 7315,
      "ĠPaul": 7316,
      "è¡": 7317,
      ":[{": 7318,
      "Ġliter": 7319,
      "memory": 7320,
      "jb": 7321,
      "Ġchallenge": 7322,
      "wb": 7323,
      "Connect": 7324,
      "mazon": 7325,
      "ĠUnion": 7326,
      "Ġcouldn": 7327,
      "Ġbillion": 7328,
      "Ġannounced": 7329,
      "anging": 7330,
      "previous": 7331,
      "Ġexpress": 7332,
      "Mar": 7333,
      "Di": 7334,
      "İâĢ": 7335,
      "ressed": 7336,
      "Ġnegative": 7337,
      "Ġagent": 7338,
      "panded": 7339,
      "Qk": 7340,
      "Write": 7341,
      "2018": 7342,
      "Role": 7343,
      "zd": 7344,
      "Ġwind": 7345,
      "memo": 7346,
      "under": 7347,
      "Ġreasons": 7348,
      "aked": 7349,
      "ACE": 7350,
      "inf": 7351,
      "İâĢıâĢ": 7352,
      "İâĢıâĢİâĢıâĢ": 7353,
      "Ġdie": 7354,
      "Ġadvert": 7355,
      "Ġpatient": 7356,
      "icen": 7357,
      "dyn": 7358,
      "Ġcorrespon": 7359,
      "Duration": 7360,
      "')},": 7361,
      "Ġinternet": 7362,
      "UD": 7363,
      "Ġdescribe": 7364,
      "ĠMac": 7365,
      "Unit": 7366,
      "Ġopin": 7367,
      "ĠGovern": 7368,
      "ĠMag": 7369,
      "130": 7370,
      "IND": 7371,
      "Ġhappened": 7372,
      "åľ": 7373,
      "Ġalthough": 7374,
      "asc": 7375,
      "159": 7376,
      "ĠSuper": 7377,
      "ĠMib": 7378,
      "Ġpayment": 7379,
      "Ġbalance": 7380,
      "ĠTex": 7381,
      "Ġmath": 7382,
      "uda": 7383,
      "utor": 7384,
      "Ġpublish": 7385,
      "Pay": 7386,
      "Ġdriver": 7387,
      "Ġbal": 7388,
      "audio": 7389,
      "ĠHel": 7390,
      "Ġdefinitely": 7391,
      "ested": 7392,
      "Ġfear": 7393,
      "Ġaren": 7394,
      "Ġ\"./": 7395,
      "night": 7396,
      ",,": 7397,
      "ä¹": 7398,
      "Ġtab": 7399,
      "\\\",\\\"": 7400,
      "Drop": 7401,
      "Axis": 7402,
      "ĠSy": 7403,
      "Ġunits": 7404,
      "_=": 7405,
      "\\\":\\\"": 7406,
      "ĠMet": 7407,
      "Ġconstruct": 7408,
      "Controller": 7409,
      "Ġenumerate": 7410,
      "Ġquarter": 7411,
      "Ġresolve": 7412,
      "ste": 7413,
      "Ġcat": 7414,
      "pared": 7415,
      "Ġopts": 7416,
      "Host": 7417,
      "EAA": 7418,
      "cred": 7419,
      "Ġconstruction": 7420,
      "person": 7421,
      "More": 7422,
      "UL": 7423,
      "Ġnut": 7424,
      "Ġresponsible": 7425,
      "Ġmatrix": 7426,
      "Pref": 7427,
      "()[": 7428,
      "LECT": 7429,
      "Ġbeg": 7430,
      "135": 7431,
      "Ġentity": 7432,
      "Ġgar": 7433,
      "ICAgICAgICAgICAgICAgICAgICAgICAg": 7434,
      ">>,": 7435,
      "Ġquant": 7436,
      "ĠFebruary": 7437,
      "Ġattributes": 7438,
      "IVE": 7439,
      "kt": 7440,
      "Ġroll": 7441,
      "BR": 7442,
      "multi": 7443,
      "Ġ48": 7444,
      "Ġcash": 7445,
      "Ġfab": 7446,
      "itiz": 7447,
      "ĠBu": 7448,
      "ĠInternet": 7449,
      "ĠOrder": 7450,
      "seed": 7451,
      "Jo": 7452,
      "Ġexpand": 7453,
      "ĠRepublic": 7454,
      "cloud": 7455,
      "single": 7456,
      "ato": 7457,
      "Ġcluster": 7458,
      "Ġtimeout": 7459,
      "Ġmission": 7460,
      "cbiAg": 7461,
      "lies": 7462,
      "attach": 7463,
      "Ġseven": 7464,
      "Ġfans": 7465,
      "ĠMap": 7466,
      "168": 7467,
      "HER": 7468,
      "Ġdetermine": 7469,
      "ĠMark": 7470,
      "Ġprote": 7471,
      "SL": 7472,
      "Use": 7473,
      "ĊĠĠĠĠĠĠĠĠĠĠĠĠĠĠĠĠĠĠ": 7474,
      "zM": 7475,
      "porate": 7476,
      "ĠBusiness": 7477,
      "ĠTO": 7478,
      "ĠSymbol": 7479,
      "167": 7480,
      "Ġelem": 7481,
      "Ġroute": 7482,
      "ĠPoint": 7483,
      "slot": 7484,
      "Ġpoll": 7485,
      "ĠRel": 7486,
      "|\\": 7487,
      "Ġtruth": 7488,
      "sql": 7489,
      "Ġcells": 7490,
      "232": 7491,
      "socket": 7492,
      "otes": 7493,
      "ICE": 7494,
      "AH": 7495,
      "language": 7496,
      ".*": 7497,
      "roke": 7498,
      "Ġfollowed": 7499,
      "Ġgrand": 7500,
      "Ġcoach": 7501,
      "Ġce": 7502,
      "Pat": 7503,
      "Ġtransfer": 7504,
      "ĠNote": 7505,
      "Agent": 7506,
      "BD": 7507,
      "Ġ_,": 7508,
      "Ug": 7509,
      "éĢ": 7510,
      "ĠResearch": 7511,
      ",\"./": 7512,
      "nother": 7513,
      "tri": 7514,
      "ĠFR": 7515,
      "charCode": 7516,
      "\"},[": 7517,
      "Ġtheme": 7518,
      "Ġlarger": 7519,
      "ĠProgram": 7520,
      "122": 7521,
      "Ġlargest": 7522,
      "ĠField": 7523,
      "TIM": 7524,
      "ummy": 7525,
      "arded": 7526,
      "reduce": 7527,
      "pts": 7528,
      "calar": 7529,
      "Ġzero": 7530,
      "})),": 7531,
      "setStatus": 7532,
      "zoom": 7533,
      "Ġstrug": 7534,
      "ORD": 7535,
      "ston": 7536,
      "Enabled": 7537,
      "Ġruns": 7538,
      "Auth": 7539,
      "Ġsto": 7540,
      "Ġchurch": 7541,
      "139": 7542,
      "Ġwild": 7543,
      "Ġeasier": 7544,
      "umps": 7545,
      "Ġsoft": 7546,
      "Ġscient": 7547,
      "vars": 7548,
      "Ġscen": 7549,
      "steps": 7550,
      "Ġoffered": 7551,
      "}).": 7552,
      "ĠDi": 7553,
      "Ġ'_": 7554,
      "MAX": 7555,
      "Ġpulumi": 7556,
      "legate": 7557,
      "CF": 7558,
      "Ġdefine": 7559,
      "osed": 7560,
      "Children": 7561,
      "IONS": 7562,
      "Ġpopulation": 7563,
      "Ġcomponents": 7564,
      "Pop": 7565,
      "Ġcls": 7566,
      "__)": 7567,
      "Ġwarn": 7568,
      "Ġ34": 7569,
      "Ġreserved": 7570,
      "pow": 7571,
      "ferences": 7572,
      "geometry": 7573,
      "Ġdiscussion": 7574,
      "NO": 7575,
      "Ġpoor": 7576,
      "Ġcelebr": 7577,
      "ĠÂ£": 7578,
      "Loader": 7579,
      "Ġdecade": 7580,
      "Ġmilitary": 7581,
      "speed": 7582,
      "254": 7583,
      "setup": 7584,
      "Ġconvers": 7585,
      "Âł": 7586,
      "Ġye": 7587,
      "samples": 7588,
      "apy": 7589,
      "protocol": 7590,
      "Exec": 7591,
      "inn": 7592,
      "119": 7593,
      "Ġdelivery": 7594,
      "Ġplus": 7595,
      "Ġadvice": 7596,
      "::*;": 7597,
      "panel": 7598,
      "Ġfederal": 7599,
      "ifiers": 7600,
      "matches": 7601,
      "ĠDan": 7602,
      "Ã§": 7603,
      "clip": 7604,
      "Ġreset": 7605,
      "Br": 7606,
      "summary": 7607,
      "Ġonto": 7608,
      "Py": 7609,
      "fol": 7610,
      "}\"": 7611,
      "dl": 7612,
      "Ġloved": 7613,
      "rier": 7614,
      "structions": 7615,
      "WS": 7616,
      "Ġmill": 7617,
      "ĠjQuery": 7618,
      "Ġsupply": 7619,
      "Ġbill": 7620,
      "Ġvariant": 7621,
      "__[\"": 7622,
      "ulator": 7623,
      "ilk": 7624,
      "Ġtruly": 7625,
      "xi": 7626,
      "begin": 7627,
      "useum": 7628,
      "ĠJesus": 7629,
      "Ġholid": 7630,
      "Ġtx": 7631,
      "ĠIsrael": 7632,
      "ĠAssociation": 7633,
      "Ġhighlight": 7634,
      "ĠFunction": 7635,
      "Identifier": 7636,
      "134": 7637,
      "ĠSign": 7638,
      "Es": 7639,
      "handled": 7640,
      "Jl": 7641,
      "ĠGold": 7642,
      "called": 7643,
      ":\"#": 7644,
      "VV": 7645,
      "QUFDQT": 7646,
      "Profile": 7647,
      "vals": 7648,
      "ĠHand": 7649,
      "ĠProject": 7650,
      "pository": 7651,
      "Ġforms": 7652,
      "ancer": 7653,
      "aaaa": 7654,
      "ĠInto": 7655,
      "Ġinputs": 7656,
      "Ġdemonstr": 7657,
      "Ly": 7658,
      "\"][\"": 7659,
      "xF": 7660,
      "Ġgone": 7661,
      "fixed": 7662,
      ".'": 7663,
      "ĊĊĊ": 7664,
      "ĠEach": 7665,
      "Ġcalling": 7666,
      "ĠBase": 7667,
      "Ġfarm": 7668,
      "tp": 7669,
      "native": 7670,
      "ĠVer": 7671,
      "hol": 7672,
      "ki": 7673,
      "Ġfactor": 7674,
      "Ġinterview": 7675,
      "Ġ36": 7676,
      "$$": 7677,
      "Ġscience": 7678,
      "lee": 7679,
      "trace": 7680,
      "chunk": 7681,
      "Collection": 7682,
      "Ġdu": 7683,
      "Ġchain": 7684,
      ":\"\",": 7685,
      "Project": 7686,
      "Ġstudies": 7687,
      "ĠBoard": 7688,
      "Phone": 7689,
      "cpu": 7690,
      "Ġ196": 7691,
      "Ġahead": 7692,
      "ĠUpdate": 7693,
      "220": 7694,
      "Ġdetect": 7695,
      "ĠText": 7696,
      "121": 7697,
      "linear": 7698,
      "Ġworkers": 7699,
      "Ġwat": 7700,
      "Ġsetup": 7701,
      "Ġwww": 7702,
      "tBQUNBO": 7703,
      "PM": 7704,
      "Ġproduced": 7705,
      "Wrapper": 7706,
      "ĠEuropean": 7707,
      "Ġhus": 7708,
      "ĠCanada": 7709,
      "wc": 7710,
      "Ġtransaction": 7711,
      "||{": 7712,
      "ðŁı": 7713,
      "dp": 7714,
      "submit": 7715,
      "Ġmovement": 7716,
      "forward": 7717,
      "ĠCouncil": 7718,
      ":.": 7719,
      "ĠStart": 7720,
      "å¼": 7721,
      "ester": 7722,
      "ĠCompany": 7723,
      "Ġlik": 7724,
      "OUT": 7725,
      ")+\"": 7726,
      "Ġkept": 7727,
      "ĠQt": 7728,
      "mes": 7729,
      "icies": 7730,
      "ipp": 7731,
      "runtime": 7732,
      "fold": 7733,
      "weights": 7734,
      "package": 7735,
      "BI": 7736,
      "Ġclin": 7737,
      "Ġmicro": 7738,
      "Ġweather": 7739,
      "Ġmonitor": 7740,
      "Bound": 7741,
      "estival": 7742,
      "uous": 7743,
      "inct": 7744,
      "Ġqueue": 7745,
      "ĠYear": 7746,
      "sin": 7747,
      "Ġ39": 7748,
      "^\\": 7749,
      "Transition": 7750,
      "phere": 7751,
      "NOT": 7752,
      "ffffffff": 7753,
      "counter": 7754,
      "isation": 7755,
      "156": 7756,
      "Don": 7757,
      "Ġhundred": 7758,
      "Ġguaran": 7759,
      "imul": 7760,
      "Ġ):": 7761,
      "ĠAM": 7762,
      "ategy": 7763,
      "warning": 7764,
      "Ġperhaps": 7765,
      "Ġgift": 7766,
      "osen": 7767,
      "Ġgrant": 7768,
      "DATA": 7769,
      "Ġeight": 7770,
      "Tensor": 7771,
      "amin": 7772,
      "ĠDesign": 7773,
      "PUT": 7774,
      "lem": 7775,
      "Ġsources": 7776,
      "ĠIndian": 7777,
      "world": 7778,
      "finish": 7779,
      "Ġinterface": 7780,
      "Ġcancer": 7781,
      "Ġopening": 7782,
      "Ġdem": 7783,
      "Ġanti": 7784,
      "Ġstrength": 7785,
      "getOwnProperty": 7786,
      "Ġobtain": 7787,
      "parts": 7788,
      "Ġsequence": 7789,
      "Ġrock": 7790,
      "rb": 7791,
      "Ġcup": 7792,
      "apse": 7793,
      "Lm": 7794,
      "Ġhelped": 7795,
      "ĠBuild": 7796,
      "----------------------------------------------------------------": 7797,
      "front": 7798,
      "rm": 7799,
      "igator": 7800,
      "Focus": 7801,
      "Register": 7802,
      "CS": 7803,
      "ĠEdu": 7804,
      "Ġtal": 7805,
      "changed": 7806,
      "Ġbehavior": 7807,
      "Ġadding": 7808,
      "Ġclosed": 7809,
      "Ġannual": 7810,
      "rypto": 7811,
      "Ġ300": 7812,
      "Ġaudio": 7813,
      "substr": 7814,
      "Ġguy": 7815,
      "Ġflat": 7816,
      "ĠArgs": 7817,
      "Ġ33": 7818,
      "ĠWindows": 7819,
      "Ġhighest": 7820,
      "ZC": 7821,
      "interface": 7822,
      "Ġty": 7823,
      "Ġplaced": 7824,
      "Ġsust": 7825,
      "Ġcold": 7826,
      "inher": 7827,
      "correct": 7828,
      "ĠBr": 7829,
      "gi": 7830,
      "unique": 7831,
      "imated": 7832,
      "note": 7833,
      "Ġcompared": 7834,
      "191": 7835,
      "Ġpsy": 7836,
      "Provider": 7837,
      "217": 7838,
      "146": 7839,
      "Ġvs": 7840,
      "Ġignore": 7841,
      ",_(": 7842,
      "going": 7843,
      "Ġrows": 7844,
      "Gu": 7845,
      "Ġpossib": 7846,
      "Ġshop": 7847,
      "239": 7848,
      "gments": 7849,
      "Total": 7850,
      "Ġassess": 7851,
      "Ġtermin": 7852,
      "comple": 7853,
      "Fields": 7854,
      "Ġminimum": 7855,
      "Ġschema": 7856,
      "Ġpieces": 7857,
      "Ġtags": 7858,
      "Ġviews": 7859,
      "å°": 7860,
      "043": 7861,
      "Ġpipe": 7862,
      "logies": 7863,
      "]},{": 7864,
      "Will": 7865,
      "Ġconnected": 7866,
      "Changed": 7867,
      "209": 7868,
      "Ġtopic": 7869,
      "Ġhandler": 7870,
      "ĠGood": 7871,
      "overflow": 7872,
      "Ġalert": 7873,
      "toBe": 7874,
      "Pool": 7875,
      "weekdays": 7876,
      "ĠImage": 7877,
      "384": 7878,
      "Ġcards": 7879,
      "pages": 7880,
      ")\"": 7881,
      "Ġspan": 7882,
      "akers": 7883,
      "Ġprev": 7884,
      "Ġ\"_": 7885,
      "ĠToken": 7886,
      "ourney": 7887,
      "Ġschedule": 7888,
      "Ġlibrary": 7889,
      "claim": 7890,
      "=\"\",": 7891,
      "Ġoffering": 7892,
      "Ġutils": 7893,
      "proxy": 7894,
      "Ġstarts": 7895,
      "ĠCode": 7896,
      "Ġcam": 7897,
      "Ġlaunch": 7898,
      "ĠThursday": 7899,
      "tooltip": 7900,
      "Ġattract": 7901,
      "ĠVis": 7902,
      "Ġmiles": 7903,
      "Ġdedic": 7904,
      "Ġwonderful": 7905,
      "225": 7906,
      "Internal": 7907,
      "Ġeth": 7908,
      "tuple": 7909,
      "Ġpowerful": 7910,
      "clusive": 7911,
      "poch": 7912,
      "posal": 7913,
      "158": 7914,
      "Ġtrend": 7915,
      "Ġwaiting": 7916,
      "ĠOffice": 7917,
      "145": 7918,
      "Ġleader": 7919,
      "Ġpeace": 7920,
      "plates": 7921,
      "Ġpriv": 7922,
      "Ġprintln": 7923,
      "Ġdeb": 7924,
      "Ġburn": 7925,
      "Ġtrou": 7926,
      "reader": 7927,
      "platform": 7928,
      "lv": 7929,
      "118": 7930,
      "Ġsets": 7931,
      ">'": 7932,
      "Metadata": 7933,
      "?}\",": 7934,
      "water": 7935,
      "ĠAnt": 7936,
      "ĠAnge": 7937,
      "364": 7938,
      "Ġregarding": 7939,
      "ko": 7940,
      "Ġdecor": 7941,
      "VM": 7942,
      "refresh": 7943,
      "detail": 7944,
      "ĠJames": 7945,
      "Operation": 7946,
      "ĠTuesday": 7947,
      "Ġfs": 7948,
      "poses": 7949,
      "('<": 7950,
      "PER": 7951,
      "ĠRich": 7952,
      "ĠBack": 7953,
      "Ġvisual": 7954,
      "optim": 7955,
      "Ġneighbor": 7956,
      "Ġserved": 7957,
      "lyph": 7958,
      "Ġchem": 7959,
      "vation": 7960,
      "Variable": 7961,
      "ceptions": 7962,
      "Font": 7963,
      "Drag": 7964,
      "repr": 7965,
      "Ġstress": 7966,
      "Ġwire": 7967,
      "Success": 7968,
      "ĠBest": 7969,
      "Ġbrain": 7970,
      "esome": 7971,
      "ĠReact": 7972,
      "Meta": 7973,
      "PA": 7974,
      "),!": 7975,
      "Ġhotel": 7976,
      "Net": 7977,
      "Ġtrigger": 7978,
      "park": 7979,
      "resources": 7980,
      "ĠNetwork": 7981,
      "ĠTexas": 7982,
      "Player": 7983,
      "Ġefforts": 7984,
      "Ġlots": 7985,
      "Ġguys": 7986,
      "375": 7987,
      "factor": 7988,
      "ano": 7989,
      "leted": 7990,
      "Ġpictures": 7991,
      "Ġlicense": 7992,
      "ffee": 7993,
      "206": 7994,
      "placeholder": 7995,
      "137": 7996,
      "May": 7997,
      "det": 7998,
      "riority": 7999,
      "tile": 8000,
      "ĠDistrict": 8001,
      "ĠCong": 8002,
      "cles": 8003,
      "Ġmechan": 8004,
      "omic": 8005,
      "star": 8006,
      "isters": 8007,
      "264": 8008,
      "ĠNor": 8009,
      "rum": 8010,
      "DI": 8011,
      "paths": 8012,
      "Ð²": 8013,
      "ĠMany": 8014,
      "Ġeditor": 8015,
      "Ġpad": 8016,
      "Ġapplied": 8017,
      "bad": 8018,
      "Record": 8019,
      "207": 8020,
      "Ġshift": 8021,
      "ĠParameters": 8022,
      "æł": 8023,
      "dients": 8024,
      "Ġborn": 8025,
      "Ġspect": 8026,
      "Ġgenerated": 8027,
      "ĠChristmas": 8028,
      "deep": 8029,
      "|'": 8030,
      "Ġprotection": 8031,
      "velopment": 8032,
      "Ã³": 8033,
      "Ġlayout": 8034,
      "wer": 8035,
      "Proto": 8036,
      "Ġsports": 8037,
      "ĠAp": 8038,
      "(_)": 8039,
      "Ġfixed": 8040,
      "()>": 8041,
      "Ġ}).": 8042,
      "\"](": 8043,
      "ĠTop": 8044,
      "FILE": 8045,
      "serve": 8046,
      "157": 8047,
      "Ġsociety": 8048,
      "Ġcritical": 8049,
      "ĠChurch": 8050,
      "Ġhospital": 8051,
      "scape": 8052,
      "Ġgirls": 8053,
      "Styles": 8054,
      "Ra": 8055,
      "UU": 8056,
      "Ġepisode": 8057,
      "Ġstation": 8058,
      "Ġpow": 8059,
      "]-": 8060,
      "Ġremaining": 8061,
      "si": 8062,
      "ĠObama": 8063,
      "llig": 8064,
      "ĠCons": 8065,
      "ĠOnly": 8066,
      "ynch": 8067,
      "SO": 8068,
      "IX": 8069,
      "charAt": 8070,
      "ĠANY": 8071,
      "Ġkitchen": 8072,
      "available": 8073,
      "charCodeAt": 8074,
      "Li": 8075,
      "continue": 8076,
      "These": 8077,
      "ĠĠĠĠĠĠĠĠĠĠĠĠĠĠĠĠĠĠĠĠĠĠĠĠĠĠĠĠĠĠĠĠĠĠĠĠĠĠĠĠĠĠĠĠĠĠĠĠĠĠĠĠĠĠĠĠĠĠĠĠĠĠĠĠ": 8078,
      "states": 8079,
      "cljs": 8080,
      "atar": 8081,
      "(\"_\"),": 8082,
      "Ġdesp": 8083,
      "volume": 8084,
      "mc": 8085,
      "\\.": 8086,
      "ĠHot": 8087,
      "Ġoccas": 8088,
      "Ġlearned": 8089,
      "Param": 8090,
      "Ġfaith": 8091,
      ":[],": 8092,
      "messages": 8093,
      "wa": 8094,
      "Ġappoint": 8095,
      ",\"__": 8096,
      "compute": 8097,
      "Ġobvious": 8098,
      "ĠBlue": 8099,
      "çĶ¨": 8100,
      "Ġsecure": 8101,
      "same": 8102,
      "ini": 8103,
      "Vz": 8104,
      "Ġincome": 8105,
      "0000000": 8106,
      "Ġkernel": 8107,
      "404": 8108,
      "Ġprem": 8109,
      "Pub": 8110,
      "Ġslight": 8111,
      "ĊĠĠĠĠĠĠĠĠĠĠĠĠĠĠĠĠĠĠĠĠĠĠĠĠĠĠĠĠĠĠĠĠĠĠĠĠĠĠĠĠĠĠĠĠĠĠĠ": 8112,
      "{}\",": 8113,
      "accept": 8114,
      "ĠSur": 8115,
      "152": 8116,
      "Ġcollabor": 8117,
      "Parameters": 8118,
      "dark": 8119,
      "Ġ128": 8120,
      "Ġgenerally": 8121,
      "ĠApple": 8122,
      "andard": 8123,
      "plicate": 8124,
      "future": 8125,
      "Ġcop": 8126,
      "cert": 8127,
      "Visible": 8128,
      "301": 8129,
      "Ġang": 8130,
      "AIN": 8131,
      "2019": 8132,
      "IPT": 8133,
      "XF": 8134,
      "cmp": 8135,
      "STAT": 8136,
      "Binary": 8137,
      "Normal": 8138,
      "Ġcursor": 8139,
      "unte": 8140,
      "Ġadvantage": 8141,
      "ĠBra": 8142,
      "Ġappreci": 8143,
      "mos": 8144,
      "601": 8145,
      "Ġintegr": 8146,
      "Ġencode": 8147,
      ">::": 8148,
      "Ġextremely": 8149,
      "Ġpul": 8150,
      "Ġcreative": 8151,
      "mul": 8152,
      "anchor": 8153,
      "absolute": 8154,
      "ĠSince": 8155,
      "database": 8156,
      "Bottom": 8157,
      "allery": 8158,
      "arian": 8159,
      "Ġ43": 8160,
      "ĠFlor": 8161,
      "Ġvector": 8162,
      "substring": 8163,
      "Ġhappens": 8164,
      "NN": 8165,
      "black": 8166,
      "jsx": 8167,
      "numpy": 8168,
      "Ġzip": 8169,
      "extra": 8170,
      "capt": 8171,
      "irror": 8172,
      "ĠBritish": 8173,
      "Ġcapacity": 8174,
      "riage": 8175,
      "Ġseeing": 8176,
      "ala": 8177,
      "Ġdetail": 8178,
      "Utils": 8179,
      "Ġcontinued": 8180,
      "strict": 8181,
      "ygon": 8182,
      "ulf": 8183,
      "155": 8184,
      "Area": 8185,
      "Ġwear": 8186,
      "Ġhelping": 8187,
      "pers": 8188,
      "Ġarri": 8189,
      "138": 8190,
      "Ġminute": 8191,
      "Ã¤": 8192,
      "Sum": 8193,
      "Media": 8194,
      "åº": 8195,
      "=\"#": 8196,
      "Ġsweet": 8197,
      "apes": 8198,
      "ĠRegExp": 8199,
      "nections": 8200,
      "Ġcloud": 8201,
      "tained": 8202,
      "oted": 8203,
      "ĠEnd": 8204,
      "bindgen": 8205,
      "Ġfinding": 8206,
      "Ġ[{": 8207,
      "Serial": 8208,
      "294": 8209,
      "best": 8210,
      "ĠMichael": 8211,
      "parameter": 8212,
      "allel": 8213,
      "ĠOnce": 8214,
      "reject": 8215,
      "servation": 8216,
      "pected": 8217,
      "148": 8218,
      "Ġtherefore": 8219,
      "166": 8220,
      "igate": 8221,
      "ĠMer": 8222,
      "Ġlat": 8223,
      "onest": 8224,
      "tion": 8225,
      "friend": 8226,
      "Mi": 8227,
      "Ġhusband": 8228,
      "ĠAmazon": 8229,
      "gency": 8230,
      "Ġmanage": 8231,
      "Second": 8232,
      "Ġolder": 8233,
      "Ġmail": 8234,
      "locale": 8235,
      "Formatter": 8236,
      "Spe": 8237,
      "zs": 8238,
      "/{": 8239,
      "Ca": 8240,
      "Ġ2006": 8241,
      "owl": 8242,
      "python": 8243,
      "named": 8244,
      "ĠBank": 8245,
      "Éµ": 8246,
      "sequence": 8247,
      "Ġ----": 8248,
      "Ġverbose": 8249,
      "ĠTem": 8250,
      "metric": 8251,
      "Ġlif": 8252,
      "Ġoperator": 8253,
      "******/": 8254,
      "Ip": 8255,
      "ĠWednesday": 8256,
      "NotFound": 8257,
      "plugins": 8258,
      "Ġeconomy": 8259,
      "lette": 8260,
      "Ġagreed": 8261,
      "Ġok": 8262,
      "BAA": 8263,
      "Ġfailure": 8264,
      "rian": 8265,
      "engine": 8266,
      "ali": 8267,
      "230": 8268,
      "uv": 8269,
      "Unknown": 8270,
      "}:": 8271,
      "Ġnove": 8272,
      "Ġstick": 8273,
      "228": 8274,
      "icing": 8275,
      "Ġgain": 8276,
      "Ġapprox": 8277,
      ")})}": 8278,
      "Ġtraffic": 8279,
      "Ġchart": 8280,
      "Ġphotograph": 8281,
      "204": 8282,
      "Ġdelay": 8283,
      "fp": 8284,
      "you": 8285,
      "Ġprovider": 8286,
      "ĠProf": 8287,
      "Ġknows": 8288,
      "apsed": 8289,
      "Ġalpha": 8290,
      "ona": 8291,
      "once": 8292,
      "Ġestablished": 8293,
      "{\"_\":\"": 8294,
      "\",\"$\":{\"": 8295,
      "Ve": 8296,
      "Ġ51": 8297,
      "Ġswe": 8298,
      "()(": 8299,
      "tel": 8300,
      "ĠTer": 8301,
      "Ġhomes": 8302,
      "ĠTwitter": 8303,
      "Ġhaven": 8304,
      "ĠAc": 8305,
      "what": 8306,
      "Nz": 8307,
      "reverse": 8308,
      "\"}},{\"_\":\"": 8309,
      "Network": 8310,
      "quis": 8311,
      "Ġfactors": 8312,
      "Ġsignal": 8313,
      "ĠDown": 8314,
      "Ġfant": 8315,
      "ĠChristian": 8316,
      "directory": 8317,
      "ĠTom": 8318,
      ",$": 8319,
      "undle": 8320,
      "iger": 8321,
      "Job": 8322,
      "={{": 8323,
      "ĠĠĠĠĠĠĠĠĠĠĠĠĠĠ": 8324,
      "Ġthank": 8325,
      "Ġfol": 8326,
      "Ġtemperature": 8327,
      "LD": 8328,
      "ĠView": 8329,
      "]\",": 8330,
      "Ġvote": 8331,
      "ĠSend": 8332,
      "ĠDef": 8333,
      "apers": 8334,
      "Sort": 8335,
      "Your": 8336,
      "Ġboy": 8337,
      "outputs": 8338,
      "java": 8339,
      "threshold": 8340,
      "High": 8341,
      "à¦": 8342,
      "ASS": 8343,
      "ĠMat": 8344,
      "decor": 8345,
      "utter": 8346,
      "ĠJer": 8347,
      "Ġupper": 8348,
      "CRIPT": 8349,
      "oving": 8350,
      "inese": 8351,
      "Jy": 8352,
      "attery": 8353,
      "sey": 8354,
      "Ġ2000": 8355,
      "Ġ42": 8356,
      "ĠPower": 8357,
      "Ġduration": 8358,
      "kl": 8359,
      "Ġwouldn": 8360,
      "methods": 8361,
      "ĠLord": 8362,
      "SQ": 8363,
      "Ġvalidate": 8364,
      "stone": 8365,
      "ĠFrench": 8366,
      "igr": 8367,
      "Ġ400": 8368,
      "Ġjump": 8369,
      "COMP": 8370,
      "OG": 8371,
      "|=": 8372,
      "Ġreviews": 8373,
      "Ã¼": 8374,
      "gate": 8375,
      "Ġedit": 8376,
      "Vs": 8377,
      "ĠPlan": 8378,
      "Ġwhatever": 8379,
      "Ġsigned": 8380,
      "memoized": 8381,
      "standing": 8382,
      "Http": 8383,
      "cribe": 8384,
      "Ġaudience": 8385,
      "ĠAR": 8386,
      "Ġbul": 8387,
      "/>": 8388,
      "Ġnative": 8389,
      "ĠSpr": 8390,
      "green": 8391,
      "bal": 8392,
      "ĠGl": 8393,
      "cook": 8394,
      "237": 8395,
      "ĠModel": 8396,
      "}],": 8397,
      "Ġsorted": 8398,
      "Ġsamples": 8399,
      "ANT": 8400,
      "*-": 8401,
      "Ġspo": 8402,
      "Ġexperienced": 8403,
      "Ġbiggest": 8404,
      "Ġbrowser": 8405,
      "voc": 8406,
      "gc": 8407,
      "Main": 8408,
      "Ġho": 8409,
      "ĠBill": 8410,
      "Ġ99": 8411,
      "Bh": 8412,
      "Ġign": 8413,
      "tb": 8414,
      "Car": 8415,
      "Ġseed": 8416,
      "Once": 8417,
      "kn": 8418,
      "('--": 8419,
      "Ġvariables": 8420,
      "QUFDQTtBQUNBO": 8421,
      "233": 8422,
      "Ġbecomes": 8423,
      "strong": 8424,
      "isco": 8425,
      "Mo": 8426,
      "XXXX": 8427,
      "________": 8428,
      "marker": 8429,
      "AIL": 8430,
      "###": 8431,
      "164": 8432,
      "iki": 8433,
      "2000": 8434,
      "Ġrelevant": 8435,
      "ĠManagement": 8436,
      "Ġopened": 8437,
      "Ġbath": 8438,
      "Ġmeant": 8439,
      "urb": 8440,
      "aX": 8441,
      "Ġrich": 8442,
      "Ġ101": 8443,
      "Ġorganizations": 8444,
      "ĠMain": 8445,
      "Ġsubmit": 8446,
      "ĠFire": 8447,
      "Touch": 8448,
      "ĠIP": 8449,
      "ĠEducation": 8450,
      "Ġfrequency": 8451,
      "urred": 8452,
      "140": 8453,
      "Ġreality": 8454,
      "olate": 8455,
      "ĠRet": 8456,
      "()(),": 8457,
      "ifies": 8458,
      "ĠSum": 8459,
      "Ġinstr": 8460,
      "ĠShow": 8461,
      "Big": 8462,
      "sr": 8463,
      "\"]),": 8464,
      "Nj": 8465,
      "Ġmist": 8466,
      "rab": 8467,
      "Product": 8468,
      "rides": 8469,
      "blob": 8470,
      "Ġtend": 8471,
      "Ġstreet": 8472,
      "TT": 8473,
      "240": 8474,
      "ĠVersion": 8475,
      "promise": 8476,
      "éĩ": 8477,
      "essor": 8478,
      "PRO": 8479,
      "yer": 8480,
      "unately": 8481,
      "}}},": 8482,
      "ĠBecause": 8483,
      "ĠAustralia": 8484,
      "pective": 8485,
      "Ġgather": 8486,
      "Ġprocessing": 8487,
      "Ġfan": 8488,
      "erved": 8489,
      "cores": 8490,
      "duled": 8491,
      "Ġcru": 8492,
      "Ġtoward": 8493,
      "abc": 8494,
      "COL": 8495,
      "ĊĠĠĠĠĠĠĠĠĠĠĠĠĠĠĠĠĠĠĠĠĠĠĠĠĠĠĠĠĠĠĠĠĠ": 8496,
      "TEXT": 8497,
      "Ġgun": 8498,
      "Ġseparate": 8499,
      "Ġsand": 8500,
      "Ġheavy": 8501,
      "Ġvac": 8502,
      "ĠClub": 8503,
      "iture": 8504,
      "filters": 8505,
      "Ġoppos": 8506,
      "Common": 8507,
      "æī": 8508,
      "anta": 8509,
      "Ġforeign": 8510,
      "Ġfat": 8511,
      ",[\"": 8512,
      "Ġdescribed": 8513,
      "Global": 8514,
      "Ġmaintain": 8515,
      "Ġestablish": 8516,
      "defin": 8517,
      "agation": 8518,
      "Ġnotes": 8519,
      "Ġincred": 8520,
      "cost": 8521,
      "Ġfetch": 8522,
      "decl": 8523,
      "Ġhy": 8524,
      "program": 8525,
      "ĠGame": 8526,
      "Ġ55": 8527,
      "pulumi": 8528,
      "ĠMart": 8529,
      "frames": 8530,
      "2017": 8531,
      "Ġiniti": 8532,
      "655": 8533,
      "Ġdriving": 8534,
      "']:": 8535,
      "Transaction": 8536,
      "ady": 8537,
      "ĠBay": 8538,
      "tenance": 8539,
      "Ġprincip": 8540,
      "900": 8541,
      "radio": 8542,
      "ĠCap": 8543,
      "Ġdrag": 8544,
      "(\"<": 8545,
      "Eng": 8546,
      "ĠConfig": 8547,
      "uZ": 8548,
      "=$": 8549,
      "colors": 8550,
      "Origin": 8551,
      "oth": 8552,
      "å·": 8553,
      "alloc": 8554,
      "Ġunless": 8555,
      "ĠFore": 8556,
      "Ġcorner": 8557,
      "percent": 8558,
      "Ġio": 8559,
      "ĠEX": 8560,
      "Ġdied": 8561,
      "Ġfurn": 8562,
      "Ġbag": 8563,
      "Ġcb": 8564,
      "Prefix": 8565,
      "ĠEnt": 8566,
      "ĠJew": 8567,
      "served": 8568,
      "Ġcomfortable": 8569,
      "Ġdream": 8570,
      "tl": 8571,
      "Ġglass": 8572,
      "ĠRange": 8573,
      "Ġexhib": 8574,
      "âĤĴ": 8575,
      "Video": 8576,
      "Ġdoctor": 8577,
      "Mount": 8578,
      "ipes": 8579,
      "Ġtrial": 8580,
      "Ġcivil": 8581,
      "checkbox": 8582,
      "stic": 8583,
      "Ġ56": 8584,
      "ĠAnn": 8585,
      "})},": 8586,
      "icensed": 8587,
      "'>": 8588,
      "icial": 8589,
      "łģ": 8590,
      "inject": 8591,
      "248": 8592,
      "Ġdanger": 8593,
      "writable": 8594,
      "Ġcrow": 8595,
      "ĠArg": 8596,
      "ĠBlock": 8597,
      "Ġdistribution": 8598,
      "dig": 8599,
      "Ġelectric": 8600,
      "ĠWIT": 8601,
      "==\"": 8602,
      "Author": 8603,
      "Ġguess": 8604,
      ".',": 8605,
      "Ġafford": 8606,
      "Ġcoffee": 8607,
      "âĪ": 8608,
      "uce": 8609,
      "Ġsin": 8610,
      "Category": 8611,
      "Progress": 8612,
      "renderer": 8613,
      "Â®": 8614,
      "imp": 8615,
      "Ġcentury": 8616,
      "238": 8617,
      "agram": 8618,
      "Ids": 8619,
      "Ġ))": 8620,
      "Ġcovered": 8621,
      "Other": 8622,
      "Ġtensor": 8623,
      "Sa": 8624,
      "hour": 8625,
      "Ġconference": 8626,
      "rapped": 8627,
      "Rece": 8628,
      "129": 8629,
      "304": 8630,
      "],[\"": 8631,
      "Ġ./": 8632,
      "swith": 8633,
      "ĠInformation": 8634,
      "Ġ'%": 8635,
      "rast": 8636,
      "ĠRoad": 8637,
      "ĊĠĠĠĠĠĠĠĠĠĠĠĠĠĠĠĠĠĠĠĠĠĠĠĠĠĠ": 8638,
      "lan": 8639,
      "ĠThom": 8640,
      "helper": 8641,
      "ĠOh": 8642,
      "Ġmiss": 8643,
      "readonly": 8644,
      "*\\": 8645,
      "hp": 8646,
      "ĠGreat": 8647,
      "208": 8648,
      "extract": 8649,
      "Ġtou": 8650,
      "Ġmapping": 8651,
      "Ġraised": 8652,
      "Ġexit": 8653,
      "fff": 8654,
      "Ġserde": 8655,
      "Ġdestination": 8656,
      "veloper": 8657,
      "Ġ-=": 8658,
      ")||(": 8659,
      "matic": 8660,
      "controller": 8661,
      "iller": 8662,
      "plus": 8663,
      "alysis": 8664,
      "Ġchallenges": 8665,
      "Ġpanel": 8666,
      "cv": 8667,
      "Light": 8668,
      "plicit": 8669,
      "Ġparties": 8670,
      "Ġclaims": 8671,
      "Pointer": 8672,
      "Null": 8673,
      "076": 8674,
      "AJ": 8675,
      "Ġimplementation": 8676,
      "placement": 8677,
      "\"];": 8678,
      "Ġtransition": 8679,
      "Ġcommunication": 8680,
      "Fail": 8681,
      "Ġremains": 8682,
      "Ġsqu": 8683,
      "ĠMary": 8684,
      "{{": 8685,
      "'''": 8686,
      "Ġque": 8687,
      "chat": 8688,
      "istent": 8689,
      "OB": 8690,
      "ĠCare": 8691,
      "Ġentertain": 8692,
      "ĠSpe": 8693,
      "Ġdocuments": 8694,
      "Ġcentral": 8695,
      "ĠSam": 8696,
      "700": 8697,
      "CI": 8698,
      "]=\"": 8699,
      "mag": 8700,
      "Ġpreviously": 8701,
      "agination": 8702,
      "ĠBook": 8703,
      "upper": 8704,
      "227": 8705,
      "Ġpri": 8706,
      "Ġ96": 8707,
      "154": 8708,
      "å¯": 8709,
      "===\"": 8710,
      "ĊĉĊ": 8711,
      "Texture": 8712,
      "possible": 8713,
      "ĠCommit": 8714,
      "ppy": 8715,
      "133": 8716,
      "Panel": 8717,
      "oned": 8718,
      "compile": 8719,
      "Configuration": 8720,
      "FBQyx": 8721,
      "ĠPR": 8722,
      "ĠVol": 8723,
      "ti": 8724,
      "van": 8725,
      "guild": 8726,
      "ĠRequest": 8727,
      "320": 8728,
      "gration": 8729,
      "Ġtasks": 8730,
      "cx": 8731,
      "factory": 8732,
      "âĸĪ": 8733,
      "Plugin": 8734,
      "PATH": 8735,
      "NG": 8736,
      "Ln": 8737,
      "ordinate": 8738,
      "ĠDirector": 8739,
      "Ġcommunities": 8740,
      "ĠPan": 8741,
      "ä¸Ģ": 8742,
      "ĠInit": 8743,
      "WR": 8744,
      "Ġsmaller": 8745,
      "Err": 8746,
      "Ġfee": 8747,
      "Ġadvance": 8748,
      "Ġauthentic": 8749,
      "ĠMult": 8750,
      "Dest": 8751,
      "Game": 8752,
      ")',": 8753,
      "ĠLife": 8754,
      "VD": 8755,
      "Ret": 8756,
      "(.": 8757,
      "entries": 8758,
      "avour": 8759,
      "ault": 8760,
      "Space": 8761,
      "mk": 8762,
      "Scope": 8763,
      "Ġanaly": 8764,
      "fall": 8765,
      "0275": 8766,
      "live": 8767,
      "Ġidentify": 8768,
      "ĠPress": 8769,
      "sect": 8770,
      "download": 8771,
      "Ġreached": 8772,
      ".\");": 8773,
      "!==(": 8774,
      "Ġjournal": 8775,
      "Ġgeneration": 8776,
      "Ġexperiences": 8777,
      "repo": 8778,
      "door": 8779,
      "Dr": 8780,
      "KC": 8781,
      "Ġsegment": 8782,
      "\"]],": 8783,
      "Ġartist": 8784,
      "Ġ66": 8785,
      "appe": 8786,
      "Many": 8787,
      "rotate": 8788,
      "Ġearth": 8789,
      "Attributes": 8790,
      "Ġcontribut": 8791,
      "Ġthus": 8792,
      "DES": 8793,
      "prob": 8794,
      "149": 8795,
      "ĠRobert": 8796,
      "Ġspecies": 8797,
      "Ġamb": 8798,
      "Î±": 8799,
      "Ġ198": 8800,
      "CAC": 8801,
      "(['": 8802,
      "zt": 8803,
      "Screen": 8804,
      "Ġacade": 8805,
      "113": 8806,
      "Ġjourney": 8807,
      "188": 8808,
      "driver": 8809,
      "setMax": 8810,
      "Ġaim": 8811,
      "Loading": 8812,
      "Ġdaughter": 8813,
      "Ġ##": 8814,
      "Ġassum": 8815,
      "Ġpray": 8816,
      "Ġappears": 8817,
      "olved": 8818,
      "nodeName": 8819,
      "mu": 8820,
      "Ġpanic": 8821,
      "ĠExec": 8822,
      "Ġjoint": 8823,
      "grees": 8824,
      "ĠPeople": 8825,
      "Dim": 8826,
      "ĠCommission": 8827,
      "Ġtips": 8828,
      "Ġbinary": 8829,
      "Ġstandards": 8830,
      "dtype": 8831,
      "Ġemotion": 8832,
      "SION": 8833,
      "cols": 8834,
      "extension": 8835,
      "Elements": 8836,
      "Ġcaused": 8837,
      "Ġprepared": 8838,
      "/******/": 8839,
      "Shape": 8840,
      "Ġvideos": 8841,
      "ĠRef": 8842,
      "iency": 8843,
      "EA": 8844,
      "Ġfunds": 8845,
      "gICAg": 8846,
      "apache": 8847,
      "Ġrepe": 8848,
      "EP": 8849,
      "ĊĊĊĊ": 8850,
      "Js": 8851,
      "(\"+": 8852,
      "Ġconven": 8853,
      ":]": 8854,
      "Ġship": 8855,
      "services": 8856,
      "ĠMax": 8857,
      "Ġchat": 8858,
      "Comp": 8859,
      "Ġkeeping": 8860,
      "Ġchoices": 8861,
      "Ġprotocol": 8862,
      "dropdown": 8863,
      "iber": 8864,
      "onic": 8865,
      "Ġideal": 8866,
      "Ġusername": 8867,
      "pick": 8868,
      "205": 8869,
      "los": 8870,
      "animate": 8871,
      "Ġrare": 8872,
      "Ġretail": 8873,
      "ĠIT": 8874,
      "Ġcitiz": 8875,
      "ibling": 8876,
      "notify": 8877,
      "Ġtrace": 8878,
      "inds": 8879,
      "Ġarm": 8880,
      "ĠSun": 8881,
      "ĠPo": 8882,
      "ucky": 8883,
      "ĠInstitute": 8884,
      "Ġhasn": 8885,
      "pn": 8886,
      ":\"/": 8887,
      "Ġconstructor": 8888,
      "Ġdefinition": 8889,
      "igration": 8890,
      "ĠMa": 8891,
      "Async": 8892,
      "176": 8893,
      "Ġattend": 8894,
      "Ġevening": 8895,
      "ĠPack": 8896,
      "Ġcoverage": 8897,
      "osh": 8898,
      "Ġtechno": 8899,
      "olic": 8900,
      "Ġcompute": 8901,
      "Ġspring": 8902,
      "feed": 8903,
      "ĠII": 8904,
      "čĊčĊ": 8905,
      "Rh": 8906,
      "Iterator": 8907,
      "team": 8908,
      "âĢĿ,": 8909,
      "Ġfashion": 8910,
      "dn": 8911,
      "ĠAccount": 8912,
      "Ġbeat": 8913,
      "Vol": 8914,
      "binary": 8915,
      "ousing": 8916,
      "ĠFlorida": 8917,
      "Ġprepare": 8918,
      "ĠDiv": 8919,
      "Ġessay": 8920,
      "cross": 8921,
      "Ġdiet": 8922,
      "Ġ];": 8923,
      "Ġbon": 8924,
      "Did": 8925,
      "asic": 8926,
      "Ġdictionary": 8927,
      "Ġforget": 8928,
      "azine": 8929,
      "Ġlegis": 8930,
      "abet": 8931,
      "Ġsch": 8932,
      "ĠProp": 8933,
      "DEFAULT": 8934,
      "Ġexercise": 8935,
      "gp": 8936,
      "Entity": 8937,
      "missing": 8938,
      "cluded": 8939,
      "git": 8940,
      "keep": 8941,
      "Ġlose": 8942,
      "296": 8943,
      "Mg": 8944,
      "Ġflo": 8945,
      "anguages": 8946,
      "Ġteaching": 8947,
      "boot": 8948,
      "Ġspon": 8949,
      "Ġvill": 8950,
      "Expr": 8951,
      "Ġlab": 8952,
      "transaction": 8953,
      "Ġcompetition": 8954,
      "BY": 8955,
      "Ġindependent": 8956,
      "143": 8957,
      "anded": 8958,
      "Ġissu": 8959,
      "Ġcontinues": 8960,
      "Build": 8961,
      "Ġsea": 8962,
      "864": 8963,
      "CRE": 8964,
      "Ai": 8965,
      "regex": 8966,
      "Ang": 8967,
      "Ġ\"%": 8968,
      "Ġdestroy": 8969,
      "Ġlisted": 8970,
      "Ġefficient": 8971,
      "phas": 8972,
      "ĠQue": 8973,
      "orders": 8974,
      "Ġice": 8975,
      "Ġupdates": 8976,
      "Details": 8977,
      "vertex": 8978,
      "à¤°": 8979,
      "<()>": 8980,
      "browser": 8981,
      "Ġended": 8982,
      "optional": 8983,
      "Route": 8984,
      "\"]=": 8985,
      "Ġexternal": 8986,
      "imitive": 8987,
      "Ġrelax": 8988,
      "165": 8989,
      "edy": 8990,
      "outs": 8991,
      "Ġautomatically": 8992,
      "nan": 8993,
      "Ġthanks": 8994,
      "\":-": 8995,
      "%;": 8996,
      "ĠControl": 8997,
      "Fixed": 8998,
      "ĠFOR": 8999,
      "235": 9000,
      "213": 9001,
      "ĠFoundation": 9002,
      "Ġwhom": 9003,
      "Ġmentioned": 9004,
      "tcbiAg": 9005,
      "ipher": 9006,
      "roud": 9007,
      "multiple": 9008,
      "CM": 9009,
      "Ġ~": 9010,
      "Ġchanging": 9011,
      "'));": 9012,
      "Ġshowed": 9013,
      "OWN": 9014,
      "Ġaccounts": 9015,
      "Lat": 9016,
      "ĠComput": 9017,
      "Ġsmooth": 9018,
      "employ": 9019,
      "Ġscre": 9020,
      "ĠStar": 9021,
      "ĠPay": 9022,
      "Ġposts": 9023,
      "Contact": 9024,
      "ĠRock": 9025,
      "Ġdecide": 9026,
      "ĠBer": 9027,
      "ĠUSA": 9028,
      "Ġalt": 9029,
      "SY": 9030,
      "life": 9031,
      "Ġmouse": 9032,
      "\":\"ðŁ": 9033,
      "401": 9034,
      "Ġ}}": 9035,
      "Ġfilled": 9036,
      "crete": 9037,
      "memb": 9038,
      "Ġprepar": 9039,
      "Auto": 9040,
      "istan": 9041,
      "Ġ2005": 9042,
      "HH": 9043,
      "ĠRiver": 9044,
      "Ġmajority": 9045,
      "NU": 9046,
      "Ġshowing": 9047,
      "olec": 9048,
      "Ġflags": 9049,
      "ĠMal": 9050,
      "Ġshut": 9051,
      "EXT": 9052,
      "Ġradio": 9053,
      "inv": 9054,
      "Ġnoqa": 9055,
      "Ġsurv": 9056,
      "olver": 9057,
      "Ġslot": 9058,
      "endor": 9059,
      "Ġcompe": 9060,
      "typ": 9061,
      "Ġvir": 9062,
      "Ġalternative": 9063,
      "174": 9064,
      "Ġdeveloping": 9065,
      "conn": 9066,
      "ĠCH": 9067,
      "Ġidentity": 9068,
      "Ġmanaged": 9069,
      "ceeded": 9070,
      "ĠEngland": 9071,
      "Ġfolder": 9072,
      "Region": 9073,
      "ĊĊĠĠĠĠĠĠĠĠĠ": 9074,
      "Ġpresented": 9075,
      "GU": 9076,
      "KT": 9077,
      "ĠSoftware": 9078,
      "operator": 9079,
      "xB": 9080,
      "\"{": 9081,
      "Ins": 9082,
      "Ġconfirm": 9083,
      "ena": 9084,
      "flat": 9085,
      "Clear": 9086,
      "ĠSa": 9087,
      "Ñĭ": 9088,
      "Ġsig": 9089,
      "aser": 9090,
      "rated": 9091,
      "Ġpositions": 9092,
      "cu": 9093,
      "within": 9094,
      "0101": 9095,
      "oly": 9096,
      "Ġlocations": 9097,
      "Ġseemed": 9098,
      "Ġcasino": 9099,
      "Ġdescriptor": 9100,
      "Ġextends": 9101,
      "ĠRegister": 9102,
      "Ġmotor": 9103,
      "Ġinstant": 9104,
      "Ġchunk": 9105,
      "omin": 9106,
      "onym": 9107,
      "'}": 9108,
      "yan": 9109,
      "189": 9110,
      "æĺ¯": 9111,
      "rf": 9112,
      "chor": 9113,
      "ĠTre": 9114,
      "Ġsenior": 9115,
      "Ġinterpre": 9116,
      "Ġcontents": 9117,
      "Ġtechnical": 9118,
      "predict": 9119,
      "Ġdepartment": 9120,
      "issue": 9121,
      "ĠPlay": 9122,
      "ĠArc": 9123,
      "roy": 9124,
      "Ġcreation": 9125,
      "Reference": 9126,
      "urer": 9127,
      "Ġwine": 9128,
      "derr": 9129,
      "alias": 9130,
      "icago": 9131,
      "atten": 9132,
      "Ġmac": 9133,
      "Ġ52": 9134,
      "ĠFROM": 9135,
      "metrics": 9136,
      "zm": 9137,
      "ĠLou": 9138,
      "åĩ": 9139,
      "Ġcombination": 9140,
      "reshape": 9141,
      "quid": 9142,
      "Ġwatching": 9143,
      "ĠTable": 9144,
      "defaults": 9145,
      "ĠCard": 9146,
      "uing": 9147,
      "prot": 9148,
      "Press": 9149,
      "Ġclearly": 9150,
      "()?;": 9151,
      "223": 9152,
      "PP": 9153,
      "blank": 9154,
      "ĠArch": 9155,
      "Limit": 9156,
      "ĠLu": 9157,
      "Interface": 9158,
      "Ġcombined": 9159,
      "generic": 9160,
      "XR": 9161,
      "provider": 9162,
      "ĠSmith": 9163,
      "Ġrespond": 9164,
      "Email": 9165,
      "Mr": 9166,
      "onts": 9167,
      "Ġast": 9168,
      "oration": 9169,
      "Ġverify": 9170,
      "Writer": 9171,
      "osis": 9172,
      "<(),": 9173,
      "Ġleaving": 9174,
      "244": 9175,
      "&#": 9176,
      "Ġstyles": 9177,
      ";}": 9178,
      "ÑĮ": 9179,
      "Ġpassion": 9180,
      "Ij": 9181,
      "Ġvoc": 9182,
      "seconds": 9183,
      "Cor": 9184,
      "Html": 9185,
      "Mj": 9186,
      "Let": 9187,
      ">.": 9188,
      "reflect": 9189,
      "MB": 9190,
      "Ġloan": 9191,
      "ìĿ": 9192,
      "ASK": 9193,
      "ĠEngine": 9194,
      "Ġofficials": 9195,
      ")<": 9196,
      "LY": 9197,
      "ĠAv": 9198,
      "lab": 9199,
      "ĠLink": 9200,
      "eref": 9201,
      "IAA": 9202,
      "Ġcris": 9203,
      "ench": 9204,
      "ndarray": 9205,
      "210": 9206,
      "Ġwedding": 9207,
      "\",!": 9208,
      "oa": 9209,
      "anese": 9210,
      "Ġfocused": 9211,
      "Ġminor": 9212,
      "bert": 9213,
      "RUFB": 9214,
      "Ġsaved": 9215,
      "ander": 9216,
      "ĠLeg": 9217,
      "ĠDeserialize": 9218,
      "Ġsector": 9219,
      "Ġabs": 9220,
      "ĠLin": 9221,
      "čĊĠĠĠĠĠĠĠĠĠ": 9222,
      "Ġadapt": 9223,
      "Qs": 9224,
      "Ġpresence": 9225,
      "deser": 9226,
      "Complete": 9227,
      "Stats": 9228,
      "assets": 9229,
      "Ġvision": 9230,
      "Ċĉĉĉĉĉĉĉĉĉĉ": 9231,
      "sleep": 9232,
      ":{},": 9233,
      "Ġthousands": 9234,
      "194": 9235,
      "Ġlaws": 9236,
      "DT": 9237,
      "stable": 9238,
      "]&&(": 9239,
      "Cap": 9240,
      "DIR": 9241,
      "Ġconflict": 9242,
      "gas": 9243,
      "ratio": 9244,
      "relation": 9245,
      "oves": 9246,
      "reams": 9247,
      "extern": 9248,
      "Ä±": 9249,
      "ĠLike": 9250,
      "ENSE": 9251,
      "\"}}": 9252,
      "umin": 9253,
      "Ġ38": 9254,
      "Lock": 9255,
      "\"){": 9256,
      "Ġwinter": 9257,
      "}));": 9258,
      "validation": 9259,
      "Ġregistered": 9260,
      "ĠLear": 9261,
      "ouses": 9262,
      "units": 9263,
      "utive": 9264,
      "ĠMex": 9265,
      "å¸Ĥ": 9266,
      "Ġleaves": 9267,
      "Ġquote": 9268,
      "Note": 9269,
      "lint": 9270,
      "Ġvisible": 9271,
      "229": 9272,
      "Ġsalt": 9273,
      "irmed": 9274,
      "ĠInput": 9275,
      "idi": 9276,
      "ĠIns": 9277,
      "Ġsquare": 9278,
      "ented": 9279,
      "ĠCommand": 9280,
      "timer": 9281,
      "Ġoccur": 9282,
      ")])": 9283,
      "226": 9284,
      "quee": 9285,
      "Ġsess": 9286,
      "ĠĠĠĠĠĠĠĠĠĠĠĠĠĠĠĠĠĠĠĠĠĠĠ": 9287,
      "imb": 9288,
      "notation": 9289,
      "ĠMibTable": 9290,
      "åĮº": 9291,
      "ĠProv": 9292,
      "orney": 9293,
      ")}(": 9294,
      "Ġ65": 9295,
      "ixels": 9296,
      "Ġarchitect": 9297,
      "Ġgeneric": 9298,
      "Two": 9299,
      "Series": 9300,
      "tick": 9301,
      "WV": 9302,
      "Ġfr": 9303,
      "Ġkn": 9304,
      "2016": 9305,
      "ushed": 9306,
      "Ġspread": 9307,
      "configuration": 9308,
      "kes": 9309,
      "Ġscroll": 9310,
      "requ": 9311,
      "Ġagreement": 9312,
      "Ġdress": 9313,
      "Ġplenty": 9314,
      "ĠMount": 9315,
      "ynchron": 9316,
      "SR": 9317,
      "Ġphase": 9318,
      "abin": 9319,
      "Ð¼": 9320,
      "Ġembed": 9321,
      "Ġdiscuss": 9322,
      "Ġwelcome": 9323,
      "take": 9324,
      "Ġtit": 9325,
      "307": 9326,
      "ishes": 9327,
      "Ġspending": 9328,
      "ĠCO": 9329,
      "IZ": 9330,
      "deed": 9331,
      "formance": 9332,
      "à°": 9333,
      "Ġproperly": 9334,
      "Ġbecoming": 9335,
      "Ġban": 9336,
      "lands": 9337,
      "qq": 9338,
      "Qix": 9339,
      "Ġbott": 9340,
      "ĠLine": 9341,
      "ĠAfrica": 9342,
      "177": 9343,
      "secret": 9344,
      "hasClass": 9345,
      "Ġ----------": 9346,
      "visit": 9347,
      "Support": 9348,
      "FA": 9349,
      "Ġposted": 9350,
      "alm": 9351,
      "FORM": 9352,
      "Ġperformed": 9353,
      "Ġagency": 9354,
      "Ġ'';": 9355,
      "LENBQUMs": 9356,
      "Ġprocesses": 9357,
      "+/": 9358,
      "170": 9359,
      "MIN": 9360,
      "509": 9361,
      "scores": 9362,
      "shop": 9363,
      "ĠÑģ": 9364,
      "circle": 9365,
      "Ġsexual": 9366,
      "ĠProduct": 9367,
      "Ġstroke": 9368,
      "kw": 9369,
      "Ġrelationships": 9370,
      "Ġenabled": 9371,
      "organ": 9372,
      "Ġsql": 9373,
      ">(&": 9374,
      "variables": 9375,
      "216": 9376,
      "Defin": 9377,
      "aming": 9378,
      "icken": 9379,
      "lb": 9380,
      "built": 9381,
      "à¥į": 9382,
      "Ġestate": 9383,
      "stdout": 9384,
      "cmV": 9385,
      "ĠMedia": 9386,
      "Ġfootball": 9387,
      ":%": 9388,
      "Ġbright": 9389,
      "supported": 9390,
      "=+": 9391,
      "Ġskill": 9392,
      "Ñĩ": 9393,
      "esterday": 9394,
      "identifier": 9395,
      "Why": 9396,
      "ĠOnline": 9397,
      "Ah": 9398,
      "MU": 9399,
      "+-": 9400,
      "oy": 9401,
      "áŀ": 9402,
      "Ġmerge": 9403,
      "Ġkid": 9404,
      "ientation": 9405,
      "condition": 9406,
      "Ġwilling": 9407,
      "HL": 9408,
      "quote": 9409,
      "Ġsnow": 9410,
      "+\")": 9411,
      "Ġsuccessfully": 9412,
      "ĠLake": 9413,
      ":\"[": 9414,
      "qr": 9415,
      "Ġaward": 9416,
      "Ġta": 9417,
      "KAA": 9418,
      "!\"": 9419,
      "Ġencoding": 9420,
      "Â·": 9421,
      "308": 9422,
      "Ġslice": 9423,
      "CONF": 9424,
      "ĠAlthough": 9425,
      "Ġpython": 9426,
      "PAR": 9427,
      "Ġrect": 9428,
      "Application": 9429,
      "Cluster": 9430,
      "yr": 9431,
      "æĿ": 9432,
      "invoke": 9433,
      "ĠWater": 9434,
      "ĠMessage": 9435,
      "Helper": 9436,
      "Ġproto": 9437,
      "ĠScience": 9438,
      "WF": 9439,
      "constant": 9440,
      "Oi": 9441,
      "131": 9442,
      "nergy": 9443,
      "Ġpatch": 9444,
      "Ġdisabled": 9445,
      "install": 9446,
      "rooms": 9447,
      "contact": 9448,
      "\":[\"": 9449,
      "DateTime": 9450,
      "Ġdespite": 9451,
      "Ġwit": 9452,
      "1024": 9453,
      "Ġoperating": 9454,
      "reply": 9455,
      "hav": 9456,
      "repeat": 9457,
      "('./": 9458,
      "olly": 9459,
      "Am": 9460,
      "ĠClick": 9461,
      "Ġepoch": 9462,
      "share": 9463,
      "hetic": 9464,
      "etween": 9465,
      "ĠHall": 9466,
      "iation": 9467,
      "Rest": 9468,
      "Ġsustain": 9469,
      "Ġadvanced": 9470,
      "Ġblocks": 9471,
      "lon": 9472,
      "Ġtsd": 9473,
      "ships": 9474,
      "rx": 9475,
      "čĊĠĠĠĠ": 9476,
      "lla": 9477,
      "Ġexamples": 9478,
      "Art": 9479,
      "ubb": 9480,
      "calendar": 9481,
      "ĠConstraint": 9482,
      "Ġ75": 9483,
      "Ġexcited": 9484,
      "ĊĉĠ": 9485,
      "arc": 9486,
      ":\",": 9487,
      "Single": 9488,
      "unks": 9489,
      "Propagation": 9490,
      "Ġpermission": 9491,
      "Ġasset": 9492,
      "ĠTwo": 9493,
      "Ġimplemented": 9494,
      ")?(": 9495,
      "Ġmedium": 9496,
      "å½": 9497,
      "Ġbrief": 9498,
      "345": 9499,
      "Ġapplicable": 9500,
      "Multi": 9501,
      "coin": 9502,
      "Lib": 9503,
      "Ġsurround": 9504,
      "Ġleadership": 9505,
      "Mock": 9506,
      "ĠĊĠĠĠĠĠĠĠĠĠĠĠ": 9507,
      "Ġcraft": 9508,
      "ĠOutput": 9509,
      "ĠDemocr": 9510,
      "ITE": 9511,
      "Ġprefer": 9512,
      "Ġanimals": 9513,
      "Ġlabor": 9514,
      "Comput": 9515,
      "emy": 9516,
      "aration": 9517,
      "Uint": 9518,
      "ÙĦ": 9519,
      "Place": 9520,
      "ĊĊĠĠĠĠĠĠĠĠĠĠĠĠĠĠĠĠĠĠĠĠĠĠĠ": 9521,
      "Ġpartial": 9522,
      "compare": 9523,
      "ien": 9524,
      "âĢĺ": 9525,
      "ras": 9526,
      "ĠWord": 9527,
      ".\"]": 9528,
      "ih": 9529,
      "ĠRad": 9530,
      "release": 9531,
      "Ġhab": 9532,
      "ĠCamp": 9533,
      "mix": 9534,
      "Ġvan": 9535,
      "ĠChinese": 9536,
      "Runtime": 9537,
      "Batch": 9538,
      "Cannot": 9539,
      "Ġexchange": 9540,
      "La": 9541,
      "Ġdedicated": 9542,
      "ĠResponse": 9543,
      "Ġentries": 9544,
      ").__": 9545,
      "hot": 9546,
      "GO": 9547,
      "175": 9548,
      "Ġloaded": 9549,
      "åİ¿": 9550,
      "setMaxAccess": 9551,
      "UFB": 9552,
      "UTC": 9553,
      "Ġalloc": 9554,
      "Ready": 9555,
      "Ġpolicies": 9556,
      "tailed": 9557,
      "Ġteacher": 9558,
      "Ġbot": 9559,
      "Ġil": 9560,
      "Ġshopping": 9561,
      "FE": 9562,
      "Ġpm": 9563,
      "ĠWhether": 9564,
      "Ġinstalled": 9565,
      "slider": 9566,
      "Comment": 9567,
      "legend": 9568,
      "Ġstored": 9569,
      "subject": 9570,
      "Ġdecisions": 9571,
      "ä¿": 9572,
      "Draw": 9573,
      "ventory": 9574,
      "]){": 9575,
      "Mapping": 9576,
      "374": 9577,
      "xC": 9578,
      "Results": 9579,
      "Ġdecre": 9580,
      "Ġë": 9581,
      "Direction": 9582,
      "Ġxml": 9583,
      "Ġpractices": 9584,
      "178": 9585,
      "Ġnur": 9586,
      "Ġ150": 9587,
      "ĠEnter": 9588,
      "Ġna": 9589,
      "Send": 9590,
      "ĠVir": 9591,
      "305": 9592,
      "elm": 9593,
      "Just": 9594,
      "åĨ": 9595,
[...]
