{
  "version": "1.0",
  "truncation": null,
  "padding": null,
  "added_tokens": [
    {
      "id": 0,
      "content": "<pad>",
      "single_word": false,
      "lstrip": false,
      "rstrip": false,
      "normalized": false,
      "special": true
    },
    {
      "id": 1,
      "content": "<unk>",
      "single_word": false,
      "lstrip": false,
      "rstrip": false,
      "normalized": false,
      "special": true
    },
    {
      "id": 2,
      "content": "<s>",
      "single_word": false,
      "lstrip": false,
      "rstrip": false,
      "normalized": false,
      "special": true
    },
    {
      "id": 3,
      "content": "</s>",
      "single_word": false,
      "lstrip": false,
      "rstrip": false,
      "normalized": false,
      "special": true
    }
  ],
  "normalizer": null,
  "pre_tokenizer": {
    "type": "ByteLevel",
    "add_prefix_space": false,
    "trim_offsets": true,
    "use_regex": true
  },
  "post_processor": null,
  "decoder": {
    "type": "ByteLevel",
    "add_prefix_space": true,
    "trim_offsets": true,
    "use_regex": true
  },
  "model": {
    "type": "BPE",
    "dropout": null,
    "unk_token": null,
    "continuing_subword_prefix": null,
    "end_of_word_suffix": null,
    "fuse_unk": false,
    "byte_fallback": false,
    "ignore_merges": false,
    "vocab": {
      "<pad>": 0,
      "<unk>": 1,
      "<s>": 2,
      "</s>": 3,
      "!": 4,
      "\"": 5,
      "#": 6,
      "$": 7,
      "%": 8,
      "&": 9,
      "'": 10,
      "(": 11,
      ")": 12,
      "*": 13,
      "+": 14,
      ",": 15,
      "-": 16,
      ".": 17,
      "/": 18,
      "0": 19,
      "1": 20,
      "2": 21,
      "3": 22,
      "4": 23,
      "5": 24,
      "6": 25,
      "7": 26,
      "8": 27,
      "9": 28,
      ":": 29,
      ";": 30,
      "<": 31,
      "=": 32,
      ">": 33,
      "?": 34,
      "@": 35,
      "A": 36,
      "B": 37,
      "C": 38,
      "D": 39,
      "E": 40,
      "F": 41,
      "G": 42,
      "H": 43,
      "I": 44,
      "J": 45,
      "K": 46,
      "L": 47,
      "M": 48,
      "N": 49,
      "O": 50,
      "P": 51,
      "Q": 52,
      "R": 53,
      "S": 54,
      "T": 55,
      "U": 56,
      "V": 57,
      "W": 58,
      "X": 59,
      "Y": 60,
      "Z": 61,
      "[": 62,
      "\\": 63,
      "]": 64,
      "^": 65,
      "_": 66,
      "`": 67,
      "a": 68,
      "b": 69,
      "c": 70,
      "d": 71,
      "e": 72,
      "f": 73,
      "g": 74,
      "h": 75,
      "i": 76,
      "j": 77,
      "k": 78,
      "l": 79,
      "m": 80,
      "n": 81,
      "o": 82,
      "p": 83,
      "q": 84,
      "r": 85,
      "s": 86,
      "t": 87,
      "u": 88,
      "v": 89,
      "w": 90,
      "x": 91,
      "y": 92,
      "z": 93,
      "{": 94,
      "|": 95,
      "}": 96,
      "~": 97,
      "¡": 98,
      "¢": 99,
      "£": 100,
      "¤": 101,
      "¥": 102,
      "¦": 103,
      "§": 104,
      "¨": 105,
      "©": 106,
      "ª": 107,
      "«": 108,
      "¬": 109,
      "®": 110,
      "¯": 111,
      "°": 112,
      "±": 113,
      "²": 114,
      "³": 115,
      "´": 116,
      "µ": 117,
      "¶": 118,
      "·": 119,
      "¸": 120,
      "¹": 121,
      "º": 122,
      "»": 123,
      "¼": 124,
      "½": 125,
      "¾": 126,
      "¿": 127,
      "Â": 128,
      "Ã": 129,
      "Ä": 130,
      "Å": 131,
      "Æ": 132,
      "Ç": 133,
      "È": 134,
      "É": 135,
      "Ê": 136,
      "Ë": 137,
      "Ì": 138,
      "Í": 139,
      "Î": 140,
      "Ï": 141,
      "Ð": 142,
      "Ñ": 143,
      "Ò": 144,
      "Ó": 145,
      "Ô": 146,
      "Õ": 147,
      "Ö": 148,
      "×": 149,
      "Ø": 150,
      "Ù": 151,
      "Ú": 152,
      "Û": 153,
      "Ü": 154,
      "Þ": 155,
      "à": 156,
      "á": 157,
      "â": 158,
      "ã": 159,
      "ä": 160,
      "å": 161,
      "æ": 162,
      "ç": 163,
      "è": 164,
      "é": 165,
      "ê": 166,
      "ë": 167,
      "ì": 168,
      "í": 169,
      "î": 170,
      "ï": 171,
      "ð": 172,
      "ó": 173,
      "Ċ": 174,
      "Ġ": 175,
      "ġ": 176,
      "Ģ": 177,
      "ģ": 178,
      "Ĥ": 179,
      "ĥ": 180,
      "Ħ": 181,
      "ħ": 182,
      "Ĩ": 183,
      "ĩ": 184,
      "Ī": 185,
      "ī": 186,
      "Ĭ": 187,
      "ĭ": 188,
      "Į": 189,
      "į": 190,
      "İ": 191,
      "ı": 192,
      "Ĳ": 193,
      "ĳ": 194,
      "Ĵ": 195,
      "ĵ": 196,
      "Ķ": 197,
      "ķ": 198,
      "ĸ": 199,
      "Ĺ": 200,
      "ĺ": 201,
      "Ļ": 202,
      "ļ": 203,
      "Ľ": 204,
      "ľ": 205,
      "Ŀ": 206,
      "ŀ": 207,
      "Ł": 208,
      "ł": 209,
      "Ń": 210,
      "Ġt": 211,
      "Ġa": 212,
      "he": 213,
      "in": 214,
      "re": 215,
      "Ġthe": 216,
      "on": 217,
      "er": 218,
      "Ġs": 219,
      "Ġw": 220,
      "at": 221,
      "Ġo": 222,
      "en": 223,
      "Ġc": 224,
      "it": 225,
      "is": 226,
      "an": 227,
      "or": 228,
      "Ġb": 229,
      "ed": 230,
      "es": 231,
      "Ġf": 232,
      "ing": 233,
      "Ġp": 234,
      "ou": 235,
      "Ġan": 236,
      "al": 237,
      "Ġto": 238,
      "ar": 239,
      "Ġm": 240,
      "Ġin": 241,
      "Ġof": 242,
      "Ġd": 243,
      "Ġh": 244,
      "âĢ": 245,
      "as": 246,
      "ic": 247,
      "Ġand": 248,
      "Ġth": 249,
      "le": 250,
      "om": 251,
      "ion": 252,
      "ll": 253,
      "ent": 254,
      "Ġn": 255,
      "Ġl": 256,
      "Ġre": 257,
      "st": 258,
      "ve": 259,
      "ly": 260,
      "Ġe": 261,
      "Ġbe": 262,
      "Ġg": 263,
      "ro": 264,
      "id": 265,
      "ut": 266,
      "ac": 267,
      "ot": 268,
      "ĠT": 269,
      "Ġthat": 270,
      "ĠI": 271,
      "Ġon": 272,
      "ay": 273,
      "Ġis": 274,
      "ĠS": 275,
      "im": 276,
      "et": 277,
      "am": 278,
      "ad": 279,
      "ow": 280,
      "ig": 281,
      "Ġfor": 282,
      "se": 283,
      "âĢĻ": 284,
      "ver": 285,
      "ĠA": 286,
      "ld": 287,
      "ct": 288,
      "ur": 289,
      "ĠC": 290,
      "Ġu": 291,
      "Ġst": 292,
      "Ġy": 293,
      "Ġit": 294,
      "Ġhe": 295,
      "ir": 296,
      "ation": 297,
      "ith": 298,
      "Ġwh": 299,
      "ĠM": 300,
      "ce": 301,
      "ter": 302,
      "ol": 303,
      "Ġwe": 304,
      "il": 305,
      "Ġwith": 306,
      "Ġas": 307,
      "ĠB": 308,
      "ch": 309,
      "ill": 310,
      "nd": 311,
      "Ġwas": 312,
      "Ġyou": 313,
      "ers": 314,
      "ĠP": 315,
      "ke": 316,
      "ĠâĢ": 317,
      "Ġcon": 318,
      "Ġde": 319,
      "Ġr": 320,
      "her": 321,
      "if": 322,
      "ate": 323,
      "ag": 324,
      "Ġat": 325,
      "Ġha": 326,
      "ĠW": 327,
      "Ġse": 328,
      "ĠH": 329,
      "ore": 330,
      "ul": 331,
      "Ġpro": 332,
      "pp": 333,
      "ment": 334,
      "ri": 335,
      "Ġare": 336,
      "Ġ1": 337,
      "est": 338,
      "Ġcom": 339,
      "and": 340,
      "ĠD": 341,
      "ist": 342,
      "us": 343,
      "op": 344,
      "ĠThe": 345,
      "ain": 346,
      "ĠR": 347,
      "igh": 348,
      "Ġ2": 349,
      "rom": 350,
      "Ġ(": 351,
      "ort": 352,
      "od": 353,
      "ĠF": 354,
      "Ġne": 355,
      "Ġex": 356,
      "un": 357,
      "um": 358,
      "res": 359,
      "Ġnot": 360,
      "ab": 361,
      "âĢĿ": 362,
      "Ġv": 363,
      "ĠN": 364,
      "ity": 365,
      "ess": 366,
      "ould": 367,
      "Ġhave": 368,
      "em": 369,
      "Ġor": 370,
      "th": 371,
      "ĠG": 372,
      "Ġby": 373,
      "ant": 374,
      "os": 375,
      "ive": 376,
      "Ġfrom": 377,
      "Ġal": 378,
      "el": 379,
      "'s": 380,
      "Ġsu": 381,
      "art": 382,
      "oc": 383,
      "Ġsh": 384,
      "ĠL": 385,
      "nt": 386,
      "Ġthis": 387,
      "qu": 388,
      "ight": 389,
      "ust": 390,
      "pe": 391,
      "Ġle": 392,
      "ies": 393,
      "end": 394,
      "Ġch": 395,
      "ĠE": 396,
      "Ġsa": 397,
      "out": 398,
      "The": 399,
      "Ġab": 400,
      "all": 401,
      "red": 402,
      "ack": 403,
      "ie": 404,
      "ally": 405,
      "ĠâĢľ": 406,
      "00": 407,
      "Ġhas": 408,
      "Ġpl": 409,
      "Ġgo": 410,
      "ĠJ": 411,
      "ard": 412,
      "ome": 413,
      "ap": 414,
      "iv": 415,
      "Ġhis": 416,
      "gh": 417,
      "ĠO": 418,
      "ost": 419,
      "our": 420,
      "ear": 421,
      "Ġtr": 422,
      "Ġj": 423,
      "ast": 424,
      "ak": 425,
      "ud": 426,
      "Ġdo": 427,
      "Ġthey": 428,
      "Ġbut": 429,
      "Ġwor": 430,
      "rou": 431,
      "ge": 432,
      "Ġcan": 433,
      "Ġsaid": 434,
      "Ġwhe": 435,
      "Ġwill": 436,
      "ĠU": 437,
      "Ġk": 438,
      "Ġ\"": 439,
      "ich": 440,
      "ok": 441,
      "Ġall": 442,
      "Ġwho": 443,
      "ide": 444,
      "Ġint": 445,
      "ial": 446,
      "ther": 447,
      "ame": 448,
      "ans": 449,
      "Ġout": 450,
      "ff": 451,
      "Ġtheir": 452,
      "ice": 453,
      "ong": 454,
      "ect": 455,
      "pl": 456,
      "ure": 457,
      "pt": 458,
      "one": 459,
      "Ġmore": 460,
      "act": 461,
      "age": 462,
      "ions": 463,
      "ous": 464,
      "ike": 465,
      "Ġme": 466,
      "Ġup": 467,
      "Ġad": 468,
      "ine": 469,
      "Ġabout": 470,
      "ated": 471,
      "ra": 472,
      "ber": 473,
      "Ġwere": 474,
      "Ġso": 475,
      "Ġone": 476,
      "Ġus": 477,
      "Ġhad": 478,
      "ime": 479,
      "og": 480,
      "are": 481,
      "ub": 482,
      "ia": 483,
      "ep": 484,
      "ĠK": 485,
      "Ġwould": 486,
      "cc": 487,
      "Ġwhich": 488,
      "ake": 489,
      "Ġ20": 490,
      "Ġim": 491,
      "ue": 492,
      "Ġcl": 493,
      "ind": 494,
      "Ġag": 495,
      "Ġcont": 496,
      "iz": 497,
      "Ġcomp": 498,
      "very": 499,
      "Ġoff": 500,
      "Ġte": 501,
      "Ġbeen": 502,
      "Ġun": 503,
      "Ġen": 504,
      "ĠSt": 505,
      "per": 506,
      "au": 507,
      "ign": 508,
      "so": 509,
      "ĠTh": 510,
      "ace": 511,
      "ary": 512,
      "ip": 513,
      "Ġyear": 514,
      "ven": 515,
      "ew": 516,
      "ere": 517,
      "Ġlike": 518,
      "Ġinc": 519,
      "ook": 520,
      "ays": 521,
      "Ġpe": 522,
      "Ġman": 523,
      "ose": 524,
      "Ġres": 525,
      "ry": 526,
      "Ġper": 527,
      "ite": 528,
      "ord": 529,
      "able": 530,
      "Ġsp": 531,
      "ass": 532,
      "Ġother": 533,
      "ire": 534,
      "ĠIn": 535,
      "Ġsome": 536,
      "mer": 537,
      "ople": 538,
      "ence": 539,
      "ib": 540,
      "ile": 541,
      "Ġover": 542,
      "Ġthere": 543,
      "ations": 544,
      "Ġ201": 545,
      "ress": 546,
      "ult": 547,
      "ical": 548,
      "Ġnew": 549,
      "ks": 550,
      "Ġthan": 551,
      "own": 552,
      "Ġdis": 553,
      "Ġbec": 554,
      "int": 555,
      "ount": 556,
      "ough": 557,
      "ance": 558,
      "Ġar": 559,
      "Ġalso": 560,
      "ru": 561,
      "Ġthem": 562,
      "Ġwhat": 563,
      "port": 564,
      "Ġapp": 565,
      "Ġwhen": 566,
      "ree": 567,
      "Ġpart": 568,
      "fter": 569,
      "Ġpeople": 570,
      "Ġyour": 571,
      "ail": 572,
      "ond": 573,
      "Ġqu": 574,
      "Ġsc": 575,
      "orm": 576,
      "ase": 577,
      "ĠCh": 578,
      "Ġjust": 579,
      "Ġany": 580,
      "av": 581,
      "ĠY": 582,
      "Ġkn": 583,
      "Ġits": 584,
      "ĠIt": 585,
      "Ġtime": 586,
      "ach": 587,
      "Ġher": 588,
      "lic": 589,
      "Ġrec": 590,
      "ens": 591,
      "Ġmy": 592,
      "ĠV": 593,
      "Ġget": 594,
      "Ġif": 595,
      "reat": 596,
      ".âĢĿ": 597,
      "Ġinto": 598,
      "irst": 599,
      "Ġ3": 600,
      "vel": 601,
      "ian": 602,
      "ound": 603,
      "Ġtw": 604,
      "Ġno": 605,
      "ction": 606,
      "du": 607,
      "Ġwork": 608,
      "ory": 609,
      "ings": 610,
      "ident": 611,
      "ition": 612,
      "Ġour": 613,
      "Ġco": 614,
      "ick": 615,
      "ors": 616,
      "ang": 617,
      "Ġ19": 618,
      "Ġpre": 619,
      "ob": 620,
      "wn": 621,
      "ause": 622,
      "ink": 623,
      "ark": 624,
      "Ġpol": 625,
      "Ġplay": 626,
      "Ġ-": 627,
      "Ġshe": 628,
      "ates": 629,
      "ade": 630,
      "ish": 631,
      "te": 632,
      "Ġro": 633,
      "Ġafter": 634,
      "amp": 635,
      "vers": 636,
      "ove": 637,
      "aw": 638,
      ",âĢĿ": 639,
      "Ġcould": 640,
      "Ġfirst": 641,
      "ell": 642,
      "ious": 643,
      "nder": 644,
      "Ġhim": 645,
      "Ġhow": 646,
      "Ġacc": 647,
      "ĠHe": 648,
      "ons": 649,
      "ild": 650,
      "'t": 651,
      "Ġonly": 652,
      "Ġpr": 653,
      "Ġpo": 654,
      "ne": 655,
      "Ġatt": 656,
      "hed": 657,
      "ict": 658,
      "rit": 659,
      "Ġtwo": 660,
      "Ġcomm": 661,
      "Ġspe": 662,
      ".\"": 663,
      "hing": 664,
      "âĢľ": 665,
      "Ġact": 666,
      "ov": 667,
      "erv": 668,
      "Ġbl": 669,
      "ft": 670,
      "Ġdec": 671,
      "form": 672,
      "Ġbet": 673,
      "Ġback": 674,
      "ning": 675,
      "ood": 676,
      "Ġmost": 677,
      "ces": 678,
      "Ġam": 679,
      "Ġfe": 680,
      "Ġdid": 681,
      "round": 682,
      "ck": 683,
      "ĠâĢĵ": 684,
      "we": 685,
      "ater": 686,
      "iff": 687,
      "oy": 688,
      "rough": 689,
      "Ġdes": 690,
      "Ġagain": 691,
      "Ġ4": 692,
      "Ġunder": 693,
      "ual": 694,
      "Ġcons": 695,
      "day": 696,
      "Ġwant": 697,
      "iss": 698,
      "Ġ$": 699,
      "ise": 700,
      "ublic": 701,
      "lud": 702,
      "Ġnow": 703,
      "sel": 704,
      "ull": 705,
      "Ġyears": 706,
      "Ġeven": 707,
      "ents": 708,
      "Ġbecause": 709,
      "tern": 710,
      "man": 711,
      "Ġinv": 712,
      ",\"": 713,
      "Ġknow": 714,
      "Ġneed": 715,
      "ced": 716,
      "ec": 717,
      "ĠâĢĶ": 718,
      "Ġind": 719,
      "Ġsee": 720,
      "old": 721,
      "Ġsec": 722,
      "ting": 723,
      "Ġadd": 724,
      "ments": 725,
      "uch": 726,
      "fore": 727,
      "ĠUn": 728,
      "Ġevery": 729,
      "pect": 730,
      "Ġsupp": 731,
      "urn": 732,
      "Ġmake": 733,
      "Ġem": 734,
      "Ġ5": 735,
      "Ġthese": 736,
      "vern": 737,
      "oll": 738,
      "In": 739,
      "ock": 740,
      "ational": 741,
      "ject": 742,
      "Ġwhere": 743,
      "Ġev": 744,
      "Ġbu": 745,
      "oss": 746,
      "Ġlook": 747,
      "xt": 748,
      "âĢĶ": 749,
      "Th": 750,
      "ĠWe": 751,
      "Ġright": 752,
      "ĠAnd": 753,
      "Ġway": 754,
      "Ġcall": 755,
      "Ġbeing": 756,
      "ating": 757,
      "row": 758,
      "Ġdon": 759,
      "Ġmay": 760,
      "Ġthen": 761,
      "lect": 762,
      "Ġrem": 763,
      "Ġmany": 764,
      "ily": 765,
      "ied": 766,
      "Ġdiff": 767,
      "ased": 768,
      "Ġfl": 769,
      "Ġdef": 770,
      "Ġinclud": 771,
      "Ġpres": 772,
      "Ġrel": 773,
      "iew": 774,
      "Ġreg": 775,
      "ont": 776,
      "Ġthink": 777,
      "ng": 778,
      "ath": 779,
      "ĠBut": 780,
      "aking": 781,
      "ited": 782,
      "ason": 783,
      "ump": 784,
      "Ġsy": 785,
      "meric": 786,
      "ower": 787,
      "Ġimp": 788,
      "rib": 789,
      "..": 790,
      "les": 791,
      "Ġsay": 792,
      "Ġshould": 793,
      ").": 794,
      "Ġthrough": 795,
      "Ġvery": 796,
      "Ġmuch": 797,
      "Ġthose": 798,
      "ĠTr": 799,
      "uring": 800,
      "ty": 801,
      "Ġlast": 802,
      "other": 803,
      "Ġstate": 804,
      "ities": 805,
      "ĠThis": 806,
      "ĠWh": 807,
      "Ġ[": 808,
      "tle": 809,
      "ss": 810,
      "ative": 811,
      "Ġcount": 812,
      "ific": 813,
      "oth": 814,
      "Ġ200": 815,
      "Ġshow": 816,
      "Ġwell": 817,
      "arg": 818,
      "Ġph": 819,
      "Ġbel": 820,
      "hen": 821,
      "ics": 822,
      "arly": 823,
      "Ġown": 824,
      "als": 825,
      "Ġend": 826,
      "Ġgovern": 827,
      "Ġdown": 828,
      "ange": 829,
      "Ġbr": 830,
      "und": 831,
      "Ġdoes": 832,
      "ince": 833,
      "Ġass": 834,
      "Ġuse": 835,
      "ward": 836,
      "Ġreport": 837,
      "Ġmon": 838,
      "Ġlong": 839,
      "ĠAmeric": 840,
      "ters": 841,
      "up": 842,
      "Ġbefore": 843,
      "ts": 844,
      "omet": 845,
      "gr": 846,
      "ible": 847,
      "ble": 848,
      "Ġstart": 849,
      "ĠNew": 850,
      "ues": 851,
      "Ġke": 852,
      "ife": 853,
      "oun": 854,
      "olog": 855,
      "Ġmade": 856,
      "ener": 857,
      "),": 858,
      "Ġsuch": 859,
      "Ġfin": 860,
      "ix": 861,
      "Ġsm": 862,
      "ms": 863,
      "ually": 864,
      "tain": 865,
      "Ġgoing": 866,
      "Ġteam": 867,
      "erson": 868,
      "It": 869,
      "Ġworld": 870,
      "ility": 871,
      "ars": 872,
      "ren": 873,
      "Ġstud": 874,
      "ful": 875,
      "Ġgood": 876,
      "ek": 877,
      "Ġhel": 878,
      "Ġsub": 879,
      "stem": 880,
      "its": 881,
      "com": 882,
      "Ġac": 883,
      "ists": 884,
      "Ġent": 885,
      "Ġsur": 886,
      "ork": 887,
      "Ġagainst": 888,
      "Ġeff": 889,
      "Ġgu": 890,
      "roup": 891,
      "ys": 892,
      "Ġgr": 893,
      "Ġlead": 894,
      "Ġset": 895,
      "Ġ6": 896,
      "imes": 897,
      "ax": 898,
      "Ġmin": 899,
      "gan": 900,
      "Ġgame": 901,
      "Ġpoint": 902,
      "000": 903,
      "Ġsays": 904,
      "ween": 905,
      "ism": 906,
      "Ġstill": 907,
      "Ġprov": 908,
      "cy": 909,
      "li": 910,
      "Ġprodu": 911,
      "Ġwhile": 912,
      "alk": 913,
      "ef": 914,
      "illion": 915,
      "ank": 916,
      "Ġlaw": 917,
      "Ġstr": 918,
      "Ġcr": 919,
      "Ġhelp": 920,
      "Ġinst": 921,
      "Ġinter": 922,
      "air": 923,
      "Ġcol": 924,
      "Ġtake": 925,
      "Ġoffic": 926,
      "Ġconf": 927,
      "cess": 928,
      "Ġob": 929,
      "self": 930,
      "Ġthough": 931,
      ".[": 932,
      "Ġsim": 933,
      "Ġhigh": 934,
      "ool": 935,
      "Ġgovernment": 936,
      "io": 937,
      "Ġbetween": 938,
      "Ġed": 939,
      "Ġdiffere": 940,
      "read": 941,
      "Ġsame": 942,
      "Ġop": 943,
      "ci": 944,
      "land": 945,
      "ever": 946,
      "way": 947,
      "Ġnum": 948,
      "ah": 949,
      "cent": 950,
      "ollow": 951,
      "ĠRe": 952,
      "ures": 953,
      "led": 954,
      "arch": 955,
      "ted": 956,
      "ution": 957,
      "Ġsign": 958,
      "atch": 959,
      "ner": 960,
      "ames": 961,
      "Ġter": 962,
      "hip": 963,
      "Ġmem": 964,
      "Ġaround": 965,
      "Ġsomet": 966,
      "velop": 967,
      "any": 968,
      "ten": 969,
      "Ġref": 970,
      "hes": 971,
      "gg": 972,
      "Ġfound": 973,
      "Ġsystem": 974,
      "ather": 975,
      "Ġins": 976,
      "ave": 977,
      "Ġcour": 978,
      "Ġreal": 979,
      "Ġtrans": 980,
      "Ġthree": 981,
      "az": 982,
      "ouse": 983,
      "Ġser": 984,
      "Ġdisc": 985,
      "--": 986,
      "We": 987,
      "Ġrun": 988,
      "ĠYou": 989,
      "ives": 990,
      "ved": 991,
      "oot": 992,
      "uss": 993,
      "Ġexp": 994,
      "Ġused": 995,
      "cer": 996,
      "Ġgroup": 997,
      "ving": 998,
      "Ġ10": 999,
      "Ġmed": 1000,
      "Ġhere": 1001,
      "Ġpublic": 1002,
      "cept": 1003,
      "Ġreally": 1004,
      "ĠAr": 1005,
      "ĠLe": 1006,
      "ĠAl": 1007,
      "Ġ7": 1008,
      "Ġsupport": 1009,
      "Ġspec": 1010,
      "Ġext": 1011,
      "ph": 1012,
      "Ġhand": 1013,
      "ale": 1014,
      "ying": 1015,
      "Ġmod": 1016,
      "Ġgreat": 1017,
      "Ġfact": 1018,
      "con": 1019,
      "Ġret": 1020,
      "ins": 1021,
      "ton": 1022,
      "Ġcar": 1023,
      "Ġexper": 1024,
      "Ġfam": 1025,
      "pr": 1026,
      "ets": 1027,
      "Ġcur": 1028,
      "Ġhapp": 1029,
      "Ġcap": 1030,
      "irect": 1031,
      "uth": 1032,
      "ense": 1033,
      "min": 1034,
      "Ġsl": 1035,
      "ĠCom": 1036,
      "Ġfr": 1037,
      "ĠThey": 1038,
      "Ġboth": 1039,
      "Ġday": 1040,
      "alth": 1041,
      "Ġfind": 1042,
      "Ġwom": 1043,
      "ular": 1044,
      "ered": 1045,
      "ĠSh": 1046,
      "ices": 1047,
      "Ġread": 1048,
      "Ġlit": 1049,
      "Ġrep": 1050,
      "Ġ8": 1051,
      "Ġdet": 1052,
      "Ġtold": 1053,
      "oh": 1054,
      "Ġduring": 1055,
      "!!": 1056,
      "Ġmonth": 1057,
      "ines": 1058,
      "Ġiss": 1059,
      "Ġcre": 1060,
      "ĠIs": 1061,
      "Ġdevelop": 1062,
      "Ġsince": 1063,
      "aj": 1064,
      "Ġperson": 1065,
      "ages": 1066,
      "ared": 1067,
      "iet": 1068,
      "Ġserv": 1069,
      "Ġwar": 1070,
      "med": 1071,
      "Ġbig": 1072,
      "Ġcent": 1073,
      "Ġleg": 1074,
      "ivers": 1075,
      "ically": 1076,
      "ision": 1077,
      "orth": 1078,
      "ĠCl": 1079,
      "Ġpolit": 1080,
      "ĠTrump": 1081,
      "ĠAs": 1082,
      "Ġfollow": 1083,
      "the": 1084,
      "Ġfew": 1085,
      "ording": 1086,
      "akes": 1087,
      "Ġweek": 1088,
      "Ġgener": 1089,
      "get": 1090,
      "ex": 1091,
      "Ġlot": 1092,
      "ves": 1093,
      "Ġ9": 1094,
      "Ġbelie": 1095,
      "Ġrequ": 1096,
      "der": 1097,
      "Ġcontin": 1098,
      "chool": 1099,
      "rent": 1100,
      "Ġtoo": 1101,
      "Ġexpl": 1102,
      "Wh": 1103,
      "ric": 1104,
      "Ġcor": 1105,
      "Ġput": 1106,
      "ized": 1107,
      "Ġcle": 1108,
      "ness": 1109,
      "ash": 1110,
      "Ġresp": 1111,
      "Ġprot": 1112,
      "bers": 1113,
      "Ġfil": 1114,
      "Ġplan": 1115,
      "Ġpower": 1116,
      "Ġche": 1117,
      "Ġloc": 1118,
      "ĠIf": 1119,
      "Ġsoc": 1120,
      "Ġanother": 1121,
      "anc": 1122,
      "Ġsomething": 1123,
      "ention": 1124,
      "Ġopp": 1125,
      "ĠFr": 1126,
      "Ġinf": 1127,
      "Ġinvest": 1128,
      "Ġdifferent": 1129,
      "Ġhead": 1130,
      "ox": 1131,
      "arge": 1132,
      "ata": 1133,
      "Ġlife": 1134,
      "ned": 1135,
      "Ġposs": 1136,
      "Ġask": 1137,
      "ute": 1138,
      "20": 1139,
      "Ġpass": 1140,
      "Ġrele": 1141,
      "Ġcommun": 1142,
      "Ġthings": 1143,
      "ience": 1144,
      "ĠSe": 1145,
      "ants": 1146,
      "ĠDe": 1147,
      "thing": 1148,
      "Ġ'": 1149,
      "Ġvot": 1150,
      "Ġfar": 1151,
      "erest": 1152,
      "Ġdep": 1153,
      "Ġmight": 1154,
      "Ġnever": 1155,
      "ize": 1156,
      "Ġquest": 1157,
      "Ġart": 1158,
      "ody": 1159,
      "Ġmet": 1160,
      "uc": 1161,
      "Ġcamp": 1162,
      "iness": 1163,
      "This": 1164,
      "ĠFor": 1165,
      "Ġcome": 1166,
      "ross": 1167,
      "view": 1168,
      "Ġeach": 1169,
      "Ġbus": 1170,
      "Ġnext": 1171,
      "Ġmark": 1172,
      "Ġadv": 1173,
      "Ġgot": 1174,
      "Ġ0": 1175,
      "Ġsecond": 1176,
      "ret": 1177,
      "Ġpercent": 1178,
      "Ġopen": 1179,
      "Ġchild": 1180,
      "Ġdem": 1181,
      "ĠâĢĺ": 1182,
      "nce": 1183,
      "istr": 1184,
      "ield": 1185,
      "ĠAn": 1186,
      "Ġallow": 1187,
      "ik": 1188,
      "ired": 1189,
      "ĠThat": 1190,
      "Ġhome": 1191,
      "Ġseem": 1192,
      "orn": 1193,
      "Ġbest": 1194,
      "ĠUS": 1195,
      "Ġfeel": 1196,
      "ier": 1197,
      "Ġdirect": 1198,
      "ple": 1199,
      "ient": 1200,
      "ama": 1201,
      "Ġincre": 1202,
      "less": 1203,
      "ital": 1204,
      "Ġpri": 1205,
      "Ġ.": 1206,
      "gy": 1207,
      "cl": 1208,
      "Ġcontro": 1209,
      "ĠPro": 1210,
      "co": 1211,
      "Ġpost": 1212,
      "Ġresult": 1213,
      "Ġcomple": 1214,
      "son": 1215,
      "ug": 1216,
      "ĠRep": 1217,
      "Ġproble": 1218,
      "osed": 1219,
      "Ġincluding": 1220,
      "gram": 1221,
      "Ġnumber": 1222,
      "Ġimport": 1223,
      "Ġhum": 1224,
      "Ġwithout": 1225,
      "Ġcare": 1226,
      "chn": 1227,
      "Ġtop": 1228,
      "ral": 1229,
      "Ġhard": 1230,
      "oney": 1231,
      "Ġcountry": 1232,
      "ately": 1233,
      "Ġplace": 1234,
      "Ġbuild": 1235,
      "Ġav": 1236,
      "aim": 1237,
      "Ġmillion": 1238,
      "riend": 1239,
      "Ġinform": 1240,
      "Ġstand": 1241,
      "Ġel": 1242,
      "Ġide": 1243,
      "Ġlet": 1244,
      "Ġcalled": 1245,
      "Ġgl": 1246,
      "ably": 1247,
      "conom": 1248,
      "ished": 1249,
      "Ġcase": 1250,
      "rat": 1251,
      "Ġappro": 1252,
      "ĠBl": 1253,
      "Ġless": 1254,
      "Ġpartic": 1255,
      "Ġfour": 1256,
      "Ġrecent": 1257,
      "uro": 1258,
      "Ġbetter": 1259,
      "Ġbro": 1260,
      "Ġinterest": 1261,
      "ways": 1262,
      "But": 1263,
      "Ġann": 1264,
      "Ġmil": 1265,
      "Ġlittle": 1266,
      "Ġtri": 1267,
      "Ġpop": 1268,
      "ead": 1269,
      "Ġmov": 1270,
      "Ġturn": 1271,
      "Ġbeh": 1272,
      "line": 1273,
      "Ġfun": 1274,
      "ised": 1275,
      "inal": 1276,
      "ĠInd": 1277,
      "ina": 1278,
      "10": 1279,
      "Ġseason": 1280,
      "ering": 1281,
      "ling": 1282,
      "Ġmain": 1283,
      "app": 1284,
      "tt": 1285,
      "ajor": 1286,
      "me": 1287,
      "Ġdr": 1288,
      "ature": 1289,
      "ĠThere": 1290,
      "Ġpolice": 1291,
      "Ġfull": 1292,
      "Ġattack": 1293,
      "Ġleft": 1294,
      "Ġrest": 1295,
      "Ġkeep": 1296,
      "ency": 1297,
      "Ġdidn": 1298,
      "Ġprev": 1299,
      "Ġtest": 1300,
      "Ġschool": 1301,
      "ined": 1302,
      "Ġear": 1303,
      "Ġmove": 1304,
      "Ġeffect": 1305,
      "ract": 1306,
      "ĠZ": 1307,
      "to": 1308,
      "leg": 1309,
      "Ġwin": 1310,
      "Ġform": 1311,
      "Ġsit": 1312,
      "ology": 1313,
      "Ġpresident": 1314,
      "be": 1315,
      "Ġval": 1316,
      "Ġprogram": 1317,
      "Ġwrit": 1318,
      "Ġdri": 1319,
      "Ġnews": 1320,
      "Ġlevel": 1321,
      "ĠAmerican": 1322,
      "Ġpos": 1323,
      "Ġusing": 1324,
      "Ġpay": 1325,
      "rap": 1326,
      "Ġgiv": 1327,
      "uck": 1328,
      "Ġsmall": 1329,
      "ready": 1330,
      "ode": 1331,
      "Ġprocess": 1332,
      "ĠOb": 1333,
      "ided": 1334,
      "Ġeconom": 1335,
      "ains": 1336,
      "ĠSo": 1337,
      "Ġcompany": 1338,
      "mit": 1339,
      "Ġdata": 1340,
      "He": 1341,
      "Ġchar": 1342,
      "Ġprom": 1343,
      "Ġeas": 1344,
      "reen": 1345,
      "Ġlist": 1346,
      "Ġcurrent": 1347,
      "'re": 1348,
      "ploy": 1349,
      "Ġmat": 1350,
      "ruct": 1351,
      "ger": 1352,
      "Ġchange": 1353,
      "used": 1354,
      "Ġunt": 1355,
      "Ġsol": 1356,
      "Ġwomen": 1357,
      "Ġdesign": 1358,
      "ĠUnited": 1359,
      "iversity": 1360,
      "Ġrece": 1361,
      "ians": 1362,
      "Ġofficial": 1363,
      "Ġalready": 1364,
      "Ġlater": 1365,
      "ohn": 1366,
      "Ġbre": 1367,
      "ron": 1368,
      "Ġmoney": 1369,
      "ases": 1370,
      "stand": 1371,
      "ĠQ": 1372,
      "Ġbook": 1373,
      "Ġproject": 1374,
      "ĠCan": 1375,
      "Ġtechn": 1376,
      "ĠBe": 1377,
      "Ġwhy": 1378,
      "Ġexpect": 1379,
      "aign": 1380,
      "Ġmajor": 1381,
      "ĠPh": 1382,
      "ird": 1383,
      "ĠHow": 1384,
      "Ġorgan": 1385,
      "Ġty": 1386,
      "Ġbusiness": 1387,
      "aff": 1388,
      "Ġthing": 1389,
      "Ġhist": 1390,
      "Ġprof": 1391,
      "Ġedit": 1392,
      "Ġalways": 1393,
      "Ġtalk": 1394,
      "Ġclaim": 1395,
      "Ġ18": 1396,
      "lection": 1397,
      "ury": 1398,
      "Ġvis": 1399,
      "Ġchang": 1400,
      "Ġstory": 1401,
      "ertain": 1402,
      "Ġpur": 1403,
      "Ġclass": 1404,
      "Ġhappen": 1405,
      "ĠShe": 1406,
      "Ġmust": 1407,
      "Ġjob": 1408,
      "Ġsk": 1409,
      "Ġconst": 1410,
      "Ġhealth": 1411,
      "wit": 1412,
      "outh": 1413,
      "here": 1414,
      "ator": 1415,
      "Ġbo": 1416,
      "ards": 1417,
      "ior": 1418,
      "ured": 1419,
      "ption": 1420,
      "Ġable": 1421,
      "Ġimportant": 1422,
      "Ġrese": 1423,
      "Ġcity": 1424,
      "Ġaway": 1425,
      "Ġpast": 1426,
      "Ġ--": 1427,
      "Ġcost": 1428,
      "Ġdays": 1429,
      "uthor": 1430,
      "ural": 1431,
      "Ġinformation": 1432,
      "Ġvar": 1433,
      "19": 1434,
      "Ġkill": 1435,
      "Ġoper": 1436,
      "Ġest": 1437,
      "Ġlarge": 1438,
      "Ġleast": 1439,
      "Ġold": 1440,
      "rist": 1441,
      "ission": 1442,
      "ending": 1443,
      "ample": 1444,
      "Ġfree": 1445,
      "Ġgrow": 1446,
      "Ġmen": 1447,
      "ĠAd": 1448,
      "Ġtax": 1449,
      "Ġcampaign": 1450,
      "Ġdoesn": 1451,
      "Ġhop": 1452,
      "acy": 1453,
      "Ġpolic": 1454,
      "ush": 1455,
      "Ġ12": 1456,
      "Ġstre": 1457,
      "Ġpat": 1458,
      "urity": 1459,
      "Ġtell": 1460,
      "ney": 1461,
      "Ġdist": 1462,
      "St": 1463,
      "Ġrecord": 1464,
      "ality": 1465,
      "Ġaff": 1466,
      "eral": 1467,
      "ides": 1468,
      "Ġcame": 1469,
      "ained": 1470,
      "Ġair": 1471,
      "ern": 1472,
      "side": 1473,
      "pped": 1474,
      "ider": 1475,
      "Ġfriend": 1476,
      "Ġenough": 1477,
      "ccess": 1478,
      "els": 1479,
      "Ġuntil": 1480,
      "ĠGo": 1481,
      "Ġ15": 1482,
      "br": 1483,
      "Ġfamily": 1484,
      "Ġmaking": 1485,
      "resident": 1486,
      "Ġview": 1487,
      "ley": 1488,
      "Ġkind": 1489,
      "...": 1490,
      "Ġmar": 1491,
      "Ġelect": 1492,
      "augh": 1493,
      "ĠMar": 1494,
      "bs": 1495,
      "ister": 1496,
      "Ġpolitical": 1497,
      "ee": 1498,
      "ified": 1499,
      "ued": 1500,
      "Ġvide": 1501,
      "ware": 1502,
      "ĠSp": 1503,
      "by": 1504,
      "As": 1505,
      "Ġworking": 1506,
      "arent": 1507,
      "Ġactually": 1508,
      "sc": 1509,
      "âĢ¦": 1510,
      "ived": 1511,
      "Ġes": 1512,
      "Ġbecome": 1513,
      "ising": 1514,
      "ional": 1515,
      "Ġdeal": 1516,
      "ror": 1517,
      "If": 1518,
      "ĠRepublic": 1519,
      "ĠJohn": 1520,
      "Ġline": 1521,
      "Ġfore": 1522,
      "Ġtook": 1523,
      "alf": 1524,
      "ison": 1525,
      "Ġintern": 1526,
      "Ġve": 1527,
      "ries": 1528,
      "Ġ199": 1529,
      "Ġhuman": 1530,
      "Ġword": 1531,
      "aring": 1532,
      "ann": 1533,
      "ĠMay": 1534,
      "Ġmean": 1535,
      "Ġwon": 1536,
      "iol": 1537,
      "ott": 1538,
      "Ġoften": 1539,
      "aining": 1540,
      "ĠSc": 1541,
      "Ġpar": 1542,
      "Ġname": 1543,
      "ony": 1544,
      "Ġtimes": 1545,
      "for": 1546,
      "oad": 1547,
      "most": 1548,
      "Ġbit": 1549,
      "Ġaccording": 1550,
      "ĠAll": 1551,
      "Ġever": 1552,
      "ember": 1553,
      "ocrat": 1554,
      "Ġformer": 1555,
      "Ġ=": 1556,
      "ane": 1557,
      "Ġgive": 1558,
      "Ġorder": 1559,
      "wh": 1560,
      "ĠEuro": 1561,
      "aken": 1562,
      "aps": 1563,
      "Ġsever": 1564,
      "Ġfund": 1565,
      "ĠOr": 1566,
      "ĠDem": 1567,
      "11": 1568,
      "gin": 1569,
      "work": 1570,
      "year": 1571,
      "Ġsing": 1572,
      "ization": 1573,
      "Ġgames": 1574,
      "Ġdev": 1575,
      "ĠPl": 1576,
      "idence": 1577,
      "Ġdeb": 1578,
      "Ġpress": 1579,
      "ĠSy": 1580,
      "Ġla": 1581,
      "Ġocc": 1582,
      "eng": 1583,
      "ither": 1584,
      "Ġnight": 1585,
      "Ġhaving": 1586,
      "There": 1587,
      "Ġreturn": 1588,
      "Ġdoing": 1589,
      "Ġmarket": 1590,
      "Ġbas": 1591,
      "__": 1592,
      "Ġlear": 1593,
      "oint": 1594,
      "ĠCon": 1595,
      "ubl": 1596,
      "ĠYork": 1597,
      "Ġseen": 1598,
      "Ġlikely": 1599,
      "Ġtoday": 1600,
      "Ġwr": 1601,
      "Ġfac": 1602,
      "ĠObama": 1603,
      "Ġwent": 1604,
      "idd": 1605,
      "Ġseveral": 1606,
      "iqu": 1607,
      "mber": 1608,
      "Ġside": 1609,
      "Ġsocial": 1610,
      "uture": 1611,
      "Ġra": 1612,
      "icle": 1613,
      "rop": 1614,
      "Ġearly": 1615,
      "Ġperform": 1616,
      "Ġmedia": 1617,
      "ĠAt": 1618,
      "Ġevent": 1619,
      "ories": 1620,
      "Ġcrit": 1621,
      "Ġappear": 1622,
      "raft": 1623,
      "lf": 1624,
      "Ġyoung": 1625,
      "Ġmembers": 1626,
      "sh": 1627,
      "Ġquestion": 1628,
      "ched": 1629,
      "Ġwhether": 1630,
      "Ġcharac": 1631,
      "ended": 1632,
      "ĠMc": 1633,
      "iously": 1634,
      "50": 1635,
      "ots": 1636,
      "Ġsure": 1637,
      "Ġequ": 1638,
      "Ġcontrol": 1639,
      "Ġfive": 1640,
      "artment": 1641,
      "Ġland": 1642,
      "Ġmilit": 1643,
      "Ġcertain": 1644,
      "Ġwater": 1645,
      "Ġplayers": 1646,
      "Ġchildren": 1647,
      "ĠPresident": 1648,
      "Ġarg": 1649,
      "Ġonce": 1650,
      "Ġmeet": 1651,
      "Ġeng": 1652,
      "inc": 1653,
      "enn": 1654,
      "Ġ]": 1655,
      "Ġshort": 1656,
      "Ġprop": 1657,
      "Ġ11": 1658,
      "Ġben": 1659,
      "Ġexample": 1660,
      "Ġmonths": 1661,
      "ĠMr": 1662,
      "une": 1663,
      "Ġinvol": 1664,
      "Ġdesc": 1665,
      "Ġalong": 1666,
      "iver": 1667,
      "Ġhour": 1668,
      "Ġpossible": 1669,
      "ĠStates": 1670,
      "Ġsuccess": 1671,
      "And": 1672,
      "Ġvers": 1673,
      "ium": 1674,
      "nect": 1675,
      "Ġpot": 1676,
      "Ġknown": 1677,
      "Ġcourse": 1678,
      "Ġfight": 1679,
      "Ġwithin": 1680,
      "Ġcho": 1681,
      "iety": 1682,
      "ĠEurope": 1683,
      "Ġamong": 1684,
      "Ġlocal": 1685,
      "ats": 1686,
      "Ġproblem": 1687,
      "ential": 1688,
      "ulation": 1689,
      "Ġauthor": 1690,
      "Ġdone": 1691,
      "urs": 1692,
      "ĠTe": 1693,
      "Ġmeans": 1694,
      "ague": 1695,
      "Ġproduct": 1696,
      "gress": 1697,
      "empt": 1698,
      "rew": 1699,
      "verage": 1700,
      "let": 1701,
      "Ġunderstand": 1702,
      "por": 1703,
      "Ġant": 1704,
      "oci": 1705,
      "Ġactiv": 1706,
      "Ġnon": 1707,
      "iting": 1708,
      "Ġconcer": 1709,
      "Ġprotect": 1710,
      "ourn": 1711,
      "ĠUniversity": 1712,
      "Ġreason": 1713,
      "Ġinvestig": 1714,
      "ially": 1715,
      "ederal": 1716,
      "Ġpriv": 1717,
      "Ġviol": 1718,
      "Ġfail": 1719,
      "Ġasked": 1720,
      "ortun": 1721,
      "Ġthought": 1722,
      "vert": 1723,
      "ER": 1724,
      "Ġorig": 1725,
      "ivid": 1726,
      "ĠCol": 1727,
      "ggest": 1728,
      "uff": 1729,
      "Ġhold": 1730,
      "Ġfuture": 1731,
      "ĠWhen": 1732,
      "Ġgiven": 1733,
      "ball": 1734,
      "iber": 1735,
      "iving": 1736,
      "my": 1737,
      "ĠCar": 1738,
      "ĠOn": 1739,
      "Ġ&": 1740,
      "ĠRuss": 1741,
      "ones": 1742,
      "ster": 1743,
      "12": 1744,
      "Ġvideo": 1745,
      "Ġavail": 1746,
      "Ġcommunity": 1747,
      "aged": 1748,
      "ensive": 1749,
      "Ġsuggest": 1750,
      "Ġacross": 1751,
      "itive": 1752,
      "You": 1753,
      "Ġbelieve": 1754,
      "ald": 1755,
      "Ġstrong": 1756,
      "back": 1757,
      "not": 1758,
      "ĠState": 1759,
      "Ġmus": 1760,
      "Ġmakes": 1761,
      "Ġannoun": 1762,
      "Ġca": 1763,
      "Ġyet": 1764,
      "book": 1765,
      "orld": 1766,
      "imate": 1767,
      "Ġreported": 1768,
      "Ġlim": 1769,
      "itions": 1770,
      "ĠNo": 1771,
      "Ġsent": 1772,
      "Ġothers": 1773,
      "ĠHouse": 1774,
      "Ġprob": 1775,
      "Ġlight": 1776,
      "Ġsex": 1777,
      "30": 1778,
      "ances": 1779,
      "Ġindust": 1780,
      "Ġdeath": 1781,
      "ene": 1782,
      "Ġgetting": 1783,
      "âĢĵ": 1784,
      "ĠBr": 1785,
      "rest": 1786,
      "urther": 1787,
      "ored": 1788,
      "Ġident": 1789,
      "Ġ2016": 1790,
      "Ġlow": 1791,
      "ober": 1792,
      "Ġhig": 1793,
      "Ġissue": 1794,
      "ĠCo": 1795,
      "Ġstarted": 1796,
      "Ġsaf": 1797,
      "iron": 1798,
      "Ġcut": 1799,
      "Ġi": 1800,
      "ĠCent": 1801,
      "ands": 1802,
      "ler": 1803,
      "Ġcond": 1804,
      "ĠChrist": 1805,
      "ament": 1806,
      "Ġ30": 1807,
      "Ġ,": 1808,
      "Ġbased": 1809,
      "!!!!": 1810,
      "Ġ#": 1811,
      "Ġnational": 1812,
      "Ġcourt": 1813,
      "ashing": 1814,
      "ĠDemocrat": 1815,
      "Ġclose": 1816,
      "Ġemploy": 1817,
      "ams": 1818,
      "ĠCanad": 1819,
      "ĠMin": 1820,
      "Ġlove": 1821,
      "15": 1822,
      "ĠPr": 1823,
      "Ġbat": 1824,
      "Ġago": 1825,
      "ument": 1826,
      "Ġaccount": 1827,
      "selves": 1828,
      "Ġalmost": 1829,
      "erman": 1830,
      "arm": 1831,
      "Ġseries": 1832,
      "though": 1833,
      "Ġavailable": 1834,
      "ĠWhat": 1835,
      "cher": 1836,
      "Ġsour": 1837,
      "use": 1838,
      "For": 1839,
      "utes": 1840,
      "ring": 1841,
      "Ġrul": 1842,
      "resent": 1843,
      "Ġpract": 1844,
      "Ġcomes": 1845,
      "Ġtrying": 1846,
      "'ve": 1847,
      "Ġcreat": 1848,
      "ief": 1849,
      "Ġfollowing": 1850,
      "ability": 1851,
      "uly": 1852,
      "Ġclear": 1853,
      "itional": 1854,
      "Ġexperience": 1855,
      "aster": 1856,
      "Ġ2015": 1857,
      "Ġcommit": 1858,
      "Ġparty": 1859,
      "//": 1860,
      "erence": 1861,
      "ustom": 1862,
      "ĠBro": 1863,
      "Ġtrad": 1864,
      "ination": 1865,
      "gether": 1866,
      "Ġtogether": 1867,
      "of": 1868,
      ".,": 1869,
      "ai": 1870,
      "Ġmom": 1871,
      "Ġnet": 1872,
      "Ġadded": 1873,
      "Ġ16": 1874,
      "Ġidea": 1875,
      "Ġisn": 1876,
      "ĠOne": 1877,
      "ividual": 1878,
      "ĠBrit": 1879,
      "Ġtaken": 1880,
      "orts": 1881,
      "Ġpresent": 1882,
      "Ġproper": 1883,
      "ĠAmerica": 1884,
      "reed": 1885,
      "Ġhalf": 1886,
      "Ġfilm": 1887,
      "Ġarea": 1888,
      "ators": 1889,
      "ĠAm": 1890,
      "Ġaccess": 1891,
      "Ġhistory": 1892,
      "pro": 1893,
      "Ġfoc": 1894,
      "Ġcompet": 1895,
      "Ġcomplete": 1896,
      "unch": 1897,
      "ĠX": 1898,
      "ged": 1899,
      "ote": 1900,
      "ails": 1901,
      "Ġ|": 1902,
      "oto": 1903,
      "raw": 1904,
      "ograp": 1905,
      "ilar": 1906,
      "eb": 1907,
      "ert": 1908,
      "ĠComm": 1909,
      "Ġimpro": 1910,
      "ĠSen": 1911,
      "ĠPol": 1912,
      "aid": 1913,
      "ĠEx": 1914,
      "Ġfood": 1915,
      "Ġmiss": 1916,
      "Ġlooking": 1917,
      "ev": 1918,
      "af": 1919,
      "Ġsix": 1920,
      "Ġsaying": 1921,
      "ĠGr": 1922,
      "Ġanything": 1923,
      "Ġpubl": 1924,
      "ien": 1925,
      "wards": 1926,
      "inton": 1927,
      "Ġlive": 1928,
      "Ġ2014": 1929,
      "Ġhit": 1930,
      "----": 1931,
      "ĠNorth": 1932,
      "rug": 1933,
      "cially": 1934,
      "Ġtot": 1935,
      "Ġanal": 1936,
      "ĠFl": 1937,
      "Ġ14": 1938,
      "Ġmilitary": 1939,
      "Ġbehind": 1940,
      "Ġris": 1941,
      "Ġmess": 1942,
      "ministr": 1943,
      "Ġbill": 1944,
      "Ġentire": 1945,
      "ids": 1946,
      "Ġnear": 1947,
      "Ġbad": 1948,
      "Ġrather": 1949,
      "AT": 1950,
      "nes": 1951,
      "Ġmind": 1952,
      "Ġvict": 1953,
      "Ġindividual": 1954,
      "irc": 1955,
      "amed": 1956,
      "witter": 1957,
      "Ġblack": 1958,
      "Ġsingle": 1959,
      "Ġaut": 1960,
      "'m": 1961,
      "par": 1962,
      "What": 1963,
      "sy": 1964,
      "Ġsecurity": 1965,
      "Ġface": 1966,
      "ĠTo": 1967,
      "Ġwanted": 1968,
      "Ġtre": 1969,
      "Ġtry": 1970,
      "âĢĶâĢĶ": 1971,
      "ĠMan": 1972,
      "osp": 1973,
      "Ġbring": 1974,
      "igr": 1975,
      "Ġthreat": 1976,
      "uge": 1977,
      "ĠAf": 1978,
      "Ġfall": 1979,
      "Ġquick": 1980,
      "Ġstudy": 1981,
      "Ġer": 1982,
      "Ġmult": 1983,
      "Ġz": 1984,
      "atic": 1985,
      "play": 1986,
      "Ġdiscuss": 1987,
      "Ġpolicy": 1988,
      "off": 1989,
      "ĠEng": 1990,
      "ĠWar": 1991,
      "Ġjo": 1992,
      "rael": 1993,
      "ĠÂ": 1994,
      "Ġspace": 1995,
      "Ġsal": 1996,
      "reme": 1997,
      "Ġmor": 1998,
      "Ġcompan": 1999,
      "ĠDon": 2000,
      "Ġ13": 2001,
      "Ġsomeone": 2002,
      "Ġspecial": 2003,
      "cing": 2004,
      "ĠCal": 2005,
      "On": 2006,
      "Ġfoot": 2007,
      "Ġsum": 2008,
      "yn": 2009,
      "Ġfav": 2010,
      "aper": 2011,
      "Ġcoun": 2012,
      "Ġmass": 2013,
      "Ġcomb": 2014,
      "Ġredu": 2015,
      "Ġ17": 2016,
      "icult": 2017,
      "ĠCity": 2018,
      "Ġconnect": 2019,
      "RE": 2020,
      "14": 2021,
      "ply": 2022,
      "ĠHar": 2023,
      "An": 2024,
      "Ġcou": 2025,
      "ĠNational": 2026,
      "Ġcult": 2027,
      "rote": 2028,
      "lement": 2029,
      "ashington": 2030,
      "Ġtaking": 2031,
      "ĠSec": 2032,
      "Ġattempt": 2033,
      "ĠDep": 2034,
      ".)": 2035,
      "ault": 2036,
      "Ġfront": 2037,
      "Ġdescrib": 2038,
      "ĠBar": 2039,
      "When": 2040,
      "Ġdecision": 2041,
      "Ġbenef": 2042,
      "ify": 2043,
      "Ġsus": 2044,
      "aces": 2045,
      "Ġprobably": 2046,
      "Ġkey": 2047,
      "Ġnothing": 2048,
      "ĠWorld": 2049,
      "Ġhouse": 2050,
      "ran": 2051,
      "IS": 2052,
      "ully": 2053,
      "Ġsw": 2054,
      "ris": 2055,
      "16": 2056,
      "Ġener": 2057,
      "Ġrights": 2058,
      "So": 2059,
      "dd": 2060,
      "ĠAust": 2061,
      "Ġcoming": 2062,
      "go": 2063,
      "That": 2064,
      "Ġbody": 2065,
      "Ġfederal": 2066,
      "Ġexist": 2067,
      "Ġenc": 2068,
      "now": 2069,
      "elt": 2070,
      "ĠIm": 2071,
      "lling": 2072,
      "Ġelse": 2073,
      "Ġpret": 2074,
      "13": 2075,
      "asing": 2076,
      "Ġrepl": 2077,
      "lier": 2078,
      "ĠClinton": 2079,
      "Ġresearch": 2080,
      "ĠGe": 2081,
      "viron": 2082,
      "Ġfeat": 2083,
      "Ġfurther": 2084,
      "over": 2085,
      "Ġconv": 2086,
      "irl": 2087,
      "Ġwrote": 2088,
      "Ġtra": 2089,
      "ively": 2090,
      "Ġplayer": 2091,
      "Ġhowever": 2092,
      "Ġwhole": 2093,
      "ming": 2094,
      "ĠSu": 2095,
      "ches": 2096,
      "Ġeither": 2097,
      "ivil": 2098,
      "Ġimm": 2099,
      "Ġdoc": 2100,
      "Ġfig": 2101,
      "ĠHowever": 2102,
      "Ġcompanies": 2103,
      "Ġexec": 2104,
      "Ġdue": 2105,
      "olution": 2106,
      "ĠGu": 2107,
      "Ġbegin": 2108,
      "Ġissues": 2109,
      "Ġgun": 2110,
      "Ġsignific": 2111,
      "Ã©": 2112,
      "Ġstates": 2113,
      "Ġseems": 2114,
      "Ġcompl": 2115,
      "Ġtarg": 2116,
      "IN": 2117,
      "Ġey": 2118,
      "Ġeverything": 2119,
      "Ġ198": 2120,
      "Ġfinal": 2121,
      "Ġstep": 2122,
      "Ġ2013": 2123,
      "Ġthird": 2124,
      "ĠWith": 2125,
      "uation": 2126,
      "Ġcand": 2127,
      "pecially": 2128,
      "Ġstop": 2129,
      "Ġcreate": 2130,
      "Ġroom": 2131,
      "ery": 2132,
      "Ġinfl": 2133,
      "ape": 2134,
      "ĠWashington": 2135,
      "Ġsimilar": 2136,
      "18": 2137,
      "ĠPart": 2138,
      "Ġofficials": 2139,
      "ried": 2140,
      "sw": 2141,
      "lish": 2142,
      "ows": 2143,
      "Ġstri": 2144,
      "Ġwa": 2145,
      "Ġfire": 2146,
      "Ġamount": 2147,
      "ĠGerman": 2148,
      "ana": 2149,
      "ĠSouth": 2150,
      "Ġleaders": 2151,
      "ently": 2152,
      "ĠDav": 2153,
      "Ġstatement": 2154,
      "Ġbecame": 2155,
      "Ġpoints": 2156,
      "ĠIsrael": 2157,
      "Ġbegan": 2158,
      "Ch": 2159,
      "Ġdevelopment": 2160,
      "Ġground": 2161,
      "Ġself": 2162,
      "anks": 2163,
      "aul": 2164,
      "ttp": 2165,
      "Ġposition": 2166,
      "ilt": 2167,
      "Ġwatch": 2168,
      "ades": 2169,
      "Ġservice": 2170,
      "Ġlab": 2171,
      "Ġsuper": 2172,
      "Ġreleased": 2173,
      "Ġsound": 2174,
      "Ġevidence": 2175,
      "oon": 2176,
      "Ġfield": 2177,
      "ĠApp": 2178,
      "rodu": 2179,
      "iday": 2180,
      "Ġpick": 2181,
      "Ġdam": 2182,
      "mb": 2183,
      "BC": 2184,
      "sec": 2185,
      "Ġgeneral": 2186,
      "pping": 2187,
      "Ġstat": 2188,
      "Ġdom": 2189,
      "Ġdi": 2190,
      "Ġrole": 2191,
      "Ġmatter": 2192,
      "Ġ/": 2193,
      "Ġcustom": 2194,
      "pite": 2195,
      "ww": 2196,
      "Ġwasn": 2197,
      "Ġenergy": 2198,
      "Ġchall": 2199,
      "Ġmeas": 2200,
      "Ġ:": 2201,
      "ON": 2202,
      "17": 2203,
      "Ġagree": 2204,
      "ĠJan": 2205,
      "Ġdou": 2206,
      "Ġbreak": 2207,
      "ĠAss": 2208,
      "iod": 2209,
      "like": 2210,
      "Ġtreat": 2211,
      "amer": 2212,
      "ãģ": 2213,
      "Ġitself": 2214,
      "Ġopt": 2215,
      "att": 2216,
      "eal": 2217,
      "Ġoffice": 2218,
      "obal": 2219,
      "Ġhours": 2220,
      "ibility": 2221,
      "Ġ2017": 2222,
      "ĠChina": 2223,
      "Ġrelations": 2224,
      "Ġtrue": 2225,
      "Ġcontinue": 2226,
      "Ġcharacter": 2227,
      "Ġstudents": 2228,
      "Ġ25": 2229,
      "ĠInst": 2230,
      "ogn": 2231,
      "Ġhimself": 2232,
      "ĠJust": 2233,
      "Ġoutside": 2234,
      "Ġcountries": 2235,
      "Ġdifficult": 2236,
      "Ġspecific": 2237,
      "aced": 2238,
      "Ġrepresent": 2239,
      "ograph": 2240,
      "Ġaction": 2241,
      "lim": 2242,
      "ĠRes": 2243,
      "Ġlarg": 2244,
      "Ġbar": 2245,
      "umb": 2246,
      "Ġthemselves": 2247,
      "Ġprofess": 2248,
      "Ġinterview": 2249,
      "vironment": 2250,
      "Ġwhite": 2251,
      "Ġ2012": 2252,
      "head": 2253,
      "Ġprovide": 2254,
      "Ġ100": 2255,
      "ung": 2256,
      "Ġbuilding": 2257,
      "ĠIntern": 2258,
      "Ġrad": 2259,
      "ili": 2260,
      "Ġgroups": 2261,
      "Ġsimply": 2262,
      "'ll": 2263,
      "Ġneeded": 2264,
      "Ġabove": 2265,
      "yle": 2266,
      "Ġinit": 2267,
      "Ġcop": 2268,
      "Ġlat": 2269,
      "right": 2270,
      "://": 2271,
      "Ġneg": 2272,
      "AN": 2273,
      "Ġsaw": 2274,
      "Ġdrug": 2275,
      "Ġtyp": 2276,
      "ĠHis": 2277,
      "Ġcommon": 2278,
      "Ġadministr": 2279,
      "ender": 2280,
      "Ġlegal": 2281,
      "Ġsignificant": 2282,
      "Ġdest": 2283,
      "ask": 2284,
      "Ġtem": 2285,
      "eks": 2286,
      "acebook": 2287,
      "Ġcharg": 2288,
      "iddle": 2289,
      "ĠMed": 2290,
      "Ġmusic": 2291,
      "Ġversion": 2292,
      "Ġneeds": 2293,
      "Ġrunning": 2294,
      "Ġrelease": 2295,
      "Ġwoman": 2296,
      "Ġinclude": 2297,
      "ĠEd": 2298,
      "reg": 2299,
      "Ġsuff": 2300,
      "Ġaddress": 2301,
      "ift": 2302,
      "Ġphys": 2303,
      "light": 2304,
      "Ġexc": 2305,
      "iding": 2306,
      "ream": 2307,
      "Ġrespons": 2308,
      "ournal": 2309,
      "Ġbelow": 2310,
      "Ġplayed": 2311,
      "Ġeveryone": 2312,
      "ribut": 2313,
      "Ġindustry": 2314,
      "Ġdeep": 2315,
      "arter": 2316,
      "ached": 2317,
      "Ġmot": 2318,
      "Ġap": 2319,
      "Ġlate": 2320,
      "atur": 2321,
      "lam": 2322,
      "epend": 2323,
      "isc": 2324,
      "Ġinstead": 2325,
      "Ġball": 2326,
      "Ġmag": 2327,
      "ĠAfter": 2328,
      "Ġtit": 2329,
      "Ġcandid": 2330,
      "Ġlost": 2331,
      "Ġgen": 2332,
      "Ġespecially": 2333,
      "Ġshows": 2334,
      "Ġfriends": 2335,
      "Ġelection": 2336,
      "Ġred": 2337,
      "Ġjud": 2338,
      "angu": 2339,
      "Ġanim": 2340,
      "ĠWest": 2341,
      "Ġpretty": 2342,
      "body": 2343,
      "Ġinj": 2344,
      "ĠWill": 2345,
      "AS": 2346,
      "Ġshoot": 2347,
      "Ġplaying": 2348,
      "Ġchanges": 2349,
      "ccording": 2350,
      "oring": 2351,
      "where": 2352,
      "Ġhom": 2353,
      "Ġpain": 2354,
      "Ġsite": 2355,
      "Ġquite": 2356,
      "Ġabs": 2357,
      "ogle": 2358,
      "Ġple": 2359,
      "ĠAb": 2360,
      "osing": 2361,
      "Ġtrack": 2362,
      "ĠWhite": 2363,
      "cil": 2364,
      "time": 2365,
      "Ġ50": 2366,
      "How": 2367,
      "ival": 2368,
      "Ġshare": 2369,
      "bo": 2370,
      "ĠNot": 2371,
      "Ġsense": 2372,
      "Ġworks": 2373,
      "Ġblock": 2374,
      "Ġrecently": 2375,
      "su": 2376,
      "Ġrelig": 2377,
      "istic": 2378,
      "Ġhigher": 2379,
      "Ġdecl": 2380,
      "Ġcirc": 2381,
      "Ġce": 2382,
      "Ġweeks": 2383,
      "ĠMy": 2384,
      "oke": 2385,
      "Ġbillion": 2386,
      "Ġperiod": 2387,
      "Ġwords": 2388,
      "Ġalleg": 2389,
      "duct": 2390,
      "Ġeconomic": 2391,
      "Ġvalue": 2392,
      "Ġopportun": 2393,
      "irt": 2394,
      "urch": 2395,
      "Ġhope": 2396,
      "ĠMus": 2397,
      "Ġdeter": 2398,
      "Ġheld": 2399,
      "Ġtotal": 2400,
      "oe": 2401,
      "Ġwebs": 2402,
      "Ġvote": 2403,
      "Ġparent": 2404,
      "ager": 2405,
      "Ġlo": 2406,
      "Ġmoment": 2407,
      "medi": 2408,
      "Ġforward": 2409,
      "Ġaccept": 2410,
      "Ġconsum": 2411,
      "Ġsoon": 2412,
      "ateg": 2413,
      "Ġpie": 2414,
      "lt": 2415,
      "ĠSm": 2416,
      "omm": 2417,
      "Ġhost": 2418,
      "ĠTwitter": 2419,
      "eed": 2420,
      "oph": 2421,
      "Ġonline": 2422,
      "Ġgoal": 2423,
      "ĠThese": 2424,
      "Ġwrong": 2425,
      "cle": 2426,
      "ularly": 2427,
      "Ġconsider": 2428,
      "ĠNews": 2429,
      "ĠOct": 2430,
      "Ġcomput": 2431,
      "ĠDepartment": 2432,
      "lev": 2433,
      "Ġobject": 2434,
      "asons": 2435,
      "60": 2436,
      "irm": 2437,
      "ners": 2438,
      "onse": 2439,
      "aut": 2440,
      "Ġcontract": 2441,
      "Ġled": 2442,
      "ĠCong": 2443,
      "ĠMarch": 2444,
      "Ġpred": 2445,
      "Ġlonger": 2446,
      "Ġage": 2447,
      "ĠRepublican": 2448,
      "oid": 2449,
      "Ġep": 2450,
      "ĠSept": 2451,
      "Ġ197": 2452,
      "**": 2453,
      "ech": 2454,
      "Ġstay": 2455,
      "ends": 2456,
      "hod": 2457,
      "ique": 2458,
      "ĠÐ": 2459,
      "Ġ24": 2460,
      "Al": 2461,
      "Ġpotential": 2462,
      "Ġexpress": 2463,
      "haps": 2464,
      "ĠMich": 2465,
      "aging": 2466,
      "ĠAug": 2467,
      "Ġcheck": 2468,
      "fer": 2469,
      "Ġwalk": 2470,
      "che": 2471,
      "ns": 2472,
      "ole": 2473,
      "ients": 2474,
      "aterial": 2475,
      "Ġshot": 2476,
      "ĠSte": 2477,
      "cial": 2478,
      "ĠPe": 2479,
      "pril": 2480,
      "uary": 2481,
      "They": 2482,
      "Ġcred": 2483,
      "Ġresults": 2484,
      "lege": 2485,
      "Ġtechnology": 2486,
      "Ġsold": 2487,
      "ancial": 2488,
      "Ġpopular": 2489,
      "Ġden": 2490,
      "Ġfunction": 2491,
      "ky": 2492,
      "isl": 2493,
      "Ġreview": 2494,
      "Ġproblems": 2495,
      "Ġreve": 2496,
      "Ġannounced": 2497,
      "25": 2498,
      "Ġhy": 2499,
      "Ġdiv": 2500,
      "hood": 2501,
      "apan": 2502,
      "key": 2503,
      "Ġeduc": 2504,
      "na": 2505,
      "ij": 2506,
      "Ġstru": 2507,
      "Ġquestions": 2508,
      "ĠPar": 2509,
      "Ġupd": 2510,
      "anger": 2511,
      "Ġaud": 2512,
      "Ġport": 2513,
      "Ġanyone": 2514,
      "Ġfocus": 2515,
      "Ġminutes": 2516,
      "Ġpersonal": 2517,
      "str": 2518,
      "ĠDr": 2519,
      "Ph": 2520,
      "Ġprim": 2521,
      "Ġreceived": 2522,
      "Ġearlier": 2523,
      "Ġcode": 2524,
      "Ġways": 2525,
      "Ġapplic": 2526,
      "Ġrespect": 2527,
      "Ġdead": 2528,
      "ĠSyri": 2529,
      "Ġservices": 2530,
      "action": 2531,
      "fect": 2532,
      "Ġcases": 2533,
      "ĠJune": 2534,
      "Ġcell": 2535,
      "Ġrate": 2536,
      "put": 2537,
      "ĠGod": 2538,
      "Ġrev": 2539,
      "Ġvol": 2540,
      "Ġstaff": 2541,
      "Ġincrease": 2542,
      "itution": 2543,
      "ude": 2544,
      "urd": 2545,
      "ript": 2546,
      "hern": 2547,
      "Ġcomment": 2548,
      "Ġprice": 2549,
      "ĠCour": 2550,
      "icro": 2551,
      "ĠJuly": 2552,
      "Ġ2011": 2553,
      "Ġtarget": 2554,
      "Ġoriginal": 2555,
      "Ġexpected": 2556,
      "Ġansw": 2557,
      "ham": 2558,
      "Ġinternational": 2559,
      "ĠAustral": 2560,
      "uel": 2561,
      "Ġ{": 2562,
      "ĠDo": 2563,
      "itiz": 2564,
      "Ġnecess": 2565,
      "Ġcivil": 2566,
      "Ġheart": 2567,
      "val": 2568,
      "Ġ)": 2569,
      "ilities": 2570,
      "Ġanti": 2571,
      "Ġexecut": 2572,
      "Ġcreated": 2573,
      "Ġwind": 2574,
      "Ġ2010": 2575,
      "Ġur": 2576,
      "ael": 2577,
      "ĠMond": 2578,
      "Ġsurpr": 2579,
      "Ġsoft": 2580,
      "Ġarticle": 2581,
      "atives": 2582,
      "Ġenvironment": 2583,
      "aving": 2584,
      "tee": 2585,
      "Ġpack": 2586,
      "Ġarrest": 2587,
      "Ġbase": 2588,
      "ray": 2589,
      "AR": 2590,
      "mon": 2591,
      "rel": 2592,
      "Ġspeak": 2593,
      "ĠEn": 2594,
      "hel": 2595,
      "Ġeasy": 2596,
      "mp": 2597,
      "Ġprivate": 2598,
      "ires": 2599,
      "bit": 2600,
      "Ad": 2601,
      "Ġaverage": 2602,
      "bor": 2603,
      "Ġ<": 2604,
      "Ġimpact": 2605,
      "iple": 2606,
      "ule": 2607,
      "Ġexact": 2608,
      "Ġreports": 2609,
      "ĠFacebook": 2610,
      "Ġinvolved": 2611,
      "Ġleave": 2612,
      "Ġsubject": 2613,
      "ĠCongress": 2614,
      "Ġliving": 2615,
      "ĠRed": 2616,
      "ĠMe": 2617,
      "Ġcannot": 2618,
      "Ġscient": 2619,
      "Ġusers": 2620,
      "reet": 2621,
      "Ġnearly": 2622,
      "ills": 2623,
      "okes": 2624,
      "Ġsen": 2625,
      "ctor": 2626,
      "ĠApril": 2627,
      "ples": 2628,
      "][": 2629,
      "ĠFriday": 2630,
      "Ġterror": 2631,
      "Ġclub": 2632,
      "At": 2633,
      "Ġkilled": 2634,
      "Ġdel": 2635,
      "Ġforce": 2636,
      "Ġrespond": 2637,
      "ĠAmericans": 2638,
      "ĠCount": 2639,
      "Ġcapt": 2640,
      "uesday": 2641,
      "Ġhappened": 2642,
      "Ġrequest": 2643,
      "ees": 2644,
      "unt": 2645,
      "Ġobs": 2646,
      "Ġrisk": 2647,
      "ought": 2648,
      "Ġinside": 2649,
      "joy": 2650,
      "Ġcoll": 2651,
      "Ġroad": 2652,
      "Ġgave": 2653,
      "eter": 2654,
      "ĠMonday": 2655,
      "Ġglobal": 2656,
      "Ġmodel": 2657,
      "Ġlangu": 2658,
      "Ġworth": 2659,
      "Ġresponse": 2660,
      "Ġbroad": 2661,
      "ĠNow": 2662,
      "ES": 2663,
      "Ġworked": 2664,
      "Ġbuy": 2665,
      "ips": 2666,
      "Ġweap": 2667,
      "ites": 2668,
      "omb": 2669,
      "Ġestab": 2670,
      "Ġbecom": 2671,
      "atural": 2672,
      "istrict": 2673,
      "cast": 2674,
      "lex": 2675,
      "Ġphone": 2676,
      "Ġdirector": 2677,
      "ĠCalif": 2678,
      "Ġnation": 2679,
      "ĠAg": 2680,
      "Ġpublished": 2681,
      "==": 2682,
      "Ġcollect": 2683,
      "ext": 2684,
      "\".": 2685,
      "rem": 2686,
      "To": 2687,
      "ruction": 2688,
      "rought": 2689,
      "Ġfavor": 2690,
      "Ġbi": 2691,
      "Ġdecided": 2692,
      "ĠJapan": 2693,
      "Ġmid": 2694,
      "Ġcontent": 2695,
      "Ġchance": 2696,
      "ĠGoogle": 2697,
      "Ġtype": 2698,
      "Ġtal": 2699,
      "Ġterms": 2700,
      "Ġgirl": 2701,
      "Ġimmedi": 2702,
      "ĠSome": 2703,
      "ises": 2704,
      "ino": 2705,
      "Ġassoci": 2706,
      "Ġlack": 2707,
      "lled": 2708,
      "Ġstore": 2709,
      "Ġ@": 2710,
      "ĠGeor": 2711,
      "Ġrelationship": 2712,
      "Ġwhose": 2713,
      "Ġet": 2714,
      "ĠAct": 2715,
      "ĠTuesday": 2716,
      "ological": 2717,
      "Ġmaterial": 2718,
      "Ġord": 2719,
      "ĠWhile": 2720,
      "ĠWed": 2721,
      "osition": 2722,
      "ĠOff": 2723,
      "oved": 2724,
      "Ġability": 2725,
      "Ġinflu": 2726,
      "Ġforeign": 2727,
      "Ġsqu": 2728,
      "Ġsituation": 2729,
      "apt": 2730,
      "Ġphot": 2731,
      "Ġtakes": 2732,
      "Ġareas": 2733,
      "Ġfans": 2734,
      "Ġdefin": 2735,
      "Ġmother": 2736,
      "Ġrecogn": 2737,
      "Ġcal": 2738,
      "ops": 2739,
      "ging": 2740,
      "Ġworkers": 2741,
      "ellig": 2742,
      "Ġrequire": 2743,
      "Ġturned": 2744,
      "based": 2745,
      "Ġplans": 2746,
      "Ġcapital": 2747,
      "izing": 2748,
      "Ġ40": 2749,
      "ese": 2750,
      "Ġneigh": 2751,
      "Ġindic": 2752,
      "rown": 2753,
      "Ġmember": 2754,
      "Ġparticip": 2755,
      "Ġregard": 2756,
      "fully": 2757,
      "ÂŃ": 2758,
      "Ġadministration": 2759,
      "ĠPer": 2760,
      "ovember": 2761,
      "ĠJanuary": 2762,
      "Ġcurrently": 2763,
      "Ġcouple": 2764,
      "Ġoil": 2765,
      "Ġapproach": 2766,
      "ani": 2767,
      "Ġhuge": 2768,
      "Ġevents": 2769,
      "ĠBritish": 2770,
      "Ġarri": 2771,
      "oor": 2772,
      "\",": 2773,
      "Ġnorm": 2774,
      "Ġsource": 2775,
      "Ġrace": 2776,
      "nesday": 2777,
      "ĠSund": 2778,
      "force": 2779,
      "iction": 2780,
      "ursday": 2781,
      "Ġsimple": 2782,
      "rain": 2783,
      "usion": 2784,
      "OR": 2785,
      "Ġfinancial": 2786,
      "rect": 2787,
      "Ġfather": 2788,
      "ĠSeptember": 2789,
      "Ġlives": 2790,
      "ornia": 2791,
      "Ġ21": 2792,
      "Ġaffect": 2793,
      "Ġemer": 2794,
      "Ġfelt": 2795,
      "atory": 2796,
      "200": 2797,
      "ĠGl": 2798,
      "Ġboy": 2799,
      "Ġgoes": 2800,
      "Ġmis": 2801,
      "Ġvia": 2802,
      "One": 2803,
      "ma": 2804,
      "Ġlog": 2805,
      "Ġfem": 2806,
      "ety": 2807,
      "ructure": 2808,
      "Ġquickly": 2809,
      "Ġsecret": 2810,
      "Ġpers": 2811,
      "ĠCourt": 2812,
      "Ġoffer": 2813,
      "40": 2814,
      "ĠHill": 2815,
      "Ġthous": 2816,
      "Ġbank": 2817,
      "ĠBy": 2818,
      "Ġill": 2819,
      "estern": 2820,
      "Ġmeeting": 2821,
      "ĠCanada": 2822,
      "Ġteams": 2823,
      "ĠPal": 2824,
      "ĠEuropean": 2825,
      "Ġtou": 2826,
      "EN": 2827,
      "eg": 2828,
      "Ġwide": 2829,
      "oud": 2830,
      "Ġpull": 2831,
      "Ġcover": 2832,
      "Ġengine": 2833,
      "?âĢĿ": 2834,
      "Ġmethod": 2835,
      "vertise": 2836,
      "Ġrepe": 2837,
      "Ġlegisl": 2838,
      "ened": 2839,
      "Ġheard": 2840,
      "Ġtown": 2841,
      "bl": 2842,
      "Ġfre": 2843,
      "ĠFeb": 2844,
      "Ġhon": 2845,
      "iment": 2846,
      "99": 2847,
      "Ġpict": 2848,
      "Ġmatch": 2849,
      "Ġknew": 2850,
      "ĠWednesday": 2851,
      "chie": 2852,
      "Ġcy": 2853,
      "Ġpage": 2854,
      "Ġspent": 2855,
      "Ġhands": 2856,
      "ĠThursday": 2857,
      "Ġste": 2858,
      "'d": 2859,
      "Ġwebsite": 2860,
      "Ġtravel": 2861,
      "ceed": 2862,
      "Ġcareer": 2863,
      "ĠAugust": 2864,
      "Ġlower": 2865,
      "Ġbuilt": 2866,
      "Sh": 2867,
      "orters": 2868,
      "Ġround": 2869,
      "Ġvo": 2870,
      "ĠDavid": 2871,
      "aily": 2872,
      "ĠNovember": 2873,
      "Ġnetwork": 2874,
      "Ġenjoy": 2875,
      "Ġemail": 2876,
      "Ġsepar": 2877,
      "Ġintrodu": 2878,
      "cember": 2879,
      "Ġloss": 2880,
      "Ġincluded": 2881,
      "Ġdeli": 2882,
      "Ġtool": 2883,
      "raz": 2884,
      "Ġsize": 2885,
      "aur": 2886,
      "Ġvictim": 2887,
      "Ġperformance": 2888,
      "Ġfair": 2889,
      "Ġ22": 2890,
      "Ġtried": 2891,
      "Ġcause": 2892,
      "ession": 2893,
      "ĠTV": 2894,
      "Ġimprove": 2895,
      "ĠCalifornia": 2896,
      "ĠSw": 2897,
      "Ġeconomy": 2898,
      "order": 2899,
      "aled": 2900,
      "ume": 2901,
      "ĠEl": 2902,
      "Ġpopulation": 2903,
      "Ġpoll": 2904,
      "ĠAfric": 2905,
      "ĠCor": 2906,
      "idered": 2907,
      "Ġgrowth": 2908,
      "ĠIslam": 2909,
      "Ð°": 2910,
      "ights": 2911,
      "Ġcitiz": 2912,
      "Ġtrade": 2913,
      "ĠSan": 2914,
      "Ġdemand": 2915,
      "Ġallowed": 2916,
      "Ġproduction": 2917,
      "ctions": 2918,
      "idents": 2919,
      "Ġvisit": 2920,
      "Ġboard": 2921,
      "ĠTimes": 2922,
      "Ġdig": 2923,
      "Ġprogress": 2924,
      "Ġforces": 2925,
      "avy": 2926,
      "Ġveh": 2927,
      "uk": 2928,
      "ĠKore": 2929,
      "ĠHer": 2930,
      "ĠSunday": 2931,
      "alled": 2932,
      "Ġreach": 2933,
      "ĠQu": 2934,
      "face": 2935,
      "ĠSch": 2936,
      "iam": 2937,
      "aker": 2938,
      "ences": 2939,
      "uses": 2940,
      "Ġbrought": 2941,
      "ĠPaul": 2942,
      "Ġgets": 2943,
      "ĠRussia": 2944,
      "ĠAng": 2945,
      "Ġleader": 2946,
      "Ġnumbers": 2947,
      "lear": 2948,
      "ĠPark": 2949,
      "âĢĿ.": 2950,
      "Ġfell": 2951,
      "agement": 2952,
      "Ġban": 2953,
      "Ġbehav": 2954,
      "Ġperfect": 2955,
      "Ġsong": 2956,
      "With": 2957,
      "arily": 2958,
      "After": 2959,
      "gest": 2960,
      "down": 2961,
      "ĠOctober": 2962,
      "undred": 2963,
      "Ġrac": 2964,
      "ĠIS": 2965,
      "Ġvarious": 2966,
      "ze": 2967,
      "yond": 2968,
      "Ġrules": 2969,
      "Ġ+": 2970,
      "urning": 2971,
      "arth": 2972,
      "Ġfear": 2973,
      "Ġmovement": 2974,
      "Ġprevious": 2975,
      "ĠPost": 2976,
      "Ġcoach": 2977,
      "Ġwants": 2978,
      "Ġindepend": 2979,
      "ibly": 2980,
      "ĠParty": 2981,
      "Ġparticular": 2982,
      "ining": 2983,
      "Ġmention": 2984,
      "Ġtext": 2985,
      "load": 2986,
      "Ġconsidered": 2987,
      "ĠDecember": 2988,
      "raq": 2989,
      "cies": 2990,
      "ecause": 2991,
      "omp": 2992,
      "Ġprep": 2993,
      "bed": 2994,
      "Ġess": 2995,
      "Ġattention": 2996,
      "unk": 2997,
      "Ġlink": 2998,
      "ĠUK": 2999,
      "Ġlooks": 3000,
      "Ġmorning": 3001,
      "uments": 3002,
      "alt": 3003,
      "Ġ23": 3004,
      "hold": 3005,
      "Ġcontact": 3006,
      "AL": 3007,
      "chers": 3008,
      "ĠCenter": 3009,
      "Ġhot": 3010,
      "Ġtraining": 3011,
      "field": 3012,
      "Ġspeed": 3013,
      "Ġsystems": 3014,
      "Ġlatest": 3015,
      "set": 3016,
      "Ġtalking": 3017,
      "come": 3018,
      "Ġliber": 3019,
      "ification": 3020,
      "Ġdoll": 3021,
      "AC": 3022,
      "Ġbud": 3023,
      "Ġstar": 3024,
      "sequ": 3025,
      "inks": 3026,
      "oo": 3027,
      "rim": 3028,
      "Ġhear": 3029,
      "Ġcritic": 3030,
      "Ġ2009": 3031,
      "Ġsurve": 3032,
      "Ġpen": 3033,
      "ening": 3034,
      "aturday": 3035,
      "ĠMark": 3036,
      "uf": 3037,
      "Ġslow": 3038,
      "ĠPat": 3039,
      "ĠBlack": 3040,
      "Ġsort": 3041,
      "Ġhor": 3042,
      "Ġconduct": 3043,
      "While": 3044,
      "istan": 3045,
      "Ġextreme": 3046,
      "vent": 3047,
      "ĠCont": 3048,
      "Ġens": 3049,
      "sych": 3050,
      "ledge": 3051,
      "ha": 3052,
      "Ġupon": 3053,
      "ope": 3054,
      "ps": 3055,
      "Ġsens": 3056,
      "ED": 3057,
      "ĠStreet": 3058,
      "Ġfeatures": 3059,
      "icles": 3060,
      "ban": 3061,
      "Ġexam": 3062,
      "Ġcrim": 3063,
      "ĠIndia": 3064,
      "Ġdemon": 3065,
      "ĠIraq": 3066,
      "ysis": 3067,
      "Ġparents": 3068,
      "Ġbox": 3069,
      "ĠCounty": 3070,
      "Ġexcept": 3071,
      "aries": 3072,
      "Ġhttp": 3073,
      "____": 3074,
      "Ġreb": 3075,
      "ĠKing": 3076,
      "imately": 3077,
      "22": 3078,
      "ondon": 3079,
      "Ġconserv": 3080,
      "ground": 3081,
      "Ġaddition": 3082,
      "coin": 3083,
      "Ġconc": 3084,
      "ico": 3085,
      "Ġseek": 3086,
      "illed": 3087,
      "Ġserious": 3088,
      "Ġlooked": 3089,
      "aph": 3090,
      "Ġregul": 3091,
      "Ġgas": 3092,
      "Ġimage": 3093,
      "fl": 3094,
      "Ġmajority": 3095,
      "?\"": 3096,
      "Ġson": 3097,
      "eared": 3098,
      "Ġsn": 3099,
      "Ġconvers": 3100,
      "Ġinvestigation": 3101,
      "Ġfast": 3102,
      "Ġlevels": 3103,
      "Ġwond": 3104,
      "Ġseven": 3105,
      "Ġsearch": 3106,
      "het": 3107,
      "!!!!!!!!": 3108,
      "Ġlearn": 3109,
      "Ġstrugg": 3110,
      "Ġsociety": 3111,
      "Ð¾": 3112,
      "Ġrange": 3113,
      "ĠSoc": 3114,
      "Ġeffort": 3115,
      "ĠSand": 3116,
      "tr": 3117,
      "80": 3118,
      "Ġmedical": 3119,
      "wo": 3120,
      "Ġachie": 3121,
      "Ġeight": 3122,
      "Ġexperien": 3123,
      "US": 3124,
      "Ġdocument": 3125,
      "Ġpaper": 3126,
      "Ġmach": 3127,
      "Ðµ": 3128,
      "Ġoccur": 3129,
      "Tr": 3130,
      "Ġcompletely": 3131,
      "ĠIran": 3132,
      "ĠSenate": 3133,
      "Ġdoub": 3134,
      "Ġblood": 3135,
      "Ġofficers": 3136,
      "Ġwritten": 3137,
      "Ġlanguage": 3138,
      "Ġdraw": 3139,
      "Ġproducts": 3140,
      "Ġspokes": 3141,
      "ibr": 3142,
      "Ġimmigr": 3143,
      "elligence": 3144,
      ");": 3145,
      "idge": 3146,
      "iant": 3147,
      "Ġrequired": 3148,
      "Ġprevent": 3149,
      "Ġund": 3150,
      "room": 3151,
      "Ġattacks": 3152,
      "eff": 3153,
      "erve": 3154,
      "Ġscreen": 3155,
      "ges": 3156,
      "Ġnamed": 3157,
      "Ġlay": 3158,
      "ruary": 3159,
      "Ġexactly": 3160,
      "Ġpoor": 3161,
      "ĠStar": 3162,
      "Ġjournal": 3163,
      "Ġincreasing": 3164,
      "ales": 3165,
      "Ġdro": 3166,
      "ĠTex": 3167,
      "Ġopportunity": 3168,
      "Ġ27": 3169,
      "Ġmessage": 3170,
      "ille": 3171,
      "Ġprotest": 3172,
      "Ġhundred": 3173,
      "aves": 3174,
      "Ġparticularly": 3175,
      "ishing": 3176,
      "Ġdefense": 3177,
      "inally": 3178,
      "Ġextra": 3179,
      "fort": 3180,
      "Ġinteresting": 3181,
      "Ġdescribed": 3182,
      "Ġstuff": 3183,
      "oses": 3184,
      "ett": 3185,
      "IC": 3186,
      "Ġcard": 3187,
      "aly": 3188,
      "pir": 3189,
      "aming": 3190,
      "Ġprison": 3191,
      "nces": 3192,
      "ida": 3193,
      "Ġleading": 3194,
      "Ġcarry": 3195,
      "eth": 3196,
      "Ġjobs": 3197,
      "Ġprior": 3198,
      "lying": 3199,
      "pper": 3200,
      "24": 3201,
      "OS": 3202,
      "Ġobv": 3203,
      "Ġquality": 3204,
      "Ġbiggest": 3205,
      "Ġ2008": 3206,
      "inese": 3207,
      "Ġdespite": 3208,
      "ara": 3209,
      "Ġpan": 3210,
      "Ġnatural": 3211,
      "Ġplat": 3212,
      "ĠKe": 3213,
      "Ġclaims": 3214,
      "ux": 3215,
      "Ġ*": 3216,
      "Ġfinally": 3217,
      "Ġcalls": 3218,
      "ĠSaturday": 3219,
      "asc": 3220,
      "hers": 3221,
      "ĠMuslim": 3222,
      "Ġincreased": 3223,
      "ĠLondon": 3224,
      "Ġinn": 3225,
      "reedom": 3226,
      "Ġstories": 3227,
      "AM": 3228,
      "Ġaren": 3229,
      "anced": 3230,
      "Ġcommunic": 3231,
      "Ġpractice": 3232,
      "ĠMor": 3233,
      "FL": 3234,
      "Ġitem": 3235,
      "uclear": 3236,
      "ĠDonald": 3237,
      "She": 3238,
      "Ġfix": 3239,
      "entially": 3240,
      "Ġpaid": 3241,
      "Ġsometimes": 3242,
      "ny": 3243,
      "Ġmiddle": 3244,
      "Ġult": 3245,
      "ĠChe": 3246,
      "Ġmodern": 3247,
      "iers": 3248,
      "Ġresour": 3249,
      "Ġscience": 3250,
      "Ġhous": 3251,
      "ĠRom": 3252,
      "ĠEm": 3253,
      "Ġdanger": 3254,
      "Ġones": 3255,
      "isions": 3256,
      "zz": 3257,
      "ĠRussian": 3258,
      "rowd": 3259,
      "Ġanswer": 3260,
      "Ġcertainly": 3261,
      "Ġviolence": 3262,
      "No": 3263,
      "Ġimplement": 3264,
      "Ġchanged": 3265,
      "Ġlaws": 3266,
      "rast": 3267,
      "Ġuser": 3268,
      "Ġimag": 3269,
      "vertisement": 3270,
      "ĠDemocratic": 3271,
      "IT": 3272,
      "Ġremain": 3273,
      "hib": 3274,
      "Ġdog": 3275,
      "Ġpurch": 3276,
      "ari": 3277,
      "arr": 3278,
      "ously": 3279,
      "lin": 3280,
      "Ġassist": 3281,
      "Ġkids": 3282,
      "aught": 3283,
      "inated": 3284,
      "ĠCoun": 3285,
      "Ġcele": 3286,
      "Ġcross": 3287,
      "Ġterm": 3288,
      "Ġchief": 3289,
      "Ġremains": 3290,
      "Ġdetails": 3291,
      "Ġ28": 3292,
      "ĠMore": 3293,
      "abor": 3294,
      "Ġcontinued": 3295,
      "Ġstarting": 3296,
      "ĠFebruary": 3297,
      "Ġpath": 3298,
      "utions": 3299,
      "erc": 3300,
      "Ġgiving": 3301,
      "Ġtable": 3302,
      "Ġpurp": 3303,
      "Ġwriting": 3304,
      "oul": 3305,
      "Ġhistor": 3306,
      "Ġreality": 3307,
      "Ġproperty": 3308,
      "Ġsummer": 3309,
      "ospital": 3310,
      "Ġperhaps": 3311,
      "ĠJew": 3312,
      "Ġguy": 3313,
      "ĠEven": 3314,
      "Ġmovie": 3315,
      "Ġready": 3316,
      "Ġstandard": 3317,
      "Ġsafe": 3318,
      "Ġsurv": 3319,
      "Ġcosts": 3320,
      "Ġalthough": 3321,
      "Ġthinking": 3322,
      "Ġshowed": 3323,
      "egr": 3324,
      "Ġvoters": 3325,
      "Ġsexual": 3326,
      "inary": 3327,
      "Ġgrowing": 3328,
      "Ġ196": 3329,
      "Ġcamer": 3330,
      "Ġadditional": 3331,
      "Ġdirectly": 3332,
      "ĠLeague": 3333,
      "Ġusually": 3334,
      "Ġquarter": 3335,
      "itch": 3336,
      "Ġdamage": 3337,
      "Ġincome": 3338,
      "Ġparts": 3339,
      "ĠRepublicans": 3340,
      "ĠNet": 3341,
      "overed": 3342,
      "Ġmaintain": 3343,
      "Ġcomments": 3344,
      "Ġ26": 3345,
      "Ġaw": 3346,
      "Ġil": 3347,
      "Ġclimate": 3348,
      "Ġsoftware": 3349,
      "ĠSpe": 3350,
      "ĠBill": 3351,
      "Ġspot": 3352,
      "rench": 3353,
      "ĠEast": 3354,
      "Ġreading": 3355,
      "Ġprovided": 3356,
      "Ġment": 3357,
      "ension": 3358,
      "Ġdied": 3359,
      "icted": 3360,
      "Ġmultiple": 3361,
      "ĠChar": 3362,
      "mitted": 3363,
      "astic": 3364,
      "akers": 3365,
      "atever": 3366,
      "Ġmill": 3367,
      "Ġfootball": 3368,
      "ĠFirst": 3369,
      "icated": 3370,
      "ĠDes": 3371,
      "Ġwouldn": 3372,
      "ĠCons": 3373,
      "Ġbeyond": 3374,
      "add": 3375,
      "Ġver": 3376,
      "23": 3377,
      "Ġconcept": 3378,
      "Ġunf": 3379,
      "imum": 3380,
      "Ġchoice": 3381,
      "Ġspeech": 3382,
      "sp": 3383,
      "Ġten": 3384,
      "Ġresear": 3385,
      "Ġsafety": 3386,
      "Ġcorpor": 3387,
      "ables": 3388,
      "Ġcomplex": 3389,
      "ĠÂ£": 3390,
      "ĠMinister": 3391,
      "Ġfit": 3392,
      "ĠChinese": 3393,
      "icks": 3394,
      "using": 3395,
      "Ġregion": 3396,
      "ĠMichael": 3397,
      "Ġculture": 3398,
      "Ġ...": 3399,
      "Ġâ": 3400,
      "ĠGener": 3401,
      "oper": 3402,
      "Ġefforts": 3403,
      "Ġcounter": 3404,
      "ĠInt": 3405,
      "OP": 3406,
      "Ġ(@": 3407,
      "Ġtitle": 3408,
      "Ġdesigned": 3409,
      "Ġpressure": 3410,
      "ĠMcC": 3411,
      "enge": 3412,
      "aughter": 3413,
      "Ġofficer": 3414,
      "Ġfigure": 3415,
      "ĠâĢ¦": 3416,
      "Now": 3417,
      "Ġtro": 3418,
      "Ġtowards": 3419,
      "BI": 3420,
      "My": 3421,
      "Ġletter": 3422,
      "Ġscene": 3423,
      "ression": 3424,
      "Ġselect": 3425,
      "ĠJames": 3426,
      "ampions": 3427,
      "Ġut": 3428,
      "hest": 3429,
      "Ġnom": 3430,
      "Ġeducation": 3431,
      "Ġrecomm": 3432,
      "Ġwrite": 3433,
      "Ġcomputer": 3434,
      "ĠIndian": 3435,
      "Ġsle": 3436,
      "Ġconsist": 3437,
      "Ġcouldn": 3438,
      "itor": 3439,
      "Ġwife": 3440,
      "Ġguys": 3441,
      "Ġoption": 3442,
      "Ġrob": 3443,
      "cient": 3444,
      "Ġdisapp": 3445,
      "Ġrout": 3446,
      "ago": 3447,
      "aches": 3448,
      "Ġcentury": 3449,
      "Ġpresidential": 3450,
      "Ġrelative": 3451,
      "Ġmob": 3452,
      "Ġalone": 3453,
      "29": 3454,
      "ĠTexas": 3455,
      "amb": 3456,
      "Ġsat": 3457,
      "ĠSim": 3458,
      "Ġreceive": 3459,
      "Ġincludes": 3460,
      "Ġcast": 3461,
      "Ġthroughout": 3462,
      "ilies": 3463,
      "adem": 3464,
      "urg": 3465,
      "Ġrock": 3466,
      "rupt": 3467,
      "Ġdifference": 3468,
      "Ġthousands": 3469,
      "Ġplatform": 3470,
      "Ġcommand": 3471,
      "Ġband": 3472,
      "pre": 3473,
      "ford": 3474,
      "wise": 3475,
      "Ġpassed": 3476,
      "Ġgone": 3477,
      "Ġclean": 3478,
      "Ġsuspect": 3479,
      "ares": 3480,
      "ĠII": 3481,
      "ĠThen": 3482,
      "itute": 3483,
      "Ġdebate": 3484,
      "Ġcenter": 3485,
      "Ġreasons": 3486,
      "ivity": 3487,
      "Ġmoved": 3488,
      "Ġconditions": 3489,
      "Ġsil": 3490,
      "Ġimmediately": 3491,
      "ĠBo": 3492,
      "35": 3493,
      "Ġpiece": 3494,
      "Ġcitizens": 3495,
      "Ġ}": 3496,
      "iny": 3497,
      "Ġdevice": 3498,
      "ĠNe": 3499,
      "Ġstudent": 3500,
      "Ġtoward": 3501,
      "de": 3502,
      "27": 3503,
      "ustr": 3504,
      "airs": 3505,
      "Ġtour": 3506,
      "Ġpark": 3507,
      "Ġcat": 3508,
      "Ġcrowd": 3509,
      "ĠAssoci": 3510,
      "ufact": 3511,
      "Ġbattle": 3512,
      "icient": 3513,
      "craft": 3514,
      "Ġnature": 3515,
      "Ġremember": 3516,
      "ston": 3517,
      "Ġconference": 3518,
      "ĠSer": 3519,
      "Ġcool": 3520,
      "Ġsubst": 3521,
      "Ġsell": 3522,
      "Ġlaunch": 3523,
      "Ġahead": 3524,
      "Im": 3525,
      "oes": 3526,
      "urt": 3527,
      "Ġchalleng": 3528,
      "Ġepis": 3529,
      "olute": 3530,
      "anch": 3531,
      "Ġdate": 3532,
      "ocked": 3533,
      "All": 3534,
      "irth": 3535,
      "âĢĶâĢĶâĢĶâĢĶ": 3536,
      "Ġign": 3537,
      "ĠServ": 3538,
      "Ġclos": 3539,
      "Ġencour": 3540,
      "Ġorganization": 3541,
      "rief": 3542,
      "omen": 3543,
      "etro": 3544,
      "Ġfailed": 3545,
      "Ġgrad": 3546,
      "ĠRich": 3547,
      "ĠMex": 3548,
      "ĠOf": 3549,
      "Ġdeg": 3550,
      "ĠTor": 3551,
      "Ġopin": 3552,
      "Ġnuclear": 3553,
      "Ġscore": 3554,
      "Ġeffects": 3555,
      "Ġdrive": 3556,
      "new": 3557,
      "ĠMon": 3558,
      "Ġcris": 3559,
      "Ġeyes": 3560,
      "Ġmeaning": 3561,
      "45": 3562,
      "Ġalleged": 3563,
      "ĠGreen": 3564,
      "Ġmeant": 3565,
      "roy": 3566,
      "ĠApple": 3567,
      "Ġcopy": 3568,
      "Ġagency": 3569,
      "Ġ60": 3570,
      "Ġcontribut": 3571,
      "Ġappears": 3572,
      "Ġtrust": 3573,
      "Ġwall": 3574,
      "ĠMart": 3575,
      "Ġbott": 3576,
      "venue": 3577,
      "berg": 3578,
      "iles": 3579,
      "Ġlargest": 3580,
      "Ġlimited": 3581,
      "Ġmoving": 3582,
      "Ġstage": 3583,
      "Ġshown": 3584,
      "aint": 3585,
      "bum": 3586,
      "ĠTH": 3587,
      "arian": 3588,
      "Ġhelped": 3589,
      "Ġprec": 3590,
      "Don": 3591,
      "Ġfile": 3592,
      "Ġdark": 3593,
      "Ġnote": 3594,
      "Ġbeginning": 3595,
      "Ġestim": 3596,
      "itation": 3597,
      "Ġhappy": 3598,
      "Ġreligious": 3599,
      "urance": 3600,
      "ĠEU": 3601,
      "ĠGermany": 3602,
      "OT": 3603,
      "just": 3604,
      "Ġschools": 3605,
      "Ġfan": 3606,
      "orney": 3607,
      "ĠTur": 3608,
      "Ġrefer": 3609,
      "Ġeventually": 3610,
      "Ġfeature": 3611,
      "Ġbooks": 3612,
      "wood": 3613,
      "Ġcriminal": 3614,
      "ĠDemocrats": 3615,
      "21": 3616,
      "Ġyourself": 3617,
      "Ġblog": 3618,
      "more": 3619,
      "Ġdemonstr": 3620,
      "Ġaim": 3621,
      "ĠRober": 3622,
      "Ġsche": 3623,
      "Ġbrain": 3624,
      "orks": 3625,
      "Ġanalysis": 3626,
      "Ġforced": 3627,
      "Ġfrequ": 3628,
      "raight": 3629,
      "ester": 3630,
      "Ġexecutive": 3631,
      "ias": 3632,
      "Ġgives": 3633,
      "Ġdecades": 3634,
      "Ġplant": 3635,
      "men": 3636,
      "Ġmyself": 3637,
      "Ġnecessary": 3638,
      "bon": 3639,
      "Ġcelebr": 3640,
      "Ġoverall": 3641,
      "Ġilleg": 3642,
      "AD": 3643,
      "rs": 3644,
      "Ġpowerful": 3645,
      "Ġbudget": 3646,
      "inn": 3647,
      "Ġcrime": 3648,
      "Ġaware": 3649,
      "Ġcompared": 3650,
      "ĠJack": 3651,
      "Ġconfir": 3652,
      "Ġautom": 3653,
      "Ġcandidate": 3654,
      "ĠGeorge": 3655,
      "Ġsusp": 3656,
      "enty": 3657,
      "Ġspending": 3658,
      "ĠAir": 3659,
      "ken": 3660,
      "Ġdisp": 3661,
      "agon": 3662,
      "Ġleague": 3663,
      "--------": 3664,
      "Re": 3665,
      "26": 3666,
      "ĠEnglish": 3667,
      "New": 3668,
      "Ġfollowed": 3669,
      "Ġesc": 3670,
      "Ġarch": 3671,
      "yan": 3672,
      "Ġfamilies": 3673,
      "ĠHere": 3674,
      "Ġpolitics": 3675,
      "Ġsigned": 3676,
      "ĠSmith": 3677,
      "Ġang": 3678,
      "ports": 3679,
      "uing": 3680,
      "Ġfeed": 3681,
      "ĠPolice": 3682,
      "iring": 3683,
      "Ġdetail": 3684,
      "Ġeasily": 3685,
      "encies": 3686,
      "Ġdeveloped": 3687,
      "Ġcharge": 3688,
      "Ġweapons": 3689,
      "lease": 3690,
      "ĠEarth": 3691,
      "Ġprint": 3692,
      "Ġcollege": 3693,
      "Ġnoted": 3694,
      "band": 3695,
      "Ġtruth": 3696,
      "Ġgold": 3697,
      "ĠSuper": 3698,
      "Ġphysical": 3699,
      "Ġaltern": 3700,
      "Ġcontinues": 3701,
      "owers": 3702,
      "Ġmaybe": 3703,
      "ĠDay": 3704,
      "Ġ29": 3705,
      "Ġmix": 3706,
      "Ġallows": 3707,
      "Ġavoid": 3708,
      "Ġbal": 3709,
      "sey": 3710,
      "Ġideas": 3711,
      "Ġunique": 3712,
      "ero": 3713,
      "Ġactions": 3714,
      "Ġcharacters": 3715,
      "ube": 3716,
      "Ġlif": 3717,
      "By": 3718,
      "Ġstreng": 3719,
      "nown": 3720,
      "Be": 3721,
      "aud": 3722,
      "ĠBel": 3723,
      "Ġpromot": 3724,
      "Ġprojects": 3725,
      "Ġpsych": 3726,
      "onents": 3727,
      "Pro": 3728,
      "Ġtwe": 3729,
      "Ġpolicies": 3730,
      "Some": 3731,
      "dom": 3732,
      "Ġuses": 3733,
      "Ġspir": 3734,
      "ĠSyria": 3735,
      "Ġx": 3736,
      "pen": 3737,
      "Ġsmart": 3738,
      "ĠCap": 3739,
      "chan": 3740,
      "Ġsenior": 3741,
      "Ġcorrect": 3742,
      "Ġpositive": 3743,
      "Ġindividuals": 3744,
      "ĠVal": 3745,
      "28": 3746,
      "erved": 3747,
      "Ġreached": 3748,
      "Ġbenefits": 3749,
      "ĠGovern": 3750,
      "Ġtreatment": 3751,
      "ĠJer": 3752,
      "According": 3753,
      "riage": 3754,
      "ressed": 3755,
      "iable": 3756,
      "ĠSchool": 3757,
      "Ġtraff": 3758,
      "ĠAustralia": 3759,
      "Ġreform": 3760,
      "Ġthrow": 3761,
      "Ġrap": 3762,
      "Ġgrand": 3763,
      "Ġtouch": 3764,
      "uty": 3765,
      "Ġappeared": 3766,
      "Ġrates": 3767,
      "Is": 3768,
      "ado": 3769,
      "Ġmanufact": 3770,
      "Ġsto": 3771,
      "cul": 3772,
      "EC": 3773,
      "Ġswe": 3774,
      "Ġ>": 3775,
      "ĠInternational": 3776,
      "iced": 3777,
      "Ġcustomers": 3778,
      "Ġvoice": 3779,
      "ĠBen": 3780,
      "Ġlic": 3781,
      "Ġcentral": 3782,
      "Ġadvant": 3783,
      "Ġnice": 3784,
      "Ġcrisis": 3785,
      "Ġbrother": 3786,
      "resh": 3787,
      "Ġrelated": 3788,
      "ĠCouncil": 3789,
      "board": 3790,
      "Ġfirm": 3791,
      "secut": 3792,
      "Ġdoor": 3793,
      "ĠUnion": 3794,
      "AP": 3795,
      "Ġpreviously": 3796,
      "Ġpus": 3797,
      "ean": 3798,
      "attle": 3799,
      "ĠFrench": 3800,
      "Ġprem": 3801,
      "orter": 3802,
      "itely": 3803,
      "Ġagreement": 3804,
      "Ġstudies": 3805,
      "Ġmeasure": 3806,
      "Ġminor": 3807,
      "Ġweb": 3808,
      "ĠHigh": 3809,
      "part": 3810,
      "Ġkept": 3811,
      "iance": 3812,
      "Ġhighly": 3813,
      "Ġexpand": 3814,
      "ĠPlay": 3815,
      "ĠAngel": 3816,
      "Un": 3817,
      "IA": 3818,
      "Ġcities": 3819,
      "Ġenforce": 3820,
      "ĠBrown": 3821,
      "Ġlines": 3822,
      "Ġapparent": 3823,
      "Ġplaces": 3824,
      "ategy": 3825,
      "while": 3826,
      "ĠAnt": 3827,
      "Ġconflic": 3828,
      "Ġfeet": 3829,
      "box": 3830,
      "Ġemb": 3831,
      "100": 3832,
      "change": 3833,
      "oti": 3834,
      "Ġseemed": 3835,
      "Ġdraft": 3836,
      "Ġfully": 3837,
      "Advertisement": 3838,
      "olic": 3839,
      "ĠBush": 3840,
      "Ġdisplay": 3841,
      "Ġminister": 3842,
      "Ġgoals": 3843,
      "Ġspread": 3844,
      "Ġdetermin": 3845,
      "Ġbeaut": 3846,
      "Ġcharges": 3847,
      "Ġstyle": 3848,
      "Ġgreater": 3849,
      "Ġknowledge": 3850,
      "Ġcaused": 3851,
      "Ġsuccessful": 3852,
      "Ġtemper": 3853,
      "que": 3854,
      "Ġintelligence": 3855,
      "yl": 3856,
      "Ġdise": 3857,
      "Ġimpl": 3858,
      "Ġ2007": 3859,
      "Ġrule": 3860,
      "iven": 3861,
      "Ġstraight": 3862,
      "Ġattract": 3863,
      "Ġfine": 3864,
      "Ġclearly": 3865,
      "Ġalbum": 3866,
      "ĠLou": 3867,
      "ĠDis": 3868,
      "ĠWell": 3869,
      "Ġsales": 3870,
      "):": 3871,
      "Ġhar": 3872,
      "Ġlarger": 3873,
      "Ġshooting": 3874,
      "antly": 3875,
      "Ġanaly": 3876,
      "Ġfa": 3877,
      "oday": 3878,
      "ĠTom": 3879,
      "Ġpatients": 3880,
      "SA": 3881,
      "Ġintegr": 3882,
      "ength": 3883,
      "ĠBer": 3884,
      "Ġcredit": 3885,
      "Ġdrop": 3886,
      "ĠFlor": 3887,
      "Ġactivity": 3888,
      "Ġprimary": 3889,
      "ĠFrom": 3890,
      "70": 3891,
      "ĠRob": 3892,
      "Ġincident": 3893,
      "Ġpush": 3894,
      "alse": 3895,
      "iled": 3896,
      "Ġfighting": 3897,
      "Ġrare": 3898,
      "osh": 3899,
      "Ġstatus": 3900,
      "Ġnormal": 3901,
      "Ġchallenge": 3902,
      "Ġended": 3903,
      "ae": 3904,
      "icit": 3905,
      "Ġclaimed": 3906,
      "Ġpeace": 3907,
      "Ġmist": 3908,
      "ĠArab": 3909,
      "33": 3910,
      "ĠComp": 3911,
      "Ġknows": 3912,
      ".âĢĻ": 3913,
      "Ġpun": 3914,
      "ifying": 3915,
      "Ġadop": 3916,
      "Ġcalling": 3917,
      "iverse": 3918,
      "Ġgreen": 3919,
      "Ġspend": 3920,
      "Ġcolor": 3921,
      "Ġir": 3922,
      "ĠBre": 3923,
      "Ġadding": 3924,
      "itness": 3925,
      "Ġsupposed": 3926,
      "Ġoptions": 3927,
      "ki": 3928,
      "Ġorganiz": 3929,
      "ĠEvery": 3930,
      "wide": 3931,
      "Ġowners": 3932,
      "Ġfat": 3933,
      "see": 3934,
      "ribution": 3935,
      "icago": 3936,
      "Ġwilling": 3937,
      "Ġregular": 3938,
      "term": 3939,
      "ĠChristian": 3940,
      "Ġbeat": 3941,
      "roid": 3942,
      "Ġsend": 3943,
      "90": 3944,
      "Ġmostly": 3945,
      "Ġsave": 3946,
      "Ġacqu": 3947,
      "Ġwhatever": 3948,
      "Ġleaving": 3949,
      "Ġrise": 3950,
      "amm": 3951,
      "ĠInternet": 3952,
      "rial": 3953,
      "clus": 3954,
      "Ġresources": 3955,
      "Ġmassive": 3956,
      "Ġauthorities": 3957,
      "ĠMost": 3958,
      "Ġslight": 3959,
      "Ġlaun": 3960,
      "ãĤ": 3961,
      "ounds": 3962,
      "vest": 3963,
      "Ġconcerns": 3964,
      "OM": 3965,
      "Ġnames": 3966,
      "miss": 3967,
      "ĠGold": 3968,
      "Ġprograms": 3969,
      "earch": 3970,
      "Ġrestr": 3971,
      "Ġlik": 3972,
      "Ġjudge": 3973,
      "Ġtrou": 3974,
      "Ġreflect": 3975,
      "Ġliter": 3976,
      "Here": 3977,
      "Ġqual": 3978,
      "Ġsources": 3979,
      "Ġshut": 3980,
      "roll": 3981,
      "Ġhospital": 3982,
      "Ġele": 3983,
      "Ġraised": 3984,
      "ĠFranc": 3985,
      "Ġhaven": 3986,
      "Ġoffered": 3987,
      "Ġbasic": 3988,
      "Ġenem": 3989,
      "Ġresearchers": 3990,
      "Ġabsolute": 3991,
      "ĠWind": 3992,
      "Ġcry": 3993,
      "Ġstation": 3994,
      "ĠBit": 3995,
      "Ġmanager": 3996,
      "ocks": 3997,
      "Ġbirth": 3998,
      "Ð¸": 3999,
      "ID": 4000,
      "org": 4001,
      "ĠTrans": 4002,
      "ĠGeneral": 4003,
      "Ġfunding": 4004,
      "iders": 4005,
      "Ġensure": 4006,
      "agn": 4007,
      "Ġmechan": 4008,
      "Ġlawy": 4009,
      "Ġemot": 4010,
      "Ġemployees": 4011,
      "ona": 4012,
      "ram": 4013,
      "Ġactual": 4014,
      "ĠRec": 4015,
      "ĠÃ": 4016,
      "Ġdistrict": 4017,
      "Ġadult": 4018,
      "mission": 4019,
      "Ġstrategy": 4020,
      "ota": 4021,
      "ĠLaw": 4022,
      "Ġcreating": 4023,
      "ĠReg": 4024,
      "vere": 4025,
      ".'": 4026,
      "ĠAccording": 4027,
      "ET": 4028,
      "ica": 4029,
      "Ġmemory": 4030,
      "mark": 4031,
      "ĠEngland": 4032,
      "ĠUp": 4033,
      "Not": 4034,
      "Ġjump": 4035,
      "Ġseeing": 4036,
      "Ġchem": 4037,
      "Ġtraditional": 4038,
      "spect": 4039,
      "Ġwhom": 4040,
      "Ġwait": 4041,
      "Ar": 4042,
      "EO": 4043,
      "Ġbeg": 4044,
      "Ġeye": 4045,
      "levision": 4046,
      "ĠDef": 4047,
      "uman": 4048,
      "Ġfemale": 4049,
      "Ġcars": 4050,
      "ĠFrance": 4051,
      "ĠFlorida": 4052,
      "Ġstreet": 4053,
      "Con": 4054,
      "mittee": 4055,
      "ĠMo": 4056,
      "Ġrank": 4057,
      "Ġhappens": 4058,
      "Ġbehavior": 4059,
      "Ġvac": 4060,
      "Ġteac": 4061,
      "acing": 4062,
      "Ġvirt": 4063,
      "lick": 4064,
      "Ġarrested": 4065,
      "pri": 4066,
      "Ġtend": 4067,
      "Ġprices": 4068,
      "rol": 4069,
      "Ġbelieved": 4070,
      "etic": 4071,
      "âĢĿ,": 4072,
      "Ġassault": 4073,
      "Ġbenefit": 4074,
      "ĠMac": 4075,
      "Ġfreedom": 4076,
      "Ġmer": 4077,
      "Ġpropos": 4078,
      "ĠBay": 4079,
      "iation": 4080,
      "ville": 4081,
      "oles": 4082,
      "Ġappl": 4083,
      "ection": 4084,
      "Ġproduce": 4085,
      "Ġspecies": 4086,
      "icial": 4087,
      "udd": 4088,
      "Ġweekend": 4089,
      "Ġcommer": 4090,
      "Ġparties": 4091,
      "Ġfeeling": 4092,
      "www": 4093,
      "orial": 4094,
      "ĠLet": 4095,
      "ĠScott": 4096,
      "Ġchoose": 4097,
      "Ġtheory": 4098,
      "Ġasking": 4099,
      "Ġbrief": 4100,
      "ingly": 4101,
      "Ġposted": 4102,
      "la": 4103,
      "Ġscen": 4104,
      "Ġrat": 4105,
      "Ġrecords": 4106,
      "ĠSanders": 4107,
      "Ġdollars": 4108,
      "istry": 4109,
      "Ġmount": 4110,
      "ĠStud": 4111,
      "Ġvalues": 4112,
      "ser": 4113,
      "ĠDel": 4114,
      "Ġindependent": 4115,
      "ĠPeople": 4116,
      "Ġneighbor": 4117,
      "ĠLa": 4118,
      "Ġresidents": 4119,
      "Ġcoverage": 4120,
      "Ġsection": 4121,
      "Ġconfirmed": 4122,
      "Ġlearned": 4123,
      "Ġrevealed": 4124,
      "ĠWestern": 4125,
      "Ġwonder": 4126,
      "ords": 4127,
      "well": 4128,
      "Ġdevices": 4129,
      "Ġship": 4130,
      "500": 4131,
      "ste": 4132,
      "Ġproduced": 4133,
      "ties": 4134,
      "ya": 4135,
      "Ġapplication": 4136,
      "Ġadvoc": 4137,
      "ĠLiber": 4138,
      "inger": 4139,
      "Ġmur": 4140,
      "Ġvs": 4141,
      "olf": 4142,
      "aked": 4143,
      "Ġagreed": 4144,
      "Ġsurround": 4145,
      "Ġcoal": 4146,
      "igned": 4147,
      "Ġinvestment": 4148,
      "ĠCanadian": 4149,
      "Ġcateg": 4150,
      "Ġruns": 4151,
      "Ġwild": 4152,
      "Ġeth": 4153,
      "uild": 4154,
      "ĠPort": 4155,
      "ĠCommission": 4156,
      "itude": 4157,
      "ented": 4158,
      "Ġoperations": 4159,
      "ĠWhy": 4160,
      "Ġshowing": 4161,
      "uana": 4162,
      "Ġinfluence": 4163,
      "Ġdire": 4164,
      "Ġweight": 4165,
      "Ġinterested": 4166,
      "Ġvill": 4167,
      "ĠAlex": 4168,
      "Ġchair": 4169,
      "Ġopposition": 4170,
      "Ġcritical": 4171,
      "Ġlose": 4172,
      "Ġdefend": 4173,
      "Ġdriver": 4174,
      "ada": 4175,
      "ĠPress": 4176,
      "Ġenter": 4177,
      "Ġimages": 4178,
      "ĠSun": 4179,
      "Ġetc": 4180,
      "rey": 4181,
      "Ġpicture": 4182,
      "icip": 4183,
      "ghan": 4184,
      "ĠMod": 4185,
      "Ġtrial": 4186,
      "ags": 4187,
      "Ex": 4188,
      "Ġworse": 4189,
      "oly": 4190,
      "ĠOther": 4191,
      "Ġdefe": 4192,
      "ĠBecause": 4193,
      "Ġinstall": 4194,
      "cell": 4195,
      "Ġbur": 4196,
      "ĠChicago": 4197,
      "Ġlearning": 4198,
      "Ġarm": 4199,
      "Ġpolitic": 4200,
      "Ġmission": 4201,
      "ĠHillary": 4202,
      "Ġreplace": 4203,
      "Ġdrink": 4204,
      "lands": 4205,
      "Ġeffective": 4206,
      "ĠPhil": 4207,
      "bert": 4208,
      "asion": 4209,
      "rian": 4210,
      "estic": 4211,
      "Ġnegoti": 4212,
      "onent": 4213,
      "liament": 4214,
      "Ġcore": 4215,
      "Ġresponsible": 4216,
      "cont": 4217,
      "ĠCup": 4218,
      "aby": 4219,
      "Ġhighest": 4220,
      "ING": 4221,
      "rav": 4222,
      "outhern": 4223,
      "cience": 4224,
      "Ġgenerally": 4225,
      "Ġ80": 4226,
      "Ġwat": 4227,
      "irgin": 4228,
      "illing": 4229,
      "Ġestablish": 4230,
      "44": 4231,
      "gen": 4232,
      "Ġtick": 4233,
      "Ġprovides": 4234,
      "ĠJustice": 4235,
      "Ġunderstanding": 4236,
      "Ġsleep": 4237,
      "Ġlimit": 4238,
      "ĠHall": 4239,
      "coming": 4240,
      "Ġcru": 4241,
      "Ġnotice": 4242,
      "ĠChurch": 4243,
      "Sc": 4244,
      "orrow": 4245,
      "Ġmarriage": 4246,
      "Ġsolution": 4247,
      "ST": 4248,
      "These": 4249,
      "Ġadvantage": 4250,
      "Ġmale": 4251,
      "ĠOur": 4252,
      "ictions": 4253,
      "36": 4254,
      "ĠCommittee": 4255,
      "ulf": 4256,
      "Ġexplained": 4257,
      "mar": 4258,
      "However": 4259,
      "Ġbottom": 4260,
      "ĠAP": 4261,
      "ĠSecret": 4262,
      "Ġtraffic": 4263,
      "za": 4264,
      "Ġbrand": 4265,
      "37": 4266,
      "ĠOh": 4267,
      "Ġtrain": 4268,
      "Ġjoin": 4269,
      "lo": 4270,
      "Ġhearing": 4271,
      "ijuana": 4272,
      "Ġkick": 4273,
      "Ġseparate": 4274,
      "Ġchurch": 4275,
      "Ġwinning": 4276,
      "Ġillegal": 4277,
      "no": 4278,
      "Ġdigital": 4279,
      "ront": 4280,
      "Ġbasis": 4281,
      "etty": 4282,
      "ĠNFL": 4283,
      "Ġcondition": 4284,
      "Ġmillions": 4285,
      "soft": 4286,
      "ĠAM": 4287,
      "Ġobtain": 4288,
      "Ġdebt": 4289,
      "Ġonto": 4290,
      "Ġborder": 4291,
      "Ġteach": 4292,
      "ĠHealth": 4293,
      "ios": 4294,
      "Ġthus": 4295,
      "Ġextremely": 4296,
      "Ġserved": 4297,
      "Ġheavy": 4298,
      "ading": 4299,
      "ãĥ": 4300,
      "Ġlegislation": 4301,
      "Ġcamera": 4302,
      "lished": 4303,
      "Ġpartners": 4304,
      "Ġhundreds": 4305,
      "ocr": 4306,
      "Ġshared": 4307,
      "orthern": 4308,
      "ĠBritain": 4309,
      "Ġstated": 4310,
      "Ġphoto": 4311,
      "Ġopening": 4312,
      "Ġcells": 4313,
      "ĠKorea": 4314,
      "Ġfavorite": 4315,
      "ĠYour": 4316,
      "EL": 4317,
      "Ġran": 4318,
      "Ġresist": 4319,
      "ĠInc": 4320,
      "Ġdocuments": 4321,
      "mine": 4322,
      "ĠMike": 4323,
      "Ġmiles": 4324,
      "Ġassum": 4325,
      "uries": 4326,
      "lor": 4327,
      "ugg": 4328,
      "Ġcontrovers": 4329,
      "Ġhero": 4330,
      "Ġ35": 4331,
      "Ġreturned": 4332,
      "ĠBank": 4333,
      "ĠOver": 4334,
      "Ġdaughter": 4335,
      "Ġannounce": 4336,
      "Ġbecoming": 4337,
      "ĠOffice": 4338,
      "known": 4339,
      "Ġreject": 4340,
      "OU": 4341,
      "FC": 4342,
      "Ġsun": 4343,
      "Ġinitial": 4344,
      "Ġtypes": 4345,
      "Ġspl": 4346,
      "Ġactive": 4347,
      "Ġstructure": 4348,
      "Ġissued": 4349,
      "Ġvehicle": 4350,
      "acity": 4351,
      "Ġpattern": 4352,
      "Ġtransfer": 4353,
      "Ġbecomes": 4354,
      "Ġincred": 4355,
      "Ġaspect": 4356,
      "ĠSecurity": 4357,
      "Ġopinion": 4358,
      "ĠMil": 4359,
      "andon": 4360,
      "Ġmanagement": 4361,
      "Ġserve": 4362,
      "Ġachieve": 4363,
      "ĠMal": 4364,
      "Ġ31": 4365,
      "Ġopened": 4366,
      "Ġenforcement": 4367,
      "Ġamaz": 4368,
      "Ġdestroy": 4369,
      "ĠSam": 4370,
      "ĠMany": 4371,
      "Ġargument": 4372,
      "zen": 4373,
      "ĠCr": 4374,
      "Ġcancer": 4375,
      "ĠWall": 4376,
      "ĠRo": 4377,
      "Ġelectric": 4378,
      "ampionship": 4379,
      "ipe": 4380,
      "ĠGreat": 4381,
      "ĠAfghan": 4382,
      "Ġaudience": 4383,
      "BA": 4384,
      "ography": 4385,
      "Ġinternet": 4386,
      "Ġjoined": 4387,
      "iller": 4388,
      "Ġbomb": 4389,
      "Ġputting": 4390,
      "inate": 4391,
      "omas": 4392,
      "Ġoffers": 4393,
      "ĠFrancis": 4394,
      "Ġproposed": 4395,
      "Ġder": 4396,
      "âĢ¢": 4397,
      "ĠFound": 4398,
      "Ġitems": 4399,
      "ÑĤ": 4400,
      "Ġpurpose": 4401,
      "Ġunlike": 4402,
      "ĠPalest": 4403,
      "ription": 4404,
      "Ġ2006": 4405,
      "ĠLab": 4406,
      "Ġtelevision": 4407,
      "38": 4408,
      "Ġvictory": 4409,
      "Ġepisode": 4410,
      "GB": 4411,
      "rig": 4412,
      "Ġdaily": 4413,
      "ĠGame": 4414,
      "Ġsupporters": 4415,
      "Ġeasier": 4416,
      "ĠSup": 4417,
      "32": 4418,
      "SP": 4419,
      "atically": 4420,
      "Ñģ": 4421,
      "Ġdangerous": 4422,
      "ipped": 4423,
      "Ġdepartment": 4424,
      "Ġprofessional": 4425,
      "ĠTer": 4426,
      "Ġvictims": 4427,
      "iliar": 4428,
      "Ġcompetition": 4429,
      "Ġexisting": 4430,
      "Ġaccused": 4431,
      "Ġinsurance": 4432,
      "Ġexplain": 4433,
      "Ġassociated": 4434,
      "Ġappeal": 4435,
      "Ġframe": 4436,
      "Ġstrik": 4437,
      "34": 4438,
      "Ġdriving": 4439,
      "do": 4440,
      "ĠQue": 4441,
      "Ġfaith": 4442,
      "house": 4443,
      "Ġnine": 4444,
      "ĠMat": 4445,
      "win": 4446,
      "Ġborn": 4447,
      "Ġcommittee": 4448,
      "Ġcompar": 4449,
      "Ġmap": 4450,
      "Ġinstance": 4451,
      "ih": 4452,
      "ander": 4453,
      "Ġsupported": 4454,
      "ĠCommun": 4455,
      "Ġhack": 4456,
      "Ġ195": 4457,
      "Ġreduce": 4458,
      "Ġnorth": 4459,
      "Ġdoubt": 4460,
      "Ġrepeated": 4461,
      "ĠEv": 4462,
      "witch": 4463,
      "Ġfresh": 4464,
      "Ġradio": 4465,
      "ancy": 4466,
      "iling": 4467,
      "Ġfalse": 4468,
      "Ġmax": 4469,
      "Ġded": 4470,
      "Ġcommunities": 4471,
      "Ġbed": 4472,
      "Ġhair": 4473,
      "level": 4474,
      "iful": 4475,
      "ortunately": 4476,
      "ĠLouis": 4477,
      "tery": 4478,
      "Ġconstruction": 4479,
      "ĠInstitute": 4480,
      "istics": 4481,
      "Ġrefere": 4482,
      "Ġcook": 4483,
      "Ġ70": 4484,
      "ey": 4485,
      "Ġsites": 4486,
      "tered": 4487,
      "Ġdouble": 4488,
      "equ": 4489,
      "spe": 4490,
      "Ġcomfort": 4491,
      "eline": 4492,
      "Ġspoke": 4493,
      "ĠSal": 4494,
      "Ġ90": 4495,
      "Ġlabor": 4496,
      "Mr": 4497,
      "Ġclosed": 4498,
      "point": 4499,
      "Ġharm": 4500,
      "krain": 4501,
      "aks": 4502,
      "Ġgeneration": 4503,
      "going": 4504,
      "fe": 4505,
      "Ġmicro": 4506,
      "ĠSince": 4507,
      "Ġnegative": 4508,
      "itable": 4509,
      "ĠKh": 4510,
      "Ġleadership": 4511,
      "inct": 4512,
      "http": 4513,
      "Ġexperiment": 4514,
      "Ġamb": 4515,
      "Ġcards": 4516,
      "Ġload": 4517,
      "ĠAtt": 4518,
      "ĠRobert": 4519,
      "Ġwealth": 4520,
      "Ġscientists": 4521,
      "nel": 4522,
      "bing": 4523,
      "ĠArt": 4524,
      "Ġoccup": 4525,
      "Ġeat": 4526,
      "Ġbelieves": 4527,
      "Cl": 4528,
      "ĠTy": 4529,
      "Ġrequires": 4530,
      "ĠMicro": 4531,
      "ears": 4532,
      "ĠUN": 4533,
      "Ġgrant": 4534,
      "night": 4535,
      "64": 4536,
      "ibrary": 4537,
      "ipp": 4538,
      "Ġsolid": 4539,
      "Ġmachine": 4540,
      "Ġplanning": 4541,
      "Ġmurder": 4542,
      "Ġlength": 4543,
      "Ġhousing": 4544,
      "Ġnotes": 4545,
      "Ġwatching": 4546,
      "Ġhus": 4547,
      "itt": 4548,
      "39": 4549,
      "ĠFBI": 4550,
      "ĠJohnson": 4551,
      "Ġholding": 4552,
      "Ġbelief": 4553,
      "Ġtrend": 4554,
      "hem": 4555,
      "Ġcharged": 4556,
      "ĠCarol": 4557,
      "Ġhomes": 4558,
      "ĠAre": 4559,
      "Ġconcerned": 4560,
      "Ġcontext": 4561,
      "Ġentirely": 4562,
      "Ġlocation": 4563,
      "Ġsurface": 4564,
      "Ġice": 4565,
      "Ġannual": 4566,
      "oms": 4567,
      "Ġnovel": 4568,
      "Ġsett": 4569,
      "Ġcash": 4570,
      "Ġconservative": 4571,
      "ario": 4572,
      "Ġfinding": 4573,
      "ĠMag": 4574,
      "ĠHam": 4575,
      "Ġfloor": 4576,
      "ĠFrank": 4577,
      "ĠPri": 4578,
      "Ġrestaur": 4579,
      "Ġsmaller": 4580,
      "OL": 4581,
      "Ġjustice": 4582,
      "Ġ2005": 4583,
      "Ġtools": 4584,
      "Ġdrugs": 4585,
      "Ġtransport": 4586,
      "Ġanimals": 4587,
      "resp": 4588,
      "which": 4589,
      "Ġdiscovered": 4590,
      "ĠMiss": 4591,
      "Ġdirection": 4592,
      "Ã¡": 4593,
      "ĠFin": 4594,
      "Ġlaunched": 4595,
      "Ġviews": 4596,
      "Ġdecade": 4597,
      "works": 4598,
      "ĠVirgin": 4599,
      "Ġdefinitely": 4600,
      "IL": 4601,
      "Ġbul": 4602,
      "ctors": 4603,
      "Ġcommercial": 4604,
      "lant": 4605,
      "ĠGree": 4606,
      "Ġsuggested": 4607,
      "Ġaward": 4608,
      "phone": 4609,
      "ĠAssociation": 4610,
      "ĠGroup": 4611,
      "onto": 4612,
      "!âĢĿ": 4613,
      "Ġwitness": 4614,
      "ĠBig": 4615,
      "hi": 4616,
      "Ġconversation": 4617,
      "Ġspirit": 4618,
      "ĠSupreme": 4619,
      "Ġnor": 4620,
      "Ġstock": 4621,
      "Ġfuel": 4622,
      "Ġworst": 4623,
      "ĠChris": 4624,
      "Ġtim": 4625,
      "Ġplease": 4626,
      "Ġattend": 4627,
      "Americ": 4628,
      "rad": 4629,
      "Ġrough": 4630,
      "Ġwel": 4631,
      "ĠLos": 4632,
      "Ġlargely": 4633,
      "ference": 4634,
      "Ġfle": 4635,
      "Ġtesting": 4636,
      "ĠVer": 4637,
      "owl": 4638,
      "Ġallowing": 4639,
      "Ġearth": 4640,
      "ĠMexico": 4641,
      "47": 4642,
      "but": 4643,
      "Ġtruly": 4644,
      "ĠSur": 4645,
      "ĠLike": 4646,
      "Ġestablished": 4647,
      "Ġcontain": 4648,
      "ribute": 4649,
      "01": 4650,
      "PA": 4651,
      "ĠMad": 4652,
      "overy": 4653,
      "ĠMont": 4654,
      "Ġplaced": 4655,
      "Ġsan": 4656,
      "Ġplays": 4657,
      "Photo": 4658,
      "how": 4659,
      "Ġmissing": 4660,
      "azine": 4661,
      "Ġconcern": 4662,
      "Ġcandidates": 4663,
      "Ġbusinesses": 4664,
      "Ġtelling": 4665,
      "arant": 4666,
      "Ġrecommend": 4667,
      "ĠDirect": 4668,
      "Ġafford": 4669,
      "Ġ2000": 4670,
      "ource": 4671,
      "what": 4672,
      "Ġstopped": 4673,
      "oted": 4674,
      "ĠTim": 4675,
      "Ġolder": 4676,
      "Ġcaught": 4677,
      "eah": 4678,
      "ĠArmy": 4679,
      "Ġraise": 4680,
      "Ġpresence": 4681,
      "ĠPM": 4682,
      "48": 4683,
      "Ð½": 4684,
      "isation": 4685,
      "annel": 4686,
      "cious": 4687,
      "ĠUkrain": 4688,
      "ribe": 4689,
      "Ġcrew": 4690,
      "ĠPC": 4691,
      "Ġoffensive": 4692,
      "Ġrelatively": 4693,
      "ania": 4694,
      "gypt": 4695,
      "ĠMer": 4696,
      "Ġactivities": 4697,
      "izes": 4698,
      "Ġscale": 4699,
      "ĠProf": 4700,
      "bour": 4701,
      "gency": 4702,
      "====": 4703,
      "ĠJapanese": 4704,
      "ym": 4705,
      "ĠFox": 4706,
      "Ġdownload": 4707,
      "Ġstrateg": 4708,
      "ĠTeam": 4709,
      "ĠSil": 4710,
      "PS": 4711,
      "ĠWil": 4712,
      "ĠIslamic": 4713,
      "More": 4714,
      "Ġaccur": 4715,
      "Ġexerc": 4716,
      "ulated": 4717,
      "Ġfailure": 4718,
      "Ġwaiting": 4719,
      "Ġunit": 4720,
      "Ġgirls": 4721,
      "Ġproviding": 4722,
      "real": 4723,
      "Ġcatch": 4724,
      "Ġheat": 4725,
      "Ġmarijuana": 4726,
      "ĠInstead": 4727,
      "!\"": 4728,
      "Ġkid": 4729,
      "mail": 4730,
      "anging": 4731,
      "Ġarrived": 4732,
      "Ġneighborhood": 4733,
      "Äĥ": 4734,
      "ici": 4735,
      "EM": 4736,
      "asy": 4737,
      "Ġabort": 4738,
      "Ġphil": 4739,
      "Ġmentioned": 4740,
      "Ġdeliver": 4741,
      "icy": 4742,
      "Ġupdate": 4743,
      "Ġcommission": 4744,
      "Ġbackground": 4745,
      "Ġspokesman": 4746,
      "Ġguess": 4747,
      "Ġconnection": 4748,
      "Ġstrength": 4749,
      "Ġconclud": 4750,
      "Ġbanks": 4751,
      "vant": 4752,
      "isf": 4753,
      "ossible": 4754,
      "Ġsolar": 4755,
      "cknow": 4756,
      "ĠLeg": 4757,
      "Ġidentified": 4758,
      "itz": 4759,
      "vered": 4760,
      "ests": 4761,
      "Ġuseful": 4762,
      "Ġowner": 4763,
      "aven": 4764,
      "ius": 4765,
      "Ġge": 4766,
      "icon": 4767,
      "Image": 4768,
      "can": 4769,
      "Ġdie": 4770,
      "igan": 4771,
      "Ġblue": 4772,
      "Ġskills": 4773,
      "Bl": 4774,
      "ĠTre": 4775,
      "CC": 4776,
      "ĠJones": 4777,
      "Ġtask": 4778,
      "actions": 4779,
      "Ġplanet": 4780,
      "Ġfarm": 4781,
      "itutional": 4782,
      "ications": 4783,
      "apped": 4784,
      "Ġtaxes": 4785,
      "inter": 4786,
      "vention": 4787,
      "Ġconsequ": 4788,
      "Ġplanned": 4789,
      "ĠAdd": 4790,
      "Des": 4791,
      "ighter": 4792,
      "Ġappropri": 4793,
      "ĠAngeles": 4794,
      "ĠAc": 4795,
      "Ġfeels": 4796,
      "gar": 4797,
      "Ġtells": 4798,
      "ĠAfrica": 4799,
      "Ġslightly": 4800,
      "wing": 4801,
      "ocal": 4802,
      "49": 4803,
      "uke": 4804,
      "Ġsuggests": 4805,
      "ocracy": 4806,
      "Ġgay": 4807,
      "Ġflight": 4808,
      "Ġdisease": 4809,
      "NA": 4810,
      "rick": 4811,
      "azon": 4812,
      "iter": 4813,
      "ĠRichard": 4814,
      "Ġintroduced": 4815,
      "Our": 4816,
      "Ġremoved": 4817,
      "Ġdefensive": 4818,
      "Ġfant": 4819,
      "andom": 4820,
      "Ġdecisions": 4821,
      "oyal": 4822,
      "Ġsurvey": 4823,
      "ĠMartin": 4824,
      "semb": 4825,
      "ups": 4826,
      "aling": 4827,
      "Ġfunds": 4828,
      "Ġcommitted": 4829,
      "ĠFore": 4830,
      "Ġcircum": 4831,
      "ĠCEO": 4832,
      "ception": 4833,
      "oman": 4834,
      "ulate": 4835,
      "verse": 4836,
      "Ġinterests": 4837,
      "ĠPak": 4838,
      "Ġsetting": 4839,
      "ĠWindows": 4840,
      "NN": 4841,
      "ĠResearch": 4842,
      "ĠAfrican": 4843,
      "Ġsouth": 4844,
      "suit": 4845,
      "Ġdat": 4846,
      "Ġhighlight": 4847,
      "kin": 4848,
      "Ġmobile": 4849,
      "place": 4850,
      "Ġmanaged": 4851,
      "Ġsupply": 4852,
      "ĠJim": 4853,
      "Ġnewsp": 4854,
      "Ġhasn": 4855,
      "Ġprotection": 4856,
      "uct": 4857,
      "Ġhusband": 4858,
      "Ġconflict": 4859,
      "with": 4860,
      "Ġtherefore": 4861,
      "ĠAlthough": 4862,
      "Ġfocused": 4863,
      "55": 4864,
      "ansion": 4865,
      "den": 4866,
      "Ġdetect": 4867,
      "ait": 4868,
      "Ġmeasures": 4869,
      "Ġsteps": 4870,
      "ĠMet": 4871,
      "umn": 4872,
      "DA": 4873,
      "Ġmere": 4874,
      "iser": 4875,
      "enses": 4876,
      "Ġroll": 4877,
      "uters": 4878,
      "âĢĺ": 4879,
      "ĠMary": 4880,
      "ader": 4881,
      "ĠRyan": 4882,
      "ga": 4883,
      "olly": 4884,
      "ucky": 4885,
      "Ġidentity": 4886,
      "ĠMedic": 4887,
      "Ġ2018": 4888,
      "Ġobvious": 4889,
      "Ġstandards": 4890,
      "Ġmodels": 4891,
      "BS": 4892,
      "odes": 4893,
      "Ġnone": 4894,
      "ĠJeff": 4895,
      "Ġsust": 4896,
      "ĠKen": 4897,
      "ĠBitcoin": 4898,
      "Ġaggress": 4899,
      "iams": 4900,
      "acks": 4901,
      "Ġtests": 4902,
      "Ġappoint": 4903,
      "Ġdepend": 4904,
      "ĠInter": 4905,
      "Ġstrike": 4906,
      "ula": 4907,
      "outs": 4908,
      "Ġimmigration": 4909,
      "Ġspect": 4910,
      "ĠRock": 4911,
      "Ġkeeping": 4912,
      "Ġacknow": 4913,
      "Why": 4914,
      "aren": 4915,
      "Ġphotos": 4916,
      "ication": 4917,
      "ĠNor": 4918,
      "Ġshall": 4919,
      "under": 4920,
      "ÑĢ": 4921,
      "ĠGood": 4922,
      "ĠIsraeli": 4923,
      "Le": 4924,
      "ĠGovernment": 4925,
      "eless": 4926,
      "Ġcorner": 4927,
      "Ġabuse": 4928,
      "Ġterrit": 4929,
      "Ġgraph": 4930,
      "ĠStep": 4931,
      "Ġfamiliar": 4932,
      "TC": 4933,
      "Ġguard": 4934,
      "rency": 4935,
      "adium": 4936,
      "Ġnar": 4937,
      "Ġspeaking": 4938,
      "Ġfourth": 4939,
      "Ġtough": 4940,
      "awn": 4941,
      "gn": 4942,
      "Ġrich": 4943,
      "rees": 4944,
      "Ġotherwise": 4945,
      "obby": 4946,
      "ronic": 4947,
      "ĠMP": 4948,
      "ĠSol": 4949,
      "Ġiniti": 4950,
      "Ġprofessor": 4951,
      "cks": 4952,
      "Ġpartner": 4953,
      "Ġaccounts": 4954,
      "Ġbeer": 4955,
      "ĠEgypt": 4956,
      "Ġprefer": 4957,
      "Ġassess": 4958,
      "Ġcollection": 4959,
      "Ġ32": 4960,
      "ĠJose": 4961,
      "ĠThomas": 4962,
      "Ġdropped": 4963,
      "uate": 4964,
      "Ġvotes": 4965,
      "dden": 4966,
      "mas": 4967,
      "ils": 4968,
      "Ġstick": 4969,
      "66": 4970,
      "Ġtast": 4971,
      "idering": 4972,
      "Ġacadem": 4973,
      "bre": 4974,
      "odies": 4975,
      "ĠJud": 4976,
      "Ġdecide": 4977,
      "reci": 4978,
      "ady": 4979,
      "ĠFed": 4980,
      "Ġtwice": 4981,
      "Ġcapacity": 4982,
      "ĠSub": 4983,
      "ĠPalestin": 4984,
      "aded": 4985,
      "Ġunits": 4986,
      "Ġwish": 4987,
      "Ġalternative": 4988,
      "lig": 4989,
      "erous": 4990,
      "Ġfigures": 4991,
      "ĠService": 4992,
      "Ġoperation": 4993,
      "col": 4994,
      "Ġtransform": 4995,
      "Ġhappening": 4996,
      "Ġprinc": 4997,
      "Ġexchange": 4998,
      "ĠGOP": 4999,
      "ĠAndroid": 5000,
      "Ġfellow": 5001,
      "CA": 5002,
      "ka": 5003,
      "kins": 5004,
      "ĠJewish": 5005,
      "Ġweak": 5006,
      "Ġsettle": 5007,
      "Ġstanding": 5008,
      "Ġdomestic": 5009,
      "stein": 5010,
      "ĠOpen": 5011,
      "Ġclick": 5012,
      "Ġmigr": 5013,
      "Ġunless": 5014,
      "Ġtrip": 5015,
      "state": 5016,
      "Ġdiscussion": 5017,
      "Ġfamous": 5018,
      "Ġfiles": 5019,
      "Ġauthority": 5020,
      "Ġreligion": 5021,
      "Ġgain": 5022,
      "Ġmulti": 5023,
      "Ġinjury": 5024,
      "hens": 5025,
      "Ġkilling": 5026,
      "Ġdin": 5027,
      "ĠIr": 5028,
      "hedul": 5029,
      "ĠPrime": 5030,
      "icide": 5031,
      "Ġfiled": 5032,
      "Ġscientific": 5033,
      "ynam": 5034,
      "ĠMars": 5035,
      "Ġrefuge": 5036,
      "Ġpit": 5037,
      "Ġanimal": 5038,
      "osure": 5039,
      "Ġsports": 5040,
      "Ġsubsc": 5041,
      "itect": 5042,
      "Ġamazing": 5043,
      "makers": 5044,
      "Ġstruct": 5045,
      "Ġvast": 5046,
      "Ġvariety": 5047,
      "Ġtalks": 5048,
      "ĠUs": 5049,
      "Ġfinished": 5050,
      "Ġcuts": 5051,
      "!!!!!!!!!!!!!!!!": 5052,
      "war": 5053,
      "ĠTheir": 5054,
      "Ġfactors": 5055,
      "Ġhelping": 5056,
      "Ġpaying": 5057,
      "Ġlosing": 5058,
      "Ġremind": 5059,
      "Ġelements": 5060,
      "ĠBern": 5061,
      "pm": 5062,
      "season": 5063,
      "ĠSyrian": 5064,
      "Ġsudden": 5065,
      "prof": 5066,
      "Ġmental": 5067,
      "Ġtack": 5068,
      "Ġpresented": 5069,
      "ĠToronto": 5070,
      "Ġbigger": 5071,
      "ancing": 5072,
      "ĠConst": 5073,
      "Ġultimately": 5074,
      "enced": 5075,
      "Ġdegree": 5076,
      "Ġsides": 5077,
      "Ġagencies": 5078,
      "Ġorganizations": 5079,
      "Ġarmy": 5080,
      "met": 5081,
      "stream": 5082,
      "Ġsequ": 5083,
      "Ġattorney": 5084,
      "CH": 5085,
      "Ġcold": 5086,
      "95": 5087,
      "Ġequip": 5088,
      "ĠPre": 5089,
      "75": 5090,
      "Ġseconds": 5091,
      "Ġcovered": 5092,
      "Ġtweet": 5093,
      "Up": 5094,
      "ĠCentral": 5095,
      "Ġlived": 5096,
      "ĠCamp": 5097,
      "ava": 5098,
      "isted": 5099,
      "Ġskin": 5100,
      "Ġenvironmental": 5101,
      "\":": 5102,
      "ĠLat": 5103,
      "Ġapply": 5104,
      "Ġveter": 5105,
      "RA": 5106,
      "rd": 5107,
      "Ġfired": 5108,
      "agues": 5109,
      "Ġhonest": 5110,
      "oston": 5111,
      "onym": 5112,
      "Ġphilos": 5113,
      "ĠRub": 5114,
      "range": 5115,
      "Ġcorporate": 5116,
      "ĠTwo": 5117,
      "Ġcas": 5118,
      "Ġworry": 5119,
      "uration": 5120,
      "Ġruling": 5121,
      "Ġcouncil": 5122,
      "Ġintended": 5123,
      "ĠBur": 5124,
      "Ġoccurred": 5125,
      "Ġthanks": 5126,
      "ĠCollege": 5127,
      "ĠMicrosoft": 5128,
      "Ġstarts": 5129,
      "Ġturns": 5130,
      "Ġseeking": 5131,
      "ĠSecretary": 5132,
      "Go": 5133,
      "Ġhumans": 5134,
      "Ġcarried": 5135,
      "Ġstars": 5136,
      "Ġapparently": 5137,
      "Ġsport": 5138,
      "Ġtransl": 5139,
      "Ġcarbon": 5140,
      "Ġsitting": 5141,
      "Ġhealthy": 5142,
      "Pl": 5143,
      "ĠMass": 5144,
      "ĠCarolina": 5145,
      "Ġ2004": 5146,
      "Ġexpert": 5147,
      "Ġpossibility": 5148,
      "ĠDec": 5149,
      "].": 5150,
      "Ġsoldiers": 5151,
      "Ġabsolutely": 5152,
      "isher": 5153,
      "anda": 5154,
      "net": 5155,
      "Ġschedul": 5156,
      "Ġimagine": 5157,
      "Ġscr": 5158,
      "Ġimpossible": 5159,
      "ĠImages": 5160,
      "Ġelim": 5161,
      "Ġmarkets": 5162,
      "Ġprospect": 5163,
      "apers": 5164,
      "Ġarms": 5165,
      "aine": 5166,
      "ĠGar": 5167,
      "Ġrapid": 5168,
      "Ġchemical": 5169,
      "iot": 5170,
      "Ġcolle": 5171,
      "Ġpet": 5172,
      "Ġgar": 5173,
      "Ġvision": 5174,
      "Ĥ¬": 5175,
      "ashed": 5176,
      "Ġexpensive": 5177,
      "Ġapplications": 5178,
      "Ġpil": 5179,
      "ĠAlso": 5180,
      "Last": 5181,
      "ĠDistrict": 5182,
      "Ġsounds": 5183,
      "Ġguarant": 5184,
      "Ġincreasingly": 5185,
      "roud": 5186,
      "Ġpossibly": 5187,
      "ini": 5188,
      "ĠGal": 5189,
      "31": 5190,
      "illa": 5191,
      "DP": 5192,
      "gu": 5193,
      "ĠOut": 5194,
      "Ġdevelopers": 5195,
      "Ġ45": 5196,
      "Ġstreets": 5197,
      "Ġrevolution": 5198,
      "Ġminimum": 5199,
      "Ġexperts": 5200,
      "hand": 5201,
      "Ġpair": 5202,
      "Read": 5203,
      "ĠFire": 5204,
      "Ġcloser": 5205,
      "Even": 5206,
      "ĠPublic": 5207,
      "Ġdeveloping": 5208,
      "look": 5209,
      "person": 5210,
      "Ġshar": 5211,
      "Ġconsult": 5212,
      "rastructure": 5213,
      "Ġinstit": 5214,
      "Ġprosecut": 5215,
      "standing": 5216,
      "Just": 5217,
      "Ġrid": 5218,
      "rie": 5219,
      "ano": 5220,
      "ĠWilliams": 5221,
      "Ab": 5222,
      "rible": 5223,
      "Ġregarding": 5224,
      "IV": 5225,
      "odd": 5226,
      "phas": 5227,
      "ĠSher": 5228,
      "ĠVirginia": 5229,
      "cons": 5230,
      "gers": 5231,
      "Ġchanging": 5232,
      "Ġfol": 5233,
      "Ġbeautiful": 5234,
      "ores": 5235,
      "atures": 5236,
      "Ġtrail": 5237,
      "Ġodd": 5238,
      "Ġscript": 5239,
      "Ġelected": 5240,
      "lets": 5241,
      "related": 5242,
      "ĠAri": 5243,
      "olit": 5244,
      "Ġoptim": 5245,
      "Ġflow": 5246,
      "Ġinnov": 5247,
      "Ġprepared": 5248,
      "Ġfactor": 5249,
      "Ġbroke": 5250,
      "SS": 5251,
      "Ġbought": 5252,
      "inating": 5253,
      "Of": 5254,
      "Ġbalance": 5255,
      "oving": 5256,
      "ĠUSA": 5257,
      "46": 5258,
      "Ġsch": 5259,
      "Ġfundament": 5260,
      "Ġpercentage": 5261,
      "From": 5262,
      "Ġwriter": 5263,
      "vis": 5264,
      "ros": 5265,
      "Ġaircraft": 5266,
      "that": 5267,
      "ĠLast": 5268,
      "Ġunion": 5269,
      "Ġbringing": 5270,
      "Ġhate": 5271,
      "ĠSocial": 5272,
      "Trump": 5273,
      "Ġbroken": 5274,
      "Ġprime": 5275,
      "ĠPlan": 5276,
      "Ġconducted": 5277,
      "yr": 5278,
      "ĠJo": 5279,
      "ologies": 5280,
      "Ġequipment": 5281,
      "Ġsymb": 5282,
      "Ġvehicles": 5283,
      "Ġtroops": 5284,
      "Ġforms": 5285,
      "run": 5286,
      "ĠMel": 5287,
      "centr": 5288,
      "Ġperspect": 5289,
      "Ġplants": 5290,
      "Ġestimated": 5291,
      "ĠJoe": 5292,
      "pay": 5293,
      "Ġfif": 5294,
      "Ġstret": 5295,
      "Ġvul": 5296,
      "osen": 5297,
      "ĠForce": 5298,
      "Ġgender": 5299,
      "class": 5300,
      "Ġera": 5301,
      "ĠThose": 5302,
      "oma": 5303,
      "lymp": 5304,
      "Ġequal": 5305,
      "ĠAustralian": 5306,
      "ĠBBC": 5307,
      "uster": 5308,
      "useum": 5309,
      "ruption": 5310,
      "Ġoperating": 5311,
      "Ġheav": 5312,
      "Ġapart": 5313,
      "uzz": 5314,
      "ola": 5315,
      "ployment": 5316,
      "ĠJon": 5317,
      "rant": 5318,
      "idden": 5319,
      "uit": 5320,
      "ĠCath": 5321,
      "Ġselling": 5322,
      "porary": 5323,
      "ĠFrancisco": 5324,
      "ĠSpr": 5325,
      "alls": 5326,
      "ĠCur": 5327,
      "ĠFe": 5328,
      "Ġtact": 5329,
      "ĠFederal": 5330,
      "road": 5331,
      "Ġadjust": 5332,
      "Ġrefused": 5333,
      "ĠAtlant": 5334,
      "Ġseasons": 5335,
      "ĠDuring": 5336,
      "anche": 5337,
      "olved": 5338,
      "Ġ1990": 5339,
      "ĠFoundation": 5340,
      "Let": 5341,
      "Ġdepart": 5342,
      "ĠSl": 5343,
      "Ġque": 5344,
      "Ġpages": 5345,
      "Ġremained": 5346,
      "Ġoriginally": 5347,
      "och": 5348,
      "ĠPet": 5349,
      "Ġlocated": 5350,
      "anish": 5351,
      "Ġproceed": 5352,
      "Ġwindow": 5353,
      "Ġunivers": 5354,
      "ruit": 5355,
      "Ġvoted": 5356,
      "ĠDen": 5357,
      "ĠConserv": 5358,
      "ocking": 5359,
      "Every": 5360,
      "Ġtourn": 5361,
      "Ġerror": 5362,
      "Ġresponsibility": 5363,
      "Do": 5364,
      "Ġsector": 5365,
      "ours": 5366,
      "ĠAmazon": 5367,
      "Ġaccident": 5368,
      "esterday": 5369,
      "ĠBook": 5370,
      "Ġton": 5371,
      "Ġmut": 5372,
      "Ġrevenue": 5373,
      "Ġconvention": 5374,
      "noon": 5375,
      "Ġast": 5376,
      "Ġexclus": 5377,
      "ENT": 5378,
      "ĠMiddle": 5379,
      "ĠFree": 5380,
      "ĠWho": 5381,
      "ĠAny": 5382,
      "Ġ\\": 5383,
      "clusion": 5384,
      "Ġelections": 5385,
      "Ġappearance": 5386,
      "Ġhurt": 5387,
      "Ġconstruct": 5388,
      "Ġweapon": 5389,
      "apter": 5390,
      "ressive": 5391,
      "Ġinvolve": 5392,
      "Ġspecifically": 5393,
      "orage": 5394,
      "ĠLee": 5395,
      "reens": 5396,
      "Ġseat": 5397,
      "ĠOnce": 5398,
      "oty": 5399,
      ",âĢĻ": 5400,
      "Ġexperienced": 5401,
      "65": 5402,
      "Ġprivacy": 5403,
      "ipping": 5404,
      "inent": 5405,
      "vey": 5406,
      "IG": 5407,
      "Ġpieces": 5408,
      "Ġsurprise": 5409,
      "Ġwidely": 5410,
      "Ġhelps": 5411,
      "Ġhyp": 5412,
      ",[": 5413,
      "ĠChief": 5414,
      "ĠPhot": 5415,
      "ĠJes": 5416,
      "Ġclim": 5417,
      "Ġobserv": 5418,
      "cos": 5419,
      "Ġsale": 5420,
      "ĠTal": 5421,
      "Ġcompleted": 5422,
      "ĠPeter": 5423,
      "auc": 5424,
      "Ġappreci": 5425,
      "ION": 5426,
      "Ġexpressed": 5427,
      "ND": 5428,
      "Ġoffering": 5429,
      "Ġinternal": 5430,
      "Ġteen": 5431,
      "Ġuns": 5432,
      "Ġdistance": 5433,
      "Ġsecure": 5434,
      "Well": 5435,
      "ĠHaw": 5436,
      "ĠBoston": 5437,
      "rier": 5438,
      "Ġpoliticians": 5439,
      "Ġfaster": 5440,
      "coh": 5441,
      "ĠJournal": 5442,
      "Ind": 5443,
      "ocol": 5444,
      "ĠWeb": 5445,
      "Ġgreatest": 5446,
      "Ġpositions": 5447,
      "Ġpurchase": 5448,
      "UT": 5449,
      "Ġcart": 5450,
      "lyn": 5451,
      "ĠWars": 5452,
      "ĠSing": 5453,
      "Ġshape": 5454,
      "ĠOlymp": 5455,
      "ĠUnder": 5456,
      "mm": 5457,
      "ansas": 5458,
      "Ġgovernments": 5459,
      "Ġdram": 5460,
      "Ġearn": 5461,
      "________": 5462,
      "ĠAT": 5463,
      "rawn": 5464,
      "ĠTHE": 5465,
      "Ġthoughts": 5466,
      "Ġargued": 5467,
      "ĠBat": 5468,
      "anged": 5469,
      "Ġpredict": 5470,
      "Ġbound": 5471,
      "Ġquant": 5472,
      "Ġserver": 5473,
      "idel": 5474,
      "ĠBoth": 5475,
      "Ġremaining": 5476,
      "Ġleads": 5477,
      "Ġaffected": 5478,
      "Ġcombat": 5479,
      "ĠParis": 5480,
      "Ġpotentially": 5481,
      "Ġherself": 5482,
      "Ġdetermine": 5483,
      "life": 5484,
      "pired": 5485,
      "Ġwearing": 5486,
      "Ġshift": 5487,
      "Ġchallenges": 5488,
      "mosp": 5489,
      "ĠST": 5490,
      "olt": 5491,
      "Ġsea": 5492,
      "ita": 5493,
      "Ġinfrastructure": 5494,
      "Ġsignificantly": 5495,
      "PD": 5496,
      "Ġzone": 5497,
      "Ġpointed": 5498,
      "oken": 5499,
      "Ġmaster": 5500,
      "Ġweren": 5501,
      "elly": 5502,
      "Ġpulled": 5503,
      "ĠTime": 5504,
      "Ġfra": 5505,
      "cean": 5506,
      "ighters": 5507,
      "Ġdifferences": 5508,
      "Ġreduced": 5509,
      "Ġboost": 5510,
      "onna": 5511,
      "Ġremove": 5512,
      "Ġconsumers": 5513,
      "Ġmarg": 5514,
      "Ġglass": 5515,
      "Ġ;": 5516,
      "Ġrecorded": 5517,
      "Ġobviously": 5518,
      "Ġsac": 5519,
      "Ġtight": 5520,
      "Ġgrew": 5521,
      "Ġretail": 5522,
      "Ġjail": 5523,
      "Ġsubs": 5524,
      "Ġuniversity": 5525,
      "Ġfacing": 5526,
      "Ġminute": 5527,
      "onom": 5528,
      "ĠRiver": 5529,
      "ĠAfghanistan": 5530,
      "Ġstress": 5531,
      "Ġconcentr": 5532,
      "Ġevening": 5533,
      "Ġproposal": 5534,
      "Ġsatisf": 5535,
      "edia": 5536,
      "Ġplenty": 5537,
      "Ġafternoon": 5538,
      "aniel": 5539,
      "Ġthank": 5540,
      "top": 5541,
      "endment": 5542,
      "Ġconsidering": 5543,
      "ĠGuard": 5544,
      "Pe": 5545,
      "Ġsem": 5546,
      "essions": 5547,
      "ffee": 5548,
      "Ġrenew": 5549,
      "Ġprove": 5550,
      "Ġtemperature": 5551,
      "Ġfrustr": 5552,
      "care": 5553,
      "Ġmort": 5554,
      "Ġcultural": 5555,
      "gment": 5556,
      "Ġwood": 5557,
      "Ġvoting": 5558,
      "Ġhandle": 5559,
      "pport": 5560,
      "Ġtele": 5561,
      "cel": 5562,
      "ĠRem": 5563,
      "rog": 5564,
      "ashion": 5565,
      "Ġplus": 5566,
      "Ġ2001": 5567,
      "Ġfinish": 5568,
      "Ġtypically": 5569,
      "Ġsurprising": 5570,
      "Ġtalked": 5571,
      "MA": 5572,
      "ĠMur": 5573,
      "Ġreporting": 5574,
      "razil": 5575,
      "()": 5576,
      "First": 5577,
      "aa": 5578,
      "Ġhun": 5579,
      "ĠPlease": 5580,
      "Ġexcited": 5581,
      "CL": 5582,
      "bur": 5583,
      "isters": 5584,
      "Ġtrouble": 5585,
      "Ġindeed": 5586,
      "ĠYes": 5587,
      "Ġcoord": 5588,
      "Ġemp": 5589,
      "Ġfilms": 5590,
      "Since": 5591,
      "Ġrent": 5592,
      "unction": 5593,
      "uthors": 5594,
      "ĠWilliam": 5595,
      "Ġguns": 5596,
      "05": 5597,
      "Ġpowers": 5598,
      "Ġ500": 5599,
      "Ġreporters": 5600,
      "HL": 5601,
      "apping": 5602,
      "illance": 5603,
      "Ġturning": 5604,
      "Ġthr": 5605,
      "ompl": 5606,
      "ache": 5607,
      "Ġnut": 5608,
      "Ġhopes": 5609,
      "43": 5610,
      "ĠPut": 5611,
      "Ġapproved": 5612,
      "LS": 5613,
      "ĠDaily": 5614,
      "ĠProt": 5615,
      "Ġmethods": 5616,
      "Ġdismiss": 5617,
      "arks": 5618,
      "Ġclot": 5619,
      "lines": 5620,
      "reland": 5621,
      "ownt": 5622,
      "Ġmotiv": 5623,
      "Ġexpansion": 5624,
      "##": 5625,
      "Ġbelong": 5626,
      "Ġresponded": 5627,
      "Ġburn": 5628,
      "Ġrandom": 5629,
      "Ġsigns": 5630,
      "Ġvisual": 5631,
      "erry": 5632,
      "Ġcombined": 5633,
      "Ġyards": 5634,
      "Ġtreated": 5635,
      "Ġdisappoint": 5636,
      "ii": 5637,
      "Ġswitch": 5638,
      "Ġdenied": 5639,
      "ĠCru": 5640,
      "Ġath": 5641,
      "ampion": 5642,
      "Ġsuffered": 5643,
      "sen": 5644,
      "IP": 5645,
      "Ġdim": 5646,
      "Ġmal": 5647,
      "Ġyes": 5648,
      "gl": 5649,
      "ket": 5650,
      "Ġcrack": 5651,
      "Ġattempts": 5652,
      "oral": 5653,
      "Ġbaby": 5654,
      "Ġdream": 5655,
      "Ġagent": 5656,
      "Ġdiscl": 5657,
      "Ġpractices": 5658,
      "Ġdeclared": 5659,
      "ensions": 5660,
      "Ġpackage": 5661,
      "Ġvulner": 5662,
      "Ġwithd": 5663,
      "Ġfish": 5664,
      "ĠNAS": 5665,
      "oking": 5666,
      "Ġbasically": 5667,
      "Ð¾Ð": 5668,
      "istered": 5669,
      "],": 5670,
      "Ġsupporting": 5671,
      "Ġopposed": 5672,
      "sts": 5673,
      "usiness": 5674,
      "Ġourselves": 5675,
      "Ġordered": 5676,
      "Ġmatters": 5677,
      "Ġends": 5678,
      "Over": 5679,
      "hy": 5680,
      "urb": 5681,
      "Ġconfident": 5682,
      "Ġbreat": 5683,
      "ĠGrand": 5684,
      "Ġinstitutions": 5685,
      "ĠMem": 5686,
      "ĠPenn": 5687,
      "Ġ2003": 5688,
      "42": 5689,
      "adow": 5690,
      "Ġupgr": 5691,
      "Ġapprox": 5692,
      "Ġindustrial": 5693,
      "Ġtun": 5694,
      "ĠSant": 5695,
      "Ġcoast": 5696,
      "ĠSteve": 5697,
      "Ġcopyright": 5698,
      "uous": 5699,
      "Ġpassing": 5700,
      "Ġbodies": 5701,
      "Ġforg": 5702,
      "ador": 5703,
      "Ġreference": 5704,
      "Ġproced": 5705,
      "umber": 5706,
      "Ġgovernor": 5707,
      "razy": 5708,
      "Ġcrimes": 5709,
      "Ġclin": 5710,
      "zer": 5711,
      "ĠSwed": 5712,
      "hered": 5713,
      "Ġpublicly": 5714,
      "ĠColumb": 5715,
      "respond": 5716,
      "Ġregime": 5717,
      "Ġinstruct": 5718,
      "Ġbuildings": 5719,
      "Ġstatements": 5720,
      "Ġidentify": 5721,
      "Ġopportunities": 5722,
      "oom": 5723,
      "Ġlots": 5724,
      "Ġreact": 5725,
      "ivered": 5726,
      "ributed": 5727,
      "Ġunable": 5728,
      "Ġtechnical": 5729,
      "Another": 5730,
      "ĠMos": 5731,
      "His": 5732,
      "tion": 5733,
      "Ġdiscrim": 5734,
      "Ġdetermined": 5735,
      "eds": 5736,
      "Ġagents": 5737,
      "Ġlisten": 5738,
      "Ġloved": 5739,
      "ulations": 5740,
      "edd": 5741,
      "aped": 5742,
      "Ġentertain": 5743,
      "App": 5744,
      "Ġspring": 5745,
      "41": 5746,
      "Ġske": 5747,
      "ĠOk": 5748,
      "Ġaccompl": 5749,
      "Ġflat": 5750,
      "Ġmarried": 5751,
      "Ġseriously": 5752,
      "Ġexplo": 5753,
      "Ġid": 5754,
      "Ġyouth": 5755,
      "Sp": 5756,
      "Ġbrow": 5757,
      "Ġmessages": 5758,
      "Ġdatab": 5759,
      "....": 5760,
      "hab": 5761,
      "pet": 5762,
      "ĠSum": 5763,
      "ĠGM": 5764,
      "Ġcircumst": 5765,
      "pass": 5766,
      "Ġsecretary": 5767,
      "Ġongoing": 5768,
      "ĠScience": 5769,
      "ĠRon": 5770,
      "etroit": 5771,
      "Ġnumerous": 5772,
      "Ġexperiences": 5773,
      "ilty": 5774,
      "icer": 5775,
      "Ġ1980": 5776,
      "Ġarchitect": 5777,
      "ĠPac": 5778,
      "Ġtrig": 5779,
      "Ġconnected": 5780,
      "Ġinjured": 5781,
      "ĠRoad": 5782,
      "Ġadvice": 5783,
      "Ġsplit": 5784,
      "LE": 5785,
      "abilities": 5786,
      "ĠLake": 5787,
      "Ġcentre": 5788,
      "Se": 5789,
      "Ġweather": 5790,
      "Ġforget": 5791,
      "Ġabandon": 5792,
      "Ġdelay": 5793,
      "Ġlawyer": 5794,
      "ĠSaud": 5795,
      "oves": 5796,
      "ĠShow": 5797,
      "Ġbroadcast": 5798,
      "Ġconfirm": 5799,
      "uations": 5800,
      "Ġsuit": 5801,
      "Ġleaves": 5802,
      "Ġupdates": 5803,
      "Ġdial": 5804,
      "ĠLabour": 5805,
      "Ġconfidence": 5806,
      "Ġemergency": 5807,
      "ishes": 5808,
      "Ġvir": 5809,
      "Ġpanel": 5810,
      "Ġsubstant": 5811,
      "writ": 5812,
      "Cont": 5813,
      "OW": 5814,
      "Ġarmed": 5815,
      "Ġprin": 5816,
      "ĠDan": 5817,
      "ĠRel": 5818,
      "ĠGet": 5819,
      "free": 5820,
      "Ġvideos": 5821,
      "word": 5822,
      "ilit": 5823,
      "Ġvari": 5824,
      "host": 5825,
      "Ġcontrast": 5826,
      "Ġdiss": 5827,
      "OD": 5828,
      "Ġproud": 5829,
      "ĠRad": 5830,
      "Ġshouldn": 5831,
      "Ġcollabor": 5832,
      "Ġeditor": 5833,
      "Ġperspective": 5834,
      "ĠHuman": 5835,
      "Ġcreation": 5836,
      "Ġfilled": 5837,
      "Ġatmosp": 5838,
      "ĠToday": 5839,
      "uls": 5840,
      "Ġincor": 5841,
      "enger": 5842,
      "atell": 5843,
      "asp": 5844,
      "ĠColor": 5845,
      "ĠVict": 5846,
      "ĠIreland": 5847,
      "Ġartist": 5848,
      "ĠMatt": 5849,
      "ĠBoy": 5850,
      "Ġedge": 5851,
      "aza": 5852,
      "Ġprompt": 5853,
      "ĠPakistan": 5854,
      "ĠBrazil": 5855,
      "Ġstruggle": 5856,
      "called": 5857,
      "law": 5858,
      "resents": 5859,
      "IM": 5860,
      "Ġsevere": 5861,
      "Ġgrab": 5862,
      "ĠKorean": 5863,
      "Ġcapable": 5864,
      "Ġwrites": 5865,
      "Ġhol": 5866,
      "Com": 5867,
      "ternal": 5868,
      "inals": 5869,
      "Ġmovies": 5870,
      "ounded": 5871,
      "ellow": 5872,
      "Ġstands": 5873,
      "Although": 5874,
      "issions": 5875,
      "Ġcalcul": 5876,
      "Ġdefault": 5877,
      "Ġtransition": 5878,
      "ĠChristmas": 5879,
      "evin": 5880,
      "Oh": 5881,
      "esters": 5882,
      "Ġfly": 5883,
      "ĠMichigan": 5884,
      "abin": 5885,
      "Ġadvance": 5886,
      "ĠPhoto": 5887,
      "Ġtree": 5888,
      "Ġadmitted": 5889,
      "Ġdecre": 5890,
      "Ġdrivers": 5891,
      "Ġliberal": 5892,
      "Ġaid": 5893,
      "ĠYet": 5894,
      "85": 5895,
      "plom": 5896,
      "Ġeffectively": 5897,
      "Ġvalid": 5898,
      "Ġgather": 5899,
      "ĠIsland": 5900,
      "Ġmode": 5901,
      "Ġlegit": 5902,
      "Ġcraft": 5903,
      "unte": 5904,
      "obe": 5905,
      "Ġmagazine": 5906,
      "Ġapplied": 5907,
      "ĠKar": 5908,
      "astern": 5909,
      "ĠStan": 5910,
      "Ġflag": 5911,
      "Ġlinked": 5912,
      "Ġnewspaper": 5913,
      "iat": 5914,
      "whel": 5915,
      "Ġlie": 5916,
      "ĠRE": 5917,
      "ĠLin": 5918,
      "Ġdoctor": 5919,
      "dule": 5920,
      "estival": 5921,
      "Ġcloud": 5922,
      "Ġresident": 5923,
      "Ġgra": 5924,
      "Ġtradition": 5925,
      "Rep": 5926,
      "ogue": 5927,
      "ĠAndrew": 5928,
      "Ġsubsequ": 5929,
      "Ġresolution": 5930,
      "Ġeval": 5931,
      "Ġdelivered": 5932,
      ",'": 5933,
      "De": 5934,
      "Ġexplan": 5935,
      "Ġdeclined": 5936,
      "ĠDirector": 5937,
      "nergy": 5938,
      "ĠBarack": 5939,
      "Ġmanufacture": 5940,
      "itors": 5941,
      "osite": 5942,
      "Ġexplos": 5943,
      "Ġfacts": 5944,
      "Ġreaction": 5945,
      "Ġsongs": 5946,
      "ooth": 5947,
      "Ġpicked": 5948,
      "ala": 5949,
      "ĠJackson": 5950,
      "Ġentered": 5951,
      "ĠKim": 5952,
      "Ġcriticism": 5953,
      "ĠSystem": 5954,
      "eration": 5955,
      "enture": 5956,
      "ERS": 5957,
      "Ġgiant": 5958,
      "ĠGames": 5959,
      "Ġrealize": 5960,
      "Ġpictures": 5961,
      "Ġexplains": 5962,
      "Ġcann": 5963,
      "Ġemphas": 5964,
      "Ġincreases": 5965,
      "Ġskill": 5966,
      "Ġvan": 5967,
      "Ġactivists": 5968,
      "During": 5969,
      "Other": 5970,
      "ĠWalk": 5971,
      "date": 5972,
      "Ġnearby": 5973,
      "Ġboys": 5974,
      "ller": 5975,
      "ĠTra": 5976,
      "Ġneither": 5977,
      "Ġappropriate": 5978,
      "ĠWal": 5979,
      "Ġmand": 5980,
      "Ġwalking": 5981,
      "style": 5982,
      "ĠMedia": 5983,
      "imal": 5984,
      "Ġreportedly": 5985,
      "Ġsquare": 5986,
      "Am": 5987,
      "Ġdebut": 5988,
      "Ġviolent": 5989,
      "Ġreaders": 5990,
      "rich": 5991,
      "Ġsought": 5992,
      "Ġapps": 5993,
      "cohol": 5994,
      "ĠPower": 5995,
      "dis": 5996,
      "west": 5997,
      "ĠBack": 5998,
      "Ġquiet": 5999,
      "Ġmetal": 6000,
      "Ġexpression": 6001,
      "Ġphilosoph": 6002,
      "Ġquarterback": 6003,
      "TV": 6004,
      "ĠIll": 6005,
      "Ġchart": 6006,
      "Ġ33": 6007,
      "ĠBet": 6008,
      "Ġfaces": 6009,
      "essor": 6010,
      "ĠGen": 6011,
      "formation": 6012,
      "Ġenemy": 6013,
      "stone": 6014,
      "Ġexcell": 6015,
      "Ġhell": 6016,
      "Ġexamples": 6017,
      "Ġsuffering": 6018,
      "ĠUkraine": 6019,
      "ĠFer": 6020,
      "Ġsuc": 6021,
      "ĠMa": 6022,
      "ĠSpace": 6023,
      "Ġcaption": 6024,
      "Ġannouncement": 6025,
      "Ġflood": 6026,
      "Ġfort": 6027,
      "Ġadvert": 6028,
      "Ġessentially": 6029,
      "zona": 6030,
      "Ġlawsuit": 6031,
      "Can": 6032,
      "IR": 6033,
      "rid": 6034,
      "Ġcauses": 6035,
      "orse": 6036,
      "ĠSociety": 6037,
      "abled": 6038,
      "ez": 6039,
      "ht": 6040,
      "esc": 6041,
      "arters": 6042,
      "nam": 6043,
      "ua": 6044,
      "Ġprohib": 6045,
      "Ġshop": 6046,
      "ena": 6047,
      "Ġ36": 6048,
      "ĠiPh": 6049,
      "Ġphen": 6050,
      "Ġalt": 6051,
      "Ġargue": 6052,
      "Many": 6053,
      "Ġpray": 6054,
      "PU": 6055,
      "Ġcooper": 6056,
      "Ġdiscussed": 6057,
      "ĠCharl": 6058,
      "TH": 6059,
      "Ġelement": 6060,
      "opy": 6061,
      "Ġfaced": 6062,
      "Ġperman": 6063,
      "Ġguilty": 6064,
      "ĠProject": 6065,
      "Ġcolon": 6066,
      "Ġlibrary": 6067,
      "Ġsurprised": 6068,
      "ĠRead": 6069,
      "acter": 6070,
      "ĠFollow": 6071,
      "Ġfairly": 6072,
      "Ġcontains": 6073,
      "Ġremark": 6074,
      "ÃŃ": 6075,
      "ourney": 6076,
      "orders": 6077,
      "Follow": 6078,
      "PR": 6079,
      "Ġsad": 6080,
      "Ġmir": 6081,
      "Ġfindings": 6082,
      "Ġscheduled": 6083,
      "Ġsets": 6084,
      "ĠScot": 6085,
      "ĠTurkey": 6086,
      "ĠRights": 6087,
      "ĠYear": 6088,
      "Ġplane": 6089,
      "Ġpatient": 6090,
      "Ġmissed": 6091,
      "Ġsurveillance": 6092,
      "orry": 6093,
      "ĠSov": 6094,
      "igure": 6095,
      "Ġwarned": 6096,
      "edy": 6097,
      "Ġtalent": 6098,
      "Ġinvestors": 6099,
      "Ġheads": 6100,
      "Ġpitch": 6101,
      "ĠDavis": 6102,
      "oked": 6103,
      "Ġrepresents": 6104,
      "Ġfraud": 6105,
      "def": 6106,
      "Ġnations": 6107,
      "Ġjoint": 6108,
      "Ġkit": 6109,
      "Ġlabel": 6110,
      "IF": 6111,
      "Ġdistribution": 6112,
      "TA": 6113,
      "Ġcategory": 6114,
      "Ġaf": 6115,
      "usal": 6116,
      "erences": 6117,
      "Ġemails": 6118,
      "Ġshots": 6119,
      "Ġbuying": 6120,
      "Ġflu": 6121,
      "Ġthinks": 6122,
      "Ġbull": 6123,
      "Ġinput": 6124,
      "ĠBell": 6125,
      "Ġmaterials": 6126,
      "Ob": 6127,
      "Ġdesire": 6128,
      "bel": 6129,
      "Ġauthors": 6130,
      "ĠDetroit": 6131,
      "Ġsam": 6132,
      "ĠSee": 6133,
      "Ġing": 6134,
      "American": 6135,
      "Then": 6136,
      "ĠTechn": 6137,
      "Ġroughly": 6138,
      "Ġdynam": 6139,
      "stood": 6140,
      "active": 6141,
      "ĠÎ": 6142,
      "Ġcurrency": 6143,
      "xual": 6144,
      "ĠSky": 6145,
      "ĠMount": 6146,
      "ĠClub": 6147,
      "Ġhttps": 6148,
      "asure": 6149,
      "Ġspons": 6150,
      "Ġcorrespond": 6151,
      "ĠMuslims": 6152,
      "Man": 6153,
      "Ġyesterday": 6154,
      "ĠPrem": 6155,
      "Ġfollows": 6156,
      "ĠHel": 6157,
      "ĠNov": 6158,
      "Ġintention": 6159,
      "Ġperformed": 6160,
      "Ġconsumer": 6161,
      "ĠAnn": 6162,
      "erate": 6163,
      "ato": 6164,
      "ĠWood": 6165,
      "Ġboss": 6166,
      "Ġrail": 6167,
      "Ġeverybody": 6168,
      "athan": 6169,
      "Ġwarm": 6170,
      "Ġtotally": 6171,
      "Ġsession": 6172,
      "icing": 6173,
      "ĠAv": 6174,
      "Ġbond": 6175,
      "irty": 6176,
      "Ġadvanced": 6177,
      "Ġreplaced": 6178,
      "Ġradical": 6179,
      "Ġdivision": 6180,
      "esh": 6181,
      "ĠBob": 6182,
      "Ġtech": 6183,
      "Ġclasses": 6184,
      "Ġresc": 6185,
      "tc": 6186,
      "Ġlaugh": 6187,
      "enda": 6188,
      "Ġmagn": 6189,
      "Ġabortion": 6190,
      "icious": 6191,
      "aints": 6192,
      "Ġlisted": 6193,
      "Ġpure": 6194,
      "Ġheavily": 6195,
      "68": 6196,
      "ĠWatch": 6197,
      "Ġinitially": 6198,
      "Ġpra": 6199,
      "ĠSqu": 6200,
      "Ġstorm": 6201,
      "Ġsav": 6202,
      "duc": 6203,
      "ican": 6204,
      "Ġfeatured": 6205,
      "Res": 6206,
      "Ġarticles": 6207,
      "Ġsnow": 6208,
      "Ġbutton": 6209,
      "ĠIts": 6210,
      "Donald": 6211,
      "77": 6212,
      "anges": 6213,
      "Ġbegins": 6214,
      "Ġexercise": 6215,
      ">>": 6216,
      "Ġplot": 6217,
      "Ġrain": 6218,
      "Ġanywhere": 6219,
      "Ġwarning": 6220,
      "agers": 6221,
      "Ġimportance": 6222,
      "Ġterrorist": 6223,
      "Most": 6224,
      "Ġisland": 6225,
      "ette": 6226,
      "Ġbon": 6227,
      "ĠFord": 6228,
      "Ġcombination": 6229,
      "Ġaccepted": 6230,
      "ĠOhio": 6231,
      "Ġrestaurant": 6232,
      "54": 6233,
      "Ġanx": 6234,
      "Ġsomewhat": 6235,
      "Ġyounger": 6236,
      "ĠDevelop": 6237,
      "ucks": 6238,
      "Ġdiplom": 6239,
      "Ġsucceed": 6240,
      "Ġ2002": 6241,
      "Ġdomin": 6242,
      "Ġinjuries": 6243,
      "ĠJul": 6244,
      "Ġdemocracy": 6245,
      "Ġstorage": 6246,
      "Ġclient": 6247,
      "Qu": 6248,
      "ugh": 6249,
      "ĠSign": 6250,
      "Ġsharing": 6251,
      "Pol": 6252,
      "Ġadm": 6253,
      "Ġconscious": 6254,
      "Ġmotor": 6255,
      "Like": 6256,
      "ideo": 6257,
      "Ġpool": 6258,
      "Ġnecessarily": 6259,
      "ĠRev": 6260,
      "Ġpenal": 6261,
      "âĢĶâĢĶâĢĶâĢĶâĢĶâĢĶâĢĶâĢĶ": 6262,
      "water": 6263,
      "Ġbare": 6264,
      "long": 6265,
      "kel": 6266,
      "Ġholds": 6267,
      "Ġnav": 6268,
      "otic": 6269,
      "Ġstood": 6270,
      "Ġrot": 6271,
      "Ġstrange": 6272,
      "Ġfranch": 6273,
      "Ġpled": 6274,
      "Ġrein": 6275,
      "II": 6276,
      "ĠHen": 6277,
      "Ġrelevant": 6278,
      "Ġobjects": 6279,
      "ĠCy": 6280,
      "Ġfunctions": 6281,
      "chain": 6282,
      "Ġrising": 6283,
      "ĠBoard": 6284,
      "Ġteachers": 6285,
      "pret": 6286,
      "ship": 6287,
      "Ġfill": 6288,
      "abb": 6289,
      "Ġroute": 6290,
      "rum": 6291,
      "Ġexistence": 6292,
      "Ġparticipants": 6293,
      "Ġadds": 6294,
      "Ġempt": 6295,
      "rison": 6296,
      "Ġbot": 6297,
      "ollywood": 6298,
      "greg": 6299,
      "Ġoutput": 6300,
      "Ã³": 6301,
      "rip": 6302,
      "Ġserving": 6303,
      "Ġsick": 6304,
      "Ġgrown": 6305,
      "Ġentry": 6306,
      "ĠID": 6307,
      "ĠFar": 6308,
      "Ġenh": 6309,
      "ĠStr": 6310,
      "Ġdiet": 6311,
      "ĠLong": 6312,
      "Ġtargets": 6313,
      "Ġevolution": 6314,
      "Ġimmediate": 6315,
      "Ġrum": 6316,
      "ĠHy": 6317,
      "ĠDou": 6318,
      "Ġtournament": 6319,
      "gia": 6320,
      "print": 6321,
      "Ġblow": 6322,
      "Ġdeaths": 6323,
      "Ġcreative": 6324,
      "iest": 6325,
      "ĠHist": 6326,
      "Ġstring": 6327,
      "Ġcustomer": 6328,
      "Ġmyster": 6329,
      "Ġurban": 6330,
      "ĠCIA": 6331,
      "Ġride": 6332,
      "Ġmotion": 6333,
      "Ġadults": 6334,
      "Ġcolleagues": 6335,
      "Ġoffense": 6336,
      "Ġoverwhel": 6337,
      "lv": 6338,
      "ĠAff": 6339,
      "Ġvice": 6340,
      "ĠElect": 6341,
      "Ġallegedly": 6342,
      "ĠAut": 6343,
      "certain": 6344,
      "Ġcheap": 6345,
      "Ġclassic": 6346,
      "Ġunlikely": 6347,
      "Spe": 6348,
      "ĠEll": 6349,
      "Ġallegations": 6350,
      "illy": 6351,
      "ĠWild": 6352,
      "ensus": 6353,
      "rence": 6354,
      "Ġhardware": 6355,
      "Ġbehavi": 6356,
      "CS": 6357,
      "utch": 6358,
      "cipl": 6359,
      "Mar": 6360,
      "Ġtiny": 6361,
      "Ġnative": 6362,
      "ĠAnother": 6363,
      "Ġcausing": 6364,
      "mates": 6365,
      "Ġembr": 6366,
      "Ġpromise": 6367,
      "Ġhoping": 6368,
      "Ġessential": 6369,
      "Ġtow": 6370,
      "Ġwear": 6371,
      "ĠISIS": 6372,
      "ĠIN": 6373,
      "Ġcere": 6374,
      "Ġscored": 6375,
      "Ġcoffee": 6376,
      "ĠCNN": 6377,
      "ĠRod": 6378,
      "Ġintent": 6379,
      "Ġ37": 6380,
      "erves": 6381,
      "ĠOnly": 6382,
      "Ġconsistent": 6383,
      "ĠSaudi": 6384,
      "Per": 6385,
      "ĠCard": 6386,
      "Ġmeat": 6387,
      "Ġconsequences": 6388,
      "88": 6389,
      "angers": 6390,
      "Ġbrings": 6391,
      "iques": 6392,
      "alian": 6393,
      "Ġfewer": 6394,
      "Ġrepeatedly": 6395,
      "Ġcircumstances": 6396,
      "Ġunus": 6397,
      "Ġ300": 6398,
      "Ġ1970": 6399,
      "ĠLand": 6400,
      "ĠCharles": 6401,
      "See": 6402,
      "born": 6403,
      "Ġstores": 6404,
      "ORE": 6405,
      "ocket": 6406,
      "Ġsees": 6407,
      "ometimes": 6408,
      "Ġprotests": 6409,
      "ĠSeattle": 6410,
      "ĠBrook": 6411,
      "Or": 6412,
      "ĠMs": 6413,
      "ĠLife": 6414,
      "Ġsymbol": 6415,
      "fortunately": 6416,
      "nic": 6417,
      "Ġliqu": 6418,
      "hetic": 6419,
      "Ġbike": 6420,
      "Ġselection": 6421,
      "Ġcrazy": 6422,
      "Ġisol": 6423,
      "cho": 6424,
      "ĠAsia": 6425,
      "ĠArizona": 6426,
      "ĠSar": 6427,
      "ĠDar": 6428,
      "Ġextent": 6429,
      "Ġdedicated": 6430,
      "sembly": 6431,
      "Ġcampus": 6432,
      "ĠAgain": 6433,
      "Ġregulations": 6434,
      "ima": 6435,
      "Ġrally": 6436,
      "Ġcontroversial": 6437,
      "Ġancient": 6438,
      "ĠJr": 6439,
      "Ġacts": 6440,
      "hus": 6441,
      "acle": 6442,
      "Ġdownt": 6443,
      "luding": 6444,
      "Ġthreats": 6445,
      "iro": 6446,
      "Ġsister": 6447,
      "Ġcert": 6448,
      "Ġshif": 6449,
      "Ġusual": 6450,
      "ĠItaly": 6451,
      "agan": 6452,
      "Ġpushed": 6453,
      "ĠWork": 6454,
      "Ġmanner": 6455,
      "uated": 6456,
      "apse": 6457,
      "Ġcourts": 6458,
      "Ġclosely": 6459,
      "ĠHol": 6460,
      "Ġtrick": 6461,
      "Ġdoctors": 6462,
      "Ġshel": 6463,
      "Ġflo": 6464,
      "Ġharder": 6465,
      "Ġsentence": 6466,
      "Ġbatt": 6467,
      "Ġdetailed": 6468,
      "ati": 6469,
      "Ġmoves": 6470,
      "Ġparliament": 6471,
      "Ġorders": 6472,
      "TS": 6473,
      "Ġmine": 6474,
      "Ġalongside": 6475,
      "Ġsurrounding": 6476,
      "ouston": 6477,
      "ĠRomney": 6478,
      "ulous": 6479,
      "Ġacknowled": 6480,
      "57": 6481,
      "pan": 6482,
      "andal": 6483,
      "Ġsym": 6484,
      "ologist": 6485,
      "Ġimproved": 6486,
      "Ġmoral": 6487,
      "Ġfavour": 6488,
      "Ġtom": 6489,
      "Ġrow": 6490,
      "Ġstudio": 6491,
      "ĠSecond": 6492,
      "ĠEach": 6493,
      "Ġmanage": 6494,
      "Ġowned": 6495,
      "Ġnetworks": 6496,
      "Ġhall": 6497,
      "isms": 6498,
      "aug": 6499,
      "ĠRog": 6500,
      "inations": 6501,
      "Two": 6502,
      "Ġfacility": 6503,
      "Ġattempted": 6504,
      "Ġcarrying": 6505,
      "People": 6506,
      "aylor": 6507,
      "=\"": 6508,
      "Ġpaint": 6509,
      "Ã¤": 6510,
      "efully": 6511,
      "ĠDev": 6512,
      "08": 6513,
      "Ġwake": 6514,
      "otal": 6515,
      "arden": 6516,
      "Ġhistorical": 6517,
      "Ġbreaking": 6518,
      "Ġversions": 6519,
      "esome": 6520,
      "Ġdefined": 6521,
      "Ġcommitment": 6522,
      "04": 6523,
      "Ġformed": 6524,
      "olve": 6525,
      "gent": 6526,
      "ora": 6527,
      "Ġearned": 6528,
      "Ġcontest": 6529,
      "azz": 6530,
      "Ġstruck": 6531,
      "Ġreferred": 6532,
      "ĠiPhone": 6533,
      "59": 6534,
      "Ġreput": 6535,
      "Despite": 6536,
      "Ġplayoff": 6537,
      "Ġzero": 6538,
      "amily": 6539,
      "Ġ34": 6540,
      "Ġsyn": 6541,
      "Ġwinter": 6542,
      "Ġmarketing": 6543,
      "ĠPolit": 6544,
      "Ġsample": 6545,
      "Ġunem": 6546,
      "ĠNetwork": 6547,
      "Ġcomparison": 6548,
      "Ġsubsid": 6549,
      "Ġsatell": 6550,
      "Ġlinks": 6551,
      "ĠEconom": 6552,
      "ĠViet": 6553,
      "Ġpassion": 6554,
      "ocratic": 6555,
      "ellect": 6556,
      "awa": 6557,
      "uable": 6558,
      "Ġfashion": 6559,
      "avor": 6560,
      "ĠVan": 6561,
      "Ġextract": 6562,
      "ĠEnter": 6563,
      "ĠCatholic": 6564,
      "po": 6565,
      "you": 6566,
      "Ġking": 6567,
      "Ġbright": 6568,
      "Ġcomfortable": 6569,
      "En": 6570,
      "ĠTO": 6571,
      "Ġfrequently": 6572,
      "Ġphenomen": 6573,
      "Ġkinds": 6574,
      "iveness": 6575,
      "Int": 6576,
      "ĠWeek": 6577,
      "Ġwalked": 6578,
      "upp": 6579,
      "Ġalias": 6580,
      "Ġdescribe": 6581,
      "Ġvolunte": 6582,
      "Get": 6583,
      "ĠMaybe": 6584,
      "Ġsand": 6585,
      "ĠNBA": 6586,
      "Ġuniverse": 6587,
      "ĠSoviet": 6588,
      "Ġhat": 6589,
      "Ġschol": 6590,
      "FP": 6591,
      "ixt": 6592,
      "mond": 6593,
      "Ġhousehold": 6594,
      "Ġnarr": 6595,
      "Ġimmigrants": 6596,
      "Ġnomine": 6597,
      "Ġslowly": 6598,
      "foot": 6599,
      "ĠWin": 6600,
      "Ġreceiving": 6601,
      "ĠTop": 6602,
      "Ġpregn": 6603,
      "ĠMen": 6604,
      "Ġefficient": 6605,
      "mun": 6606,
      "ĠDiv": 6607,
      "Ġfixed": 6608,
      "Ġwaste": 6609,
      "Ġdealing": 6610,
      "bal": 6611,
      "Ġcolumn": 6612,
      "Ġmouth": 6613,
      "Ġgod": 6614,
      "Ġopposite": 6615,
      "Ġexcellent": 6616,
      "%)": 6617,
      "Ġhits": 6618,
      "Ġforth": 6619,
      "Ġschedule": 6620,
      "uy": 6621,
      "ĠFil": 6622,
      "asks": 6623,
      "alle": 6624,
      "Ġartists": 6625,
      "Ġcycle": 6626,
      "fire": 6627,
      "ĠCat": 6628,
      "Ġ38": 6629,
      "ĠMot": 6630,
      "Ġacting": 6631,
      "Ġproperly": 6632,
      "ĠImage": 6633,
      "Ġterrorism": 6634,
      "Add": 6635,
      "inem": 6636,
      "ittle": 6637,
      "ĠWay": 6638,
      "Ġassets": 6639,
      "Ġpushing": 6640,
      "game": 6641,
      "Ġrealized": 6642,
      "ĠSpanish": 6643,
      "ĠJews": 6644,
      "Ġnorthern": 6645,
      "Ġ48": 6646,
      "Ġcompetitive": 6647,
      "56": 6648,
      "ĠDie": 6649,
      "Ġretire": 6650,
      "ĠBlue": 6651,
      "iscons": 6652,
      "twitter": 6653,
      "wan": 6654,
      "Ġjourney": 6655,
      "gor": 6656,
      "lder": 6657,
      "Ġdatabase": 6658,
      "isconsin": 6659,
      "say": 6660,
      "Ġopponents": 6661,
      "Ġrequests": 6662,
      "Ġbird": 6663,
      "02": 6664,
      "Tube": 6665,
      "Ġpromised": 6666,
      "Ġoccasion": 6667,
      "ĠLord": 6668,
      "Ġlatter": 6669,
      "Ġcommunication": 6670,
      "ĠWilson": 6671,
      "Ġdesk": 6672,
      "Ġexception": 6673,
      "Ġlies": 6674,
      "ceived": 6675,
      "Ġtargeted": 6676,
      "Ġterritory": 6677,
      "ĠColorado": 6678,
      "Ð»": 6679,
      "ciples": 6680,
      "Ġegg": 6681,
      "ĠTit": 6682,
      "Ġaside": 6683,
      "Ġalcohol": 6684,
      "Ġfuck": 6685,
      "ĠGra": 6686,
      "Ġapproval": 6687,
      "ographic": 6688,
      "Ġfundamental": 6689,
      "Ġ//": 6690,
      "Ġwire": 6691,
      "ĠâĢ¢": 6692,
      "Ġcongress": 6693,
      "Ġpunish": 6694,
      "Ġchairman": 6695,
      "Ġwid": 6696,
      "Ġsuicide": 6697,
      "ĠLew": 6698,
      "Ġknowing": 6699,
      "ĠLib": 6700,
      "chen": 6701,
      "iger": 6702,
      "Ġsomehow": 6703,
      "Ġblame": 6704,
      "Ġ49": 6705,
      "Ġreturns": 6706,
      "friend": 6707,
      "ingu": 6708,
      "ĠPan": 6709,
      "ĠWat": 6710,
      "Ġremote": 6711,
      "Ġsustain": 6712,
      "nell": 6713,
      "Ġmatches": 6714,
      "Ġbag": 6715,
      "ĠNations": 6716,
      "Ġemissions": 6717,
      "Ġliterally": 6718,
      "lies": 6719,
      "owa": 6720,
      "Ġprecise": 6721,
      "ĠHome": 6722,
      "sters": 6723,
      "ĠPy": 6724,
      "Ġnoticed": 6725,
      "Ġregional": 6726,
      "07": 6727,
      "Ġeating": 6728,
      "Ġtopic": 6729,
      "Ġdeploy": 6730,
      "ĠRam": 6731,
      "Ġdecline": 6732,
      "iami": 6733,
      "Ġgap": 6734,
      "iments": 6735,
      "Ġ75": 6736,
      "Ġrisks": 6737,
      "ĠEnergy": 6738,
      "Ġbattery": 6739,
      "Ġobserved": 6740,
      "Ġathlet": 6741,
      "Ġconstant": 6742,
      "Ġhotel": 6743,
      "weight": 6744,
      "ĠValley": 6745,
      "06": 6746,
      "Ġpal": 6747,
      "Ġupdated": 6748,
      "Ġped": 6749,
      "Ġwins": 6750,
      "Ġvillage": 6751,
      "Yes": 6752,
      "Ġeast": 6753,
      "ĠDaniel": 6754,
      "Ġexhib": 6755,
      "Ġinvolving": 6756,
      "Ġsquad": 6757,
      "Ġwave": 6758,
      "Ġthread": 6759,
      "ĠCub": 6760,
      "asts": 6761,
      "Ġuncle": 6762,
      "ĠEric": 6763,
      "Ġsimpl": 6764,
      "Ġsigning": 6765,
      "Ġmerely": 6766,
      "cers": 6767,
      "Ġì": 6768,
      "ĠWhe": 6769,
      "ĠEr": 6770,
      "Ġguide": 6771,
      "Ġinspired": 6772,
      "Ġnewslet": 6773,
      "aun": 6774,
      "iner": 6775,
      "ĠSports": 6776,
      "ĠRight": 6777,
      "ĠPalestinian": 6778,
      "Ġrape": 6779,
      "Ġarguments": 6780,
      "Ġlock": 6781,
      "Ġmainstream": 6782,
      "Ġmaximum": 6783,
      "Ġsoul": 6784,
      "Ġring": 6785,
      "Ġobtained": 6786,
      "oration": 6787,
      "Ġchose": 6788,
      "Ġbitcoin": 6789,
      "car": 6790,
      "Ġbug": 6791,
      "Ġmoments": 6792,
      "Ġdogs": 6793,
      "Ġnarrow": 6794,
      "dro": 6795,
      "Ġhur": 6796,
      "Ġinstru": 6797,
      "Ġemotional": 6798,
      "CE": 6799,
      "Ġwest": 6800,
      "ĠCle": 6801,
      "Ġconstit": 6802,
      "mes": 6803,
      "Ġshit": 6804,
      "Ġlocations": 6805,
      "98": 6806,
      "Ġadapt": 6807,
      "ĠAgency": 6808,
      "Ġrequirements": 6809,
      "Ġfolks": 6810,
      "bar": 6811,
      "Ġproperties": 6812,
      "Ġcommunications": 6813,
      "Ġescape": 6814,
      "Ġapproximately": 6815,
      "lock": 6816,
      "oric": 6817,
      "ordan": 6818,
      "Ġtermin": 6819,
      "ĠBrad": 6820,
      "Ġworried": 6821,
      "Ġsole": 6822,
      "Ġstronger": 6823,
      "Ġstretch": 6824,
      "itar": 6825,
      "Ġgang": 6826,
      "ĠMiller": 6827,
      "ĠFour": 6828,
      "obb": 6829,
      "Ġsouthern": 6830,
      "ĠChampionship": 6831,
      "Ġexplore": 6832,
      "ĠBest": 6833,
      "sm": 6834,
      "adel": 6835,
      "unning": 6836,
      "ĠLu": 6837,
      "Ġchannel": 6838,
      "Ġchampion": 6839,
      "Ġextended": 6840,
      "kay": 6841,
      "ums": 6842,
      "Ġallies": 6843,
      "Ġ42": 6844,
      "Ġsho": 6845,
      "ĠKevin": 6846,
      "Ġtypical": 6847,
      "Ġwatched": 6848,
      "han": 6849,
      "Ġicon": 6850,
      "Ġretain": 6851,
      "tering": 6852,
      "Ġanyway": 6853,
      "iciency": 6854,
      "Ġdrawn": 6855,
      "Ġalive": 6856,
      "Ġdiscover": 6857,
      "Ġdu": 6858,
      "uilding": 6859,
      "erm": 6860,
      "Ġmurd": 6861,
      "ĠFort": 6862,
      "ĠJersey": 6863,
      "Ġresistance": 6864,
      "ĠJesus": 6865,
      "Ġtall": 6866,
      "Ġchain": 6867,
      "Ġtransp": 6868,
      "Ġdefeat": 6869,
      "Ġheight": 6870,
      "Ġupcoming": 6871,
      "Ġpover": 6872,
      "Ġtested": 6873,
      "axy": 6874,
      "ĠDefense": 6875,
      "isan": 6876,
      "ĠLove": 6877,
      "Ġunknown": 6878,
      "ulture": 6879,
      "ĠSteven": 6880,
      "Ġteacher": 6881,
      "Ġbunch": 6882,
      "Ġemployee": 6883,
      "ko": 6884,
      "Ġbear": 6885,
      "ĠWater": 6886,
      "ĠVol": 6887,
      "Ġposts": 6888,
      "rors": 6889,
      "azi": 6890,
      "Ġdeeply": 6891,
      "****": 6892,
      "Ġpip": 6893,
      "ĠStand": 6894,
      "Ġcounty": 6895,
      "Ġfees": 6896,
      "Ġprotected": 6897,
      "ls": 6898,
      "Ġfighters": 6899,
      "Ġimpressive": 6900,
      "Ġphase": 6901,
      "DS": 6902,
      "xy": 6903,
      "Ġsending": 6904,
      "mod": 6905,
      "Ġwage": 6906,
      "ockey": 6907,
      "icken": 6908,
      "ĠHouston": 6909,
      "Ġbasket": 6910,
      "Ġstrongly": 6911,
      "Ġmistake": 6912,
      "Ġelectricity": 6913,
      "Ġsuddenly": 6914,
      "Ġpoverty": 6915,
      "utral": 6916,
      "Ġrecognize": 6917,
      "ĠIT": 6918,
      "Ġagenda": 6919,
      "Ġwelcome": 6920,
      "Ġprotesters": 6921,
      "Ġdry": 6922,
      "0000": 6923,
      "Ġdepth": 6924,
      "press": 6925,
      "Ġreward": 6926,
      "owed": 6927,
      "Ġvolume": 6928,
      "Te": 6929,
      "Ġattacked": 6930,
      "Ġtrees": 6931,
      "Ġdeck": 6932,
      "97": 6933,
      "PL": 6934,
      "ĠCast": 6935,
      "ĠDark": 6936,
      "Ġstream": 6937,
      "Ġselected": 6938,
      "anny": 6939,
      "Ġruled": 6940,
      "Ġillustr": 6941,
      "Ġadmit": 6942,
      "Ġputs": 6943,
      "Ġamounts": 6944,
      "ems": 6945,
      "Ġmedic": 6946,
      "Ġcaptured": 6947,
      "owered": 6948,
      "rive": 6949,
      "Ġcrash": 6950,
      "----------------": 6951,
      "Ġconver": 6952,
      "Ġfemin": 6953,
      "ĠPS": 6954,
      "ĠGi": 6955,
      "Ġshares": 6956,
      "Ġsky": 6957,
      "Ġpurposes": 6958,
      "Ġaspects": 6959,
      "))": 6960,
      "Ġru": 6961,
      "ĠReal": 6962,
      "OC": 6963,
      "va": 6964,
      "ĠNY": 6965,
      "iki": 6966,
      "ĠAdam": 6967,
      "Ġcritics": 6968,
      "Ġenemies": 6969,
      "Police": 6970,
      "Ġinqu": 6971,
      "osis": 6972,
      "Ġdisag": 6973,
      "Ġclaiming": 6974,
      "Ġtrading": 6975,
      "anes": 6976,
      "aser": 6977,
      "Ġregistered": 6978,
      "Ġfields": 6979,
      "ĠWisconsin": 6980,
      "anna": 6981,
      "Ġlimits": 6982,
      "Ġlikes": 6983,
      "ĠStephen": 6984,
      "ca": 6985,
      "burg": 6986,
      "Ġbid": 6987,
      "Ġflex": 6988,
      "igation": 6989,
      "ĠAdministr": 6990,
      "Ġdestroyed": 6991,
      "Ġunderstood": 6992,
      "Ġinstalled": 6993,
      "regon": 6994,
      "Ġtruck": 6995,
      "omin": 6996,
      "igg": 6997,
      "Ġregions": 6998,
      "Rel": 6999,
      "ĠYoung": 7000,
      "Ġpurs": 7001,
      "Ġreasonable": 7002,
      "woman": 7003,
      "ĠCivil": 7004,
      "ĠHollywood": 7005,
      "Ġmeetings": 7006,
      "rary": 7007,
      "vy": 7008,
      "star": 7009,
      "Ġfinds": 7010,
      "Ġhonor": 7011,
      "Ġjournalists": 7012,
      "Ġiron": 7013,
      "Ġprimarily": 7014,
      "300": 7015,
      "Ġflying": 7016,
      "abis": 7017,
      "Ġdefinition": 7018,
      "GBT": 7019,
      "Ġfake": 7020,
      "Ġplastic": 7021,
      "Ġpromote": 7022,
      "Ġlicense": 7023,
      "Ġempty": 7024,
      "Ġgotten": 7025,
      "ĠJoseph": 7026,
      "phy": 7027,
      "Ġprofit": 7028,
      "cript": 7029,
      "Ġwinner": 7030,
      "Ġdriven": 7031,
      "Ġscheme": 7032,
      "May": 7033,
      "ĠArch": 7034,
      "otten": 7035,
      "Ġrub": 7036,
      "Ġrejected": 7037,
      "ĠIrish": 7038,
      "03": 7039,
      "Ġtort": 7040,
      "ether": 7041,
      "Ġclar": 7042,
      "Ġdistinct": 7043,
      "Ġrelationships": 7044,
      "Ġimper": 7045,
      "Ġwithdraw": 7046,
      "86": 7047,
      "pool": 7048,
      "ĠBru": 7049,
      "ĠAp": 7050,
      "acking": 7051,
      "Ġrecon": 7052,
      "Ġtaste": 7053,
      "Ġ?": 7054,
      "Ġletters": 7055,
      "boy": 7056,
      "ta": 7057,
      "ĠBusiness": 7058,
      "name": 7059,
      "Ġanonym": 7060,
      "ĠDun": 7061,
      "ĠFair": 7062,
      "Ġnewly": 7063,
      "Ġofficially": 7064,
      "Ġfacilities": 7065,
      "Ġ($": 7066,
      "Ġatmosphere": 7067,
      "Ġcontributed": 7068,
      "Fr": 7069,
      "tes": 7070,
      "Ùİ": 7071,
      "Ġdesper": 7072,
      "ĠYouTube": 7073,
      "Ġparam": 7074,
      "oster": 7075,
      "Ġcomponents": 7076,
      "Ġsomewhere": 7077,
      "ĠCruz": 7078,
      "ĠDi": 7079,
      "Ġthreatened": 7080,
      "Ġprofession": 7081,
      "Ġpersonally": 7082,
      "Ġtitles": 7083,
      "Once": 7084,
      "rete": 7085,
      "Ġwal": 7086,
      "izz": 7087,
      "ker": 7088,
      "list": 7089,
      "ogen": 7090,
      "Ġconstantly": 7091,
      "Ġemployment": 7092,
      "Ġdiagn": 7093,
      "Ġfranchise": 7094,
      "rehens": 7095,
      "Ġdress": 7096,
      "Ġgonna": 7097,
      "ĠDown": 7098,
      "Ġregularly": 7099,
      "Ġsignal": 7100,
      "Ġcontrols": 7101,
      "Ġcutting": 7102,
      "lla": 7103,
      "ĠThank": 7104,
      "ĠVictor": 7105,
      "ĠOF": 7106,
      "Ġfeedback": 7107,
      "Today": 7108,
      "Ġreporter": 7109,
      "MS": 7110,
      "Ġfasc": 7111,
      "Ġenthus": 7112,
      "ĠOld": 7113,
      "Ġoblig": 7114,
      "aze": 7115,
      "Ġfalling": 7116,
      "Ġanswers": 7117,
      "fr": 7118,
      "Ġracial": 7119,
      "Ġdollar": 7120,
      "ĠEnd": 7121,
      "Ġpossession": 7122,
      "ĠConf": 7123,
      "Ġvirtual": 7124,
      "Ġincredibly": 7125,
      "ĠCam": 7126,
      "ilarly": 7127,
      "ĠWomen": 7128,
      "Ġintellect": 7129,
      "Ġcontrolled": 7130,
      "Ġbrew": 7131,
      "Ġapartment": 7132,
      "ĠNASA": 7133,
      "ĠMic": 7134,
      "Ġ44": 7135,
      "Ġconfront": 7136,
      "Ġcontem": 7137,
      "Ġchoices": 7138,
      "idelines": 7139,
      "ĠDam": 7140,
      "Ġassume": 7141,
      "Ġdemands": 7142,
      "Ġdirected": 7143,
      "Ġsituations": 7144,
      "NC": 7145,
      "gender": 7146,
      "Ġencourage": 7147,
      "Ġties": 7148,
      "Ġconven": 7149,
      "Ġexciting": 7150,
      "Ġkil": 7151,
      "Ġinev": 7152,
      "Ġupper": 7153,
      "ĠMiami": 7154,
      "ĠNight": 7155,
      "Ġoccas": 7156,
      "Ġpolls": 7157,
      "67": 7158,
      "Ġtank": 7159,
      "otes": 7160,
      "Ġcondem": 7161,
      "iform": 7162,
      "Ġhabit": 7163,
      "Ġpin": 7164,
      "ĠNBC": 7165,
      "Ġtechnologies": 7166,
      "âĢĻ.": 7167,
      "Ġju": 7168,
      "Ġengage": 7169,
      "nesota": 7170,
      "earing": 7171,
      "arn": 7172,
      "Ġrival": 7173,
      "Ġsupports": 7174,
      "Ġcontinuing": 7175,
      "Ġhouses": 7176,
      "Ġgenerate": 7177,
      "mal": 7178,
      "Ġproof": 7179,
      "Ġprovince": 7180,
      "Ġestimates": 7181,
      "essed": 7182,
      "Ġcorruption": 7183,
      "Ġformat": 7184,
      "Ã¶": 7185,
      "Ġcup": 7186,
      "aka": 7187,
      "Ġnobody": 7188,
      "Ġinformed": 7189,
      "bro": 7190,
      "Ġtherap": 7191,
      "Ġpic": 7192,
      "inson": 7193,
      "Ġinfect": 7194,
      "sole": 7195,
      "ĠAcadem": 7196,
      "ĠâĢĻ": 7197,
      "ĠAuthor": 7198,
      "Ġextensive": 7199,
      "aire": 7200,
      "',": 7201,
      "obile": 7202,
      "ĠItalian": 7203,
      "Ġsweet": 7204,
      "Ġdeals": 7205,
      "rome": 7206,
      "Ġbench": 7207,
      "Ġmagic": 7208,
      "Ġconcluded": 7209,
      "rep": 7210,
      "Ġconclusion": 7211,
      "ĠWhere": 7212,
      "ĠColumbia": 7213,
      "ĠCD": 7214,
      "raid": 7215,
      "Ġincredible": 7216,
      "Ġpenalty": 7217,
      "09": 7218,
      "oming": 7219,
      "Ġequival": 7220,
      "Any": 7221,
      "Ġyield": 7222,
      "eping": 7223,
      "ĠSouthern": 7224,
      "Ġprofile": 7225,
      "Ġfifth": 7226,
      "ules": 7227,
      "ĠSk": 7228,
      "ĠCamer": 7229,
      "Ġmayor": 7230,
      "Ġterrible": 7231,
      "ĠPutin": 7232,
      "celer": 7233,
      "Ġanymore": 7234,
      "Ġdeveloper": 7235,
      "Ġkeeps": 7236,
      "Ġharass": 7237,
      "John": 7238,
      "har": 7239,
      "vin": 7240,
      "Ġcomprom": 7241,
      "Ġgaming": 7242,
      "ogan": 7243,
      "Ġgoods": 7244,
      "ĠBowl": 7245,
      "Ġdeleg": 7246,
      "Ġrig": 7247,
      "Ġcaptain": 7248,
      "Ġperfectly": 7249,
      "sea": 7250,
      "ĠEduc": 7251,
      "Ġworldwide": 7252,
      "Ġresulting": 7253,
      "mont": 7254,
      "ĠIowa": 7255,
      "Ġreturning": 7256,
      "Ġmixed": 7257,
      "Ġchosen": 7258,
      "ĠKingdom": 7259,
      "ĠAttorney": 7260,
      "58": 7261,
      "RI": 7262,
      "Ġagric": 7263,
      "Ġsufficient": 7264,
      "Ġdecent": 7265,
      "Ġconfig": 7266,
      "Ġideal": 7267,
      "Ġcomplaint": 7268,
      "ensity": 7269,
      "Ġdrag": 7270,
      "Ġcomplicated": 7271,
      "Ġangry": 7272,
      "Ġteaching": 7273,
      "ĠInf": 7274,
      "Ġtaught": 7275,
      "hips": 7276,
      "ĠGreek": 7277,
      "Ġprote": 7278,
      "ĠCompany": 7279,
      "Ġregardless": 7280,
      "ĠScotland": 7281,
      "Ġhadn": 7282,
      "Ġtheme": 7283,
      "Ġunp": 7284,
      "Ġopponent": 7285,
      "Ġ1999": 7286,
      "Ġraising": 7287,
      "Ed": 7288,
      "VER": 7289,
      "enders": 7290,
      "Ġvisible": 7291,
      "ĠLinux": 7292,
      "Ġsight": 7293,
      "Ġassistant": 7294,
      "Ġwestern": 7295,
      "idency": 7296,
      "Ġcompens": 7297,
      "Ġparking": 7298,
      "Ġthin": 7299,
      "urrent": 7300,
      "Ġsomebody": 7301,
      "ĠVR": 7302,
      "ĠGeorgia": 7303,
      "ĠAI": 7304,
      "anchester": 7305,
      "bec": 7306,
      "dr": 7307,
      "ĠHas": 7308,
      "Inst": 7309,
      "ao": 7310,
      "itarian": 7311,
      "Ġble": 7312,
      "ĠBas": 7313,
      "ĠHot": 7314,
      "Ġchances": 7315,
      "ĠCarl": 7316,
      "%.": 7317,
      "bn": 7318,
      "enth": 7319,
      "allas": 7320,
      "Ġuncertain": 7321,
      "Ġorganized": 7322,
      "Ġexplanation": 7323,
      "Dr": 7324,
      "Ġengaged": 7325,
      "ni": 7326,
      "ads": 7327,
      "Ġattended": 7328,
      "Ġmarked": 7329,
      "Ġmainly": 7330,
      "Ġencoun": 7331,
      "Ġtracks": 7332,
      "gorith": 7333,
      "lls": 7334,
      "ocation": 7335,
      "Ġticket": 7336,
      "Ġbills": 7337,
      "ura": 7338,
      "Ġending": 7339,
      "Ġportion": 7340,
      "Ġimplementation": 7341,
      "Ġcrucial": 7342,
      "asters": 7343,
      "Ġclubs": 7344,
      "Ġassistance": 7345,
      "ria": 7346,
      "gery": 7347,
      "Ġactor": 7348,
      "Ġnarrative": 7349,
      "uine": 7350,
      "Ġexists": 7351,
      "redit": 7352,
      "Ġlawyers": 7353,
      "Ġsin": 7354,
      "Ġstuck": 7355,
      "Ġgranted": 7356,
      "Ġtied": 7357,
      "ĠMoh": 7358,
      "agram": 7359,
      "everal": 7360,
      "Ġveget": 7361,
      "Ġroutine": 7362,
      "Ġvacc": 7363,
      "igen": 7364,
      "ĠJordan": 7365,
      "Ġentit": 7366,
      "Ġacademic": 7367,
      "lah": 7368,
      "ĠOregon": 7369,
      "ifications": 7370,
      "Ġadopted": 7371,
      "Ġsanctions": 7372,
      "pread": 7373,
      "zens": 7374,
      "Ġexposed": 7375,
      "ĠDead": 7376,
      "Ġtur": 7377,
      "Ġrecovery": 7378,
      "msg": 7379,
      "Ġtechniques": 7380,
      "ĠDespite": 7381,
      "pected": 7382,
      "idespread": 7383,
      "Ġ1998": 7384,
      "Ġboot": 7385,
      "Ġfounder": 7386,
      "Also": 7387,
      "Ġthousand": 7388,
      "Ġnegotiations": 7389,
      "orne": 7390,
      "ĠOper": 7391,
      "era": 7392,
      "eda": 7393,
      "Ġevil": 7394,
      "Ġrefugees": 7395,
      "Ġpilot": 7396,
      "Ġmyth": 7397,
      "iana": 7398,
      "Ġelsewhere": 7399,
      "Ġdrinking": 7400,
      "Ġmo": 7401,
      "ĠTony": 7402,
      "ĠTaylor": 7403,
      "Ġweird": 7404,
      "Ġoutcome": 7405,
      "Ġmonit": 7406,
      "Ġreveal": 7407,
      "iel": 7408,
      "Ġseats": 7409,
      "Ġincl": 7410,
      "acked": 7411,
      "ĠThough": 7412,
      "ĠOrgan": 7413,
      "iscal": 7414,
      "ked": 7415,
      "ĠJosh": 7416,
      "Ġproved": 7417,
      "ĠKelly": 7418,
      "Ġsuccessfully": 7419,
      "ĠLA": 7420,
      "inking": 7421,
      "Ġcoalition": 7422,
      "Ġaccurate": 7423,
      "oil": 7424,
      "Ġfir": 7425,
      "ĠInvest": 7426,
      "Ġborrow": 7427,
      "Ġmanip": 7428,
      "Ġelite": 7429,
      "Ġprominent": 7430,
      "Ġestate": 7431,
      "dney": 7432,
      "ĠId": 7433,
      "Ġtrib": 7434,
      "Ġ39": 7435,
      "ras": 7436,
      "etary": 7437,
      "Ġstrict": 7438,
      "cling": 7439,
      "Ġwriters": 7440,
      "Ġcapture": 7441,
      "ML": 7442,
      "Ñĥ": 7443,
      "Ġdozen": 7444,
      "ĠSea": 7445,
      "Ġcollected": 7446,
      "87": 7447,
      "ĠDC": 7448,
      "ĠLook": 7449,
      "Ġreputation": 7450,
      "ĠMax": 7451,
      "ĠThanks": 7452,
      "Ġ65": 7453,
      "ĠSpain": 7454,
      "Ġdegrees": 7455,
      "Ġprinciples": 7456,
      "Ðº": 7457,
      "intend": 7458,
      "Ġvisited": 7459,
      "ĠMinnesota": 7460,
      "ĠBrian": 7461,
      "ĠReport": 7462,
      "adelph": 7463,
      "Ġcited": 7464,
      "arsh": 7465,
      "ĠLabor": 7466,
      "ĠEmp": 7467,
      "Ġpayments": 7468,
      "Ġemerged": 7469,
      "Ġtor": 7470,
      "Ġgro": 7471,
      "Ġexcess": 7472,
      "ĠJava": 7473,
      "there": 7474,
      "Ġcompete": 7475,
      "Ã¼": 7476,
      "amin": 7477,
      "Ġaccomp": 7478,
      "Ġ1960": 7479,
      "icket": 7480,
      "Ġfought": 7481,
      "ushed": 7482,
      "ĠNation": 7483,
      "Ġplug": 7484,
      "Ġsharp": 7485,
      "Because": 7486,
      "ĠAh": 7487,
      "Ġinnoc": 7488,
      "Å£": 7489,
      "Ġstead": 7490,
      "ĠFC": 7491,
      "Ġsympt": 7492,
      "cut": 7493,
      "âĢĭ": 7494,
      "Ġcomic": 7495,
      "ĠESP": 7496,
      "ĠView": 7497,
      "ĠCome": 7498,
      "ĠHind": 7499,
      "usse": 7500,
      "Me": 7501,
      "ĠKurd": 7502,
      "Ġenjoyed": 7503,
      "Ġoverse": 7504,
      "ildren": 7505,
      "Ġinspir": 7506,
      "Ġunusual": 7507,
      "SD": 7508,
      "Ġlawmakers": 7509,
      "ĠAsian": 7510,
      "Ġaggressive": 7511,
      "FA": 7512,
      "acc": 7513,
      "Ġ55": 7514,
      "Ġwarming": 7515,
      "Ġsolutions": 7516,
      "Ġautomatically": 7517,
      "ĠLive": 7518,
      "Ġextrem": 7519,
      "Ġcrypt": 7520,
      "Ġpod": 7521,
      "ibilities": 7522,
      "ĠParliament": 7523,
      "ãĢ": 7524,
      "Ġchampionship": 7525,
      "Ġfunny": 7526,
      "ĠAvenue": 7527,
      "ĠBry": 7528,
      "Ġblind": 7529,
      "Ġapolog": 7530,
      "ĠRuby": 7531,
      "ifies": 7532,
      "ĠLGBT": 7533,
      "ĠKent": 7534,
      "Ġunw": 7535,
      "ĠForeign": 7536,
      "ali": 7537,
      "Ġloan": 7538,
      "Ġgall": 7539,
      "ĠColl": 7540,
      "Ġdowntown": 7541,
      "Ġrecording": 7542,
      "Ġinterpret": 7543,
      "Ġmedium": 7544,
      "kish": 7545,
      "Ã¢": 7546,
      "Ġenorm": 7547,
      "Ġtaxpay": 7548,
      "aturally": 7549,
      "istent": 7550,
      "ĠKn": 7551,
      "ĠKat": 7552,
      "raph": 7553,
      "month": 7554,
      "69": 7555,
      "ĠTw": 7556,
      "ĠLyn": 7557,
      "ĠIP": 7558,
      "cow": 7559,
      "Ġduty": 7560,
      "ĠCare": 7561,
      "Ġstab": 7562,
      "ĠPR": 7563,
      "Ġconspir": 7564,
      "Ġcounsel": 7565,
      "Ġloud": 7566,
      "upid": 7567,
      "Ġaimed": 7568,
      "gun": 7569,
      "ĠAli": 7570,
      "ĠHom": 7571,
      "Ġlosses": 7572,
      "ĠPremier": 7573,
      "elect": 7574,
      "Ġresulted": 7575,
      "herent": 7576,
      "Ġpace": 7577,
      "ĠCross": 7578,
      "Ġneighb": 7579,
      "ĠSeries": 7580,
      "emen": 7581,
      "Ġroot": 7582,
      "Ġmachines": 7583,
      "adelphia": 7584,
      "Ġmail": 7585,
      "ione": 7586,
      "ounced": 7587,
      "ĠSenator": 7588,
      "Ġdestruction": 7589,
      "lahoma": 7590,
      "quarters": 7591,
      "Ġprocesses": 7592,
      "Ġoperate": 7593,
      "ĠBull": 7594,
      "Ġadvis": 7595,
      "52": 7596,
      "rett": 7597,
      "alo": 7598,
      "icate": 7599,
      "ĠTurn": 7600,
      "ĠMajor": 7601,
      ".\"[": 7602,
      "Ġphr": 7603,
      "Ġvaluable": 7604,
      "Ġsolve": 7605,
      "inity": 7606,
      "ĠDNA": 7607,
      "hent": 7608,
      "Ġstadium": 7609,
      "uma": 7610,
      "ĠMoore": 7611,
      "Ġtox": 7612,
      "ĠServices": 7613,
      "Ġnominee": 7614,
      "fast": 7615,
      "sylv": 7616,
      "Ġpermanent": 7617,
      "Ġhole": 7618,
      "Ġstable": 7619,
      "Ġspark": 7620,
      "Ġdefence": 7621,
      "Ġdepending": 7622,
      "Ġhistoric": 7623,
      "Ġthick": 7624,
      "Ġchat": 7625,
      "Ġpropag": 7626,
      "pes": 7627,
      "Ġsaved": 7628,
      "Ġpayment": 7629,
      "ĠGall": 7630,
      "Ġdisaster": 7631,
      "Ġarray": 7632,
      "Ġdescribes": 7633,
      "Sec": 7634,
      "ĠSnow": 7635,
      "ĠOtt": 7636,
      "Ġrepresented": 7637,
      "Ġprogressive": 7638,
      "making": 7639,
      "Ġbath": 7640,
      "Pr": 7641,
      "Ġmel": 7642,
      "ĠBefore": 7643,
      "Ġenable": 7644,
      "Ġdiscipl": 7645,
      "Ġrecru": 7646,
      "away": 7647,
      "Ġbusy": 7648,
      "nov": 7649,
      "apes": 7650,
      "Ġcameras": 7651,
      "Ġsacr": 7652,
      "Ġbes": 7653,
      "Ġfold": 7654,
      "ĠEp": 7655,
      "Ġentering": 7656,
      "HA": 7657,
      "front": 7658,
      "lers": 7659,
      "Ġcreates": 7660,
      "bell": 7661,
      "aska": 7662,
      "Ġscores": 7663,
      "ĠConstitution": 7664,
      "Ġfinance": 7665,
      "Ġanticip": 7666,
      "ĠTake": 7667,
      "ĠHun": 7668,
      "ĠHell": 7669,
      "Ġ41": 7670,
      "Ġformal": 7671,
      "ye": 7672,
      "Ġwidespread": 7673,
      "Ġminority": 7674,
      "Ġrestrictions": 7675,
      "hl": 7676,
      "Ġfault": 7677,
      "abama": 7678,
      "Ġgenuine": 7679,
      "Ġjournalist": 7680,
      "Ñı": 7681,
      "rypt": 7682,
      "Ġshortly": 7683,
      "Ġphilosophy": 7684,
      "ĠJac": 7685,
      "ĠOs": 7686,
      "ĠContin": 7687,
      "ĠWalker": 7688,
      "arry": 7689,
      "ĠMah": 7690,
      "ĠOl": 7691,
      "Ġobst": 7692,
      "Ġbaseball": 7693,
      "Ġintense": 7694,
      "Ġcomponent": 7695,
      "Us": 7696,
      "ureau": 7697,
      "Ġ64": 7698,
      "Ġextension": 7699,
      "Ġequivalent": 7700,
      "cles": 7701,
      "ÂĴ": 7702,
      "Ġrating": 7703,
      "Ġ47": 7704,
      "ĠPacific": 7705,
      "ĠAlbert": 7706,
      "Ġdrawing": 7707,
      "onic": 7708,
      "Ġstim": 7709,
      "Ġexpectations": 7710,
      "Ġcorporations": 7711,
      "RS": 7712,
      "ĠReuters": 7713,
      "Ġafraid": 7714,
      "oz": 7715,
      "ami": 7716,
      "Ġsugar": 7717,
      "Ġuncom": 7718,
      "Ġspr": 7719,
      "Ġpasses": 7720,
      "ĠAnth": 7721,
      "Ġcomputers": 7722,
      "Ġparticipate": 7723,
      "ĠSpecial": 7724,
      "usive": 7725,
      "Ġspin": 7726,
      "Ġsup": 7727,
      "Ġblocks": 7728,
      "Ġfounded": 7729,
      "Ġwarrant": 7730,
      "Ġreduction": 7731,
      "Ġcontracts": 7732,
      "sylvania": 7733,
      "viously": 7734,
      "ĠManchester": 7735,
      "ĠRay": 7736,
      "athy": 7737,
      "Ġconvicted": 7738,
      "uan": 7739,
      "uce": 7740,
      "ĠFred": 7741,
      "angel": 7742,
      "Ġmilk": 7743,
      "Ġavo": 7744,
      "Ne": 7745,
      "rage": 7746,
      "Ġelev": 7747,
      "Ġ150": 7748,
      "ystem": 7749,
      "Ġaver": 7750,
      "Ġeuro": 7751,
      "ĠUt": 7752,
      "Ġpermission": 7753,
      "NE": 7754,
      "vard": 7755,
      "Ġalgorith": 7756,
      "ĠPrince": 7757,
      "Ġrarely": 7758,
      "ĠMid": 7759,
      "Ġlaid": 7760,
      "Ġscenes": 7761,
      "Mean": 7762,
      "Ġbom": 7763,
      "Ġmanufacturing": 7764,
      "\".[": 7765,
      "imp": 7766,
      "umer": 7767,
      "Ġ1996": 7768,
      "ĠCoast": 7769,
      "ĠScient": 7770,
      "Ġpatterns": 7771,
      "post": 7772,
      "ĠFood": 7773,
      "ĠZeal": 7774,
      "Ġengineering": 7775,
      "LA": 7776,
      "oured": 7777,
      "ĠStill": 7778,
      "Ġrecip": 7779,
      "ĠPolicy": 7780,
      "ĠMu": 7781,
      "Ġphones": 7782,
      "ĠiP": 7783,
      "ependent": 7784,
      "Ġstations": 7785,
      "Ġtroub": 7786,
      "Ġhidden": 7787,
      "umin": 7788,
      "ĠOak": 7789,
      "portion": 7790,
      "Ġregistr": 7791,
      "Ġfoundation": 7792,
      "Ġprinciple": 7793,
      "Ġrecognition": 7794,
      "Off": 7795,
      "Ġcrop": 7796,
      "ĠTem": 7797,
      "ilton": 7798,
      "Ġshock": 7799,
      "Ġstruggling": 7800,
      "ĠStone": 7801,
      "ĠAcademy": 7802,
      "fall": 7803,
      "olen": 7804,
      "ĠEastern": 7805,
      "Ġbehalf": 7806,
      "Ġridic": 7807,
      "Ġdistr": 7808,
      "etime": 7809,
      "ĠRa": 7810,
      "world": 7811,
      "isp": 7812,
      "ĠOS": 7813,
      "text": 7814,
      "ĠArk": 7815,
      "Ġconsumption": 7816,
      "Ġtackle": 7817,
      "Ġdiscrimination": 7818,
      "ĠLewis": 7819,
      "Ġaudio": 7820,
      "Ġawesome": 7821,
      "Ġstrikes": 7822,
      "reams": 7823,
      "Ġdict": 7824,
      "ĠRoman": 7825,
      "acon": 7826,
      "Ġproducing": 7827,
      "ĠBrother": 7828,
      "Ġsurvive": 7829,
      "Ġratio": 7830,
      "Ġrecognized": 7831,
      "Ġminds": 7832,
      "Ġastron": 7833,
      "Ġworker": 7834,
      "ĠAdministration": 7835,
      "Getty": 7836,
      "orough": 7837,
      "ĠNote": 7838,
      "BM": 7839,
      "Ġprivile": 7840,
      "Ġcollapse": 7841,
      "Ġscenario": 7842,
      "da": 7843,
      "ĠKir": 7844,
      "Ġ43": 7845,
      "Ġconstitutional": 7846,
      "ouver": 7847,
      "ĠPay": 7848,
      "Ġrelief": 7849,
      "ĠLatin": 7850,
      "Ġbail": 7851,
      "Ġexplicit": 7852,
      "EA": 7853,
      "PG": 7854,
      "etts": 7855,
      "ĠBattle": 7856,
      "ĠNorthern": 7857,
      "Ġeverywhere": 7858,
      "Ġproducer": 7859,
      "Ġcarefully": 7860,
      "abinet": 7861,
      "ĠPen": 7862,
      "ĠProgram": 7863,
      "Ġveteran": 7864,
      "53": 7865,
      "uties": 7866,
      "Ġarrange": 7867,
      "weet": 7868,
      "plete": 7869,
      "Ġrapidly": 7870,
      "ml": 7871,
      "Ġtip": 7872,
      "athered": 7873,
      "ĠBudd": 7874,
      "Dav": 7875,
      "ĠSn": 7876,
      "ĠFoot": 7877,
      "inder": 7878,
      "Ġsettlement": 7879,
      "Ġlists": 7880,
      "ĠTest": 7881,
      "Ġrif": 7882,
      "opher": 7883,
      "Ġgrass": 7884,
      "Ġprogramming": 7885,
      "ĠSydney": 7886,
      "Ġbanned": 7887,
      "ouch": 7888,
      "ashes": 7889,
      "ulating": 7890,
      "ĠNick": 7891,
      "Ġliked": 7892,
      "51": 7893,
      "Rec": 7894,
      "she": 7895,
      "Ġsoil": 7896,
      "iban": 7897,
      "thew": 7898,
      "Ġlayer": 7899,
      "Ġbegun": 7900,
      "itals": 7901,
      "Ġfee": 7902,
      "heast": 7903,
      "Ġwebsites": 7904,
      "Ġassociation": 7905,
      "log": 7906,
      "ologists": 7907,
      "ĠEducation": 7908,
      "Ġcable": 7909,
      "ĠHard": 7910,
      "ĠVeg": 7911,
      "Ġdinner": 7912,
      "this": 7913,
      "Before": 7914,
      "Ġrely": 7915,
      "sex": 7916,
      "ĠMir": 7917,
      "Ġven": 7918,
      "Ġroster": 7919,
      "Ġindicate": 7920,
      "ĠDallas": 7921,
      "ĠNob": 7922,
      "ancouver": 7923,
      "ĠPhiladelphia": 7924,
      "96": 7925,
      "then": 7926,
      "Ġhired": 7927,
      "Ġ->": 7928,
      "teen": 7929,
      "Ġelig": 7930,
      "Ġsensitive": 7931,
      "Ġoverwhelming": 7932,
      "Ġcos": 7933,
      "ĠThus": 7934,
      "Ġanxiety": 7935,
      "ĠHenry": 7936,
      "ĠNHL": 7937,
      "Ġgenerated": 7938,
      "scape": 7939,
      "Ġutil": 7940,
      "Ġhang": 7941,
      "achus": 7942,
      "Ġcampaigns": 7943,
      "enny": 7944,
      "ĠDevelopment": 7945,
      "Su": 7946,
      "Ġ%": 7947,
      "ĠRose": 7948,
      "Ġnormally": 7949,
      "ĠOklahoma": 7950,
      "ĠAsh": 7951,
      "Ġwonderful": 7952,
      "Ġcasual": 7953,
      "Ġpump": 7954,
      "Ġho": 7955,
      "ilipp": 7956,
      "antic": 7957,
      "ĠIns": 7958,
      "Ġ46": 7959,
      "Ġexposure": 7960,
      "Ġpersonnel": 7961,
      "Ġphysic": 7962,
      "ĠGlobal": 7963,
      "lan": 7964,
      "arlier": 7965,
      "ĠSC": 7966,
      "ĠNavy": 7967,
      "ĠAlabama": 7968,
      "Ġheaded": 7969,
      "ĠPennsylvania": 7970,
      "izon": 7971,
      "Col": 7972,
      "Ġhide": 7973,
      "ATO": 7974,
      "page": 7975,
      "Ġasks": 7976,
      "Ġvary": 7977,
      "Ġaffili": 7978,
      "ĠRoyal": 7979,
      "Ġjury": 7980,
      "Ġ400": 7981,
      "ĠFund": 7982,
      "ĠAllen": 7983,
      "Ġfootage": 7984,
      "Ġphotograph": 7985,
      "âĢĻ,": 7986,
      "ĠCapt": 7987,
      "Ġclients": 7988,
      "Ġsmoke": 7989,
      "Ġunemployment": 7990,
      "rical": 7991,
      "Ġprocessing": 7992,
      "engers": 7993,
      "Ġdeliber": 7994,
      "ĠSP": 7995,
      "irlf": 7996,
      "ĠHT": 7997,
      "Ġincent": 7998,
      "interest": 7999,
      "Ġbacked": 8000,
      "Ġbranch": 8001,
      "ĠTech": 8002,
      "Ġsteel": 8003,
      "from": 8004,
      "ĠNSA": 8005,
      "Ġads": 8006,
      "aching": 8007,
      "irlfriend": 8008,
      "400": 8009,
      "ĠAL": 8010,
      "ĠCO": 8011,
      "ĠPok": 8012,
      "ĠRen": 8013,
      "Ġfoss": 8014,
      "Ġtoler": 8015,
      "Ġexceed": 8016,
      "Ġships": 8017,
      "Ġuniform": 8018,
      "Ġbrut": 8019,
      "Ġlights": 8020,
      "Meanwhile": 8021,
      "Ġinvited": 8022,
      "Ref": 8023,
      "ĠLuc": 8024,
      "Ġcontaining": 8025,
      "Ġroads": 8026,
      "ĠZealand": 8027,
      "mat": 8028,
      "umes": 8029,
      "Ġentr": 8030,
      "ĠCentre": 8031,
      "Ġfirms": 8032,
      "Ġfeelings": 8033,
      "Ġforever": 8034,
      "Ġwalls": 8035,
      "Ġestablishment": 8036,
      "cription": 8037,
      "Ġocean": 8038,
      "ĠRand": 8039,
      "Ġinvestigate": 8040,
      "ĠMarket": 8041,
      "Ġvulnerable": 8042,
      "Ġsatellite": 8043,
      "ĠESPN": 8044,
      "ĠOK": 8045,
      "ĠReview": 8046,
      "ĠRet": 8047,
      "Ġroles": 8048,
      "ĠClass": 8049,
      "achusetts": 8050,
      "iti": 8051,
      "omething": 8052,
      "Ġsuggesting": 8053,
      "Ġtag": 8054,
      "ĠAR": 8055,
      "Ġelectronic": 8056,
      "Ġinvolvement": 8057,
      "aron": 8058,
      "ĠFull": 8059,
      "ogether": 8060,
      "Ġflaw": 8061,
      "Star": 8062,
      "Ġreaching": 8063,
      "ĠDisney": 8064,
      "profit": 8065,
      "ĠTenn": 8066,
      "ĠField": 8067,
      "ĠNext": 8068,
      "Ġscoring": 8069,
      "prise": 8070,
      "Ġdomain": 8071,
      "Ġcyber": 8072,
      "Ġsmooth": 8073,
      "Ġretired": 8074,
      "ĠHarry": 8075,
      "Ġsubjects": 8076,
      "Ġbasketball": 8077,
      "ĠMS": 8078,
      "eland": 8079,
      "ĠAbout": 8080,
      "Ġcannabis": 8081,
      "ĠDiego": 8082,
      "uj": 8083,
      "Ġconvin": 8084,
      "ĠThree": 8085,
      "Ġinvent": 8086,
      "Ġstructures": 8087,
      "Ġattacking": 8088,
      "Ġpriority": 8089,
      "========": 8090,
      "ĠSaf": 8091,
      "Ġcontribute": 8092,
      "Ġlistening": 8093,
      "Ġadvertising": 8094,
      "Ġ1997": 8095,
      "including": 8096,
      "ĠPerhaps": 8097,
      "Ġincorpor": 8098,
      "pat": 8099,
      "isk": 8100,
      "ĠAS": 8101,
      "ĠRick": 8102,
      "ĠMayor": 8103,
      "Ġcivilians": 8104,
      "burgh": 8105,
      "Ġneutral": 8106,
      "Ġrose": 8107,
      "mann": 8108,
      "who": 8109,
      "78": 8110,
      "amac": 8111,
      "imm": 8112,
      "Ġdeeper": 8113,
      "hour": 8114,
      "amber": 8115,
      "Ġjur": 8116,
      "Ġeastern": 8117,
      "ATE": 8118,
      "Ġindependence": 8119,
      "Ġprepare": 8120,
      "ĠData": 8121,
      "ĠGreg": 8122,
      "Ġdoors": 8123,
      "Ġterrorists": 8124,
      "Ġbeliefs": 8125,
      "Ġgained": 8126,
      "aga": 8127,
      "Ġcha": 8128,
      "Ġdozens": 8129,
      "Ġcitizen": 8130,
      "!!!!!!!!!!!!!!!!!!!!!!!!!!!!!!!!": 8131,
      "udes": 8132,
      "ecut": 8133,
      "iversary": 8134,
      "Ġneighbour": 8135,
      "ĠCirc": 8136,
      "76": 8137,
      "alling": 8138,
      "ĠUFC": 8139,
      "Ġrecover": 8140,
      "Ġunclear": 8141,
      "Ġintellectual": 8142,
      "Ġproven": 8143,
      "ĠJason": 8144,
      "Ġpapers": 8145,
      "Ġrural": 8146,
      "Ġindex": 8147,
      "Ġacceler": 8148,
      "Ġforest": 8149,
      "Ġpurchased": 8150,
      "riers": 8151,
      "Ġwheel": 8152,
      "Ġachieved": 8153,
      "Ġbrowser": 8154,
      "ila": 8155,
      "ifest": 8156,
      "Those": 8157,
      "Ġlegs": 8158,
      "Ġpractical": 8159,
      "ĠKey": 8160,
      "ĠTour": 8161,
      "Co": 8162,
      "Will": 8163,
      "Ġburd": 8164,
      "rous": 8165,
      "inding": 8166,
      "Ġgrounds": 8167,
      "Ġracist": 8168,
      "Ġethnic": 8169,
      "ba": 8170,
      "fare": 8171,
      "Ġsurgery": 8172,
      "Ġinterviews": 8173,
      "ĠConservative": 8174,
      "race": 8175,
      "Ġporn": 8176,
      "Ġhook": 8177,
      "ĠBalt": 8178,
      "Ġraces": 8179,
      "anted": 8180,
      "Ġpoly": 8181,
      "Ġhandful": 8182,
      "Ġrepresentative": 8183,
      "Ġcontained": 8184,
      "inois": 8185,
      "core": 8186,
      "Ġfinger": 8187,
      "ĠVis": 8188,
      "Ġdevast": 8189,
      "Ġtasks": 8190,
      "Ġwing": 8191,
      "Ġdepression": 8192,
      "Ġaffairs": 8193,
      "Ġversus": 8194,
      "Ġcollective": 8195,
      "oen": 8196,
      "aning": 8197,
      "Ġanger": 8198,
      "ĠArm": 8199,
      "Ġlegend": 8200,
      "ĠMarc": 8201,
      "een": 8202,
      "found": 8203,
      "unicip": 8204,
      "Ġperpet": 8205,
      "Ġpounds": 8206,
      "Ġnotion": 8207,
      "ĠGov": 8208,
      "Ġplate": 8209,
      "ĠMusic": 8210,
      "Ġfarmers": 8211,
      "ĠAtlanta": 8212,
      "Ġwelf": 8213,
      "ĠKansas": 8214,
      "ipal": 8215,
      "Ġflash": 8216,
      "Under": 8217,
      "quest": 8218,
      "Ġchallenging": 8219,
      "wered": 8220,
      "Ġequally": 8221,
      "amacare": 8222,
      "FF": 8223,
      "Note": 8224,
      "rolled": 8225,
      "olis": 8226,
      "ushing": 8227,
      "Ġresign": 8228,
      "lessly": 8229,
      "Ġhitting": 8230,
      "Ġownership": 8231,
      "Ġbarely": 8232,
      "kes": 8233,
      "power": 8234,
      "Ġbra": 8235,
      "Ġdeputy": 8236,
      "Ġplatforms": 8237,
      "Ġexclusive": 8238,
      "Ġwelfare": 8239,
      "Mc": 8240,
      "Ġbridge": 8241,
      "Ġvirtually": 8242,
      "lete": 8243,
      "Ġgam": 8244,
      "eman": 8245,
      "Ġlobby": 8246,
      "Ġ2019": 8247,
      "Ġedition": 8248,
      "Ġhumanity": 8249,
      "Ġfiscal": 8250,
      "isting": 8251,
      "Ġpublication": 8252,
      "Ġbarrel": 8253,
      "ĠHit": 8254,
      "Ġhardly": 8255,
      "ĠAmendment": 8256,
      "arrass": 8257,
      "senal": 8258,
      "Ġconvinced": 8259,
      "jo": 8260,
      "mate": 8261,
      "ington": 8262,
      "Ġcomprehens": 8263,
      "ĠLight": 8264,
      "ultural": 8265,
      "ĠLind": 8266,
      "Ġactors": 8267,
      "Ġfears": 8268,
      "AA": 8269,
      "Ġbread": 8270,
      "Ġstone": 8271,
      "ndum": 8272,
      "Ġindicated": 8273,
      "About": 8274,
      "Ġconversations": 8275,
      "Ġpremium": 8276,
      "Ġenormous": 8277,
      "Ġstupid": 8278,
      "abs": 8279,
      "ĠVancouver": 8280,
      "Ġsynt": 8281,
      "Ġbrown": 8282,
      "ĠHarvard": 8283,
      "ĠTown": 8284,
      "Ġattached": 8285,
      "Ġairport": 8286,
      "ÙĦ": 8287,
      "Ġpeak": 8288,
      "Ġrespectively": 8289,
      "ĠTaliban": 8290,
      "ĠMoscow": 8291,
      "Ġliquid": 8292,
      "Ġgenetic": 8293,
      "ĠMcCain": 8294,
      "ĪĴ": 8295,
      "arl": 8296,
      "appy": 8297,
      "Ġestimate": 8298,
      "Ġlicens": 8299,
      "President": 8300,
      "Ġscandal": 8301,
      "Ġsuspended": 8302,
      "ĠQueen": 8303,
      "ĠMassachusetts": 8304,
      "Ġovert": 8305,
      "ĠPhotos": 8306,
      "\")": 8307,
      ".-": 8308,
      "ĠFurther": 8309,
      "ixon": 8310,
      "Ġexpanded": 8311,
      "79": 8312,
      "Ġwars": 8313,
      "Ġanybody": 8314,
      "Ġpreced": 8315,
      "Ġsilver": 8316,
      "orge": 8317,
      "Ġconce": 8318,
      "Ġrational": 8319,
      "Ġunex": 8320,
      "Ġstayed": 8321,
      "ĠHo": 8322,
      "Ġprosec": 8323,
      "Ġinteract": 8324,
      "Ġdiscovery": 8325,
      "Ġtestim": 8326,
      "ĠFre": 8327,
      "Ġpersonality": 8328,
      "Ass": 8329,
      "EP": 8330,
      "ĠRef": 8331,
      "Ġhanded": 8332,
      "Ġvital": 8333,
      "Ġmovements": 8334,
      "ĠJustin": 8335,
      "Che": 8336,
      "ĠSir": 8337,
      "Ġfrag": 8338,
      "UR": 8339,
      "Ġdump": 8340,
      "ĠRoy": 8341,
      "unior": 8342,
      "Ġtransgender": 8343,
      "Who": 8344,
      "Ġfriendly": 8345,
      "Ġreader": 8346,
      "Ġcareful": 8347,
      "Ġdiscussions": 8348,
      "Ġreferring": 8349,
      "odox": 8350,
      "ĠNic": 8351,
      "Ġregulation": 8352,
      "Ġtransit": 8353,
      "Ġsuffer": 8354,
      "Ġrecommended": 8355,
      "ĠGuardian": 8356,
      "Ġabandoned": 8357,
      "aus": 8358,
      "esy": 8359,
      "Ġshr": 8360,
      "Ġsalt": 8361,
      "Ġjoining": 8362,
      "Ġawareness": 8363,
      "Ġextend": 8364,
      "Ġsuspected": 8365,
      "ĠSquare": 8366,
      "Ġtail": 8367,
      "Ġrender": 8368,
      "Ġremarks": 8369,
      "Ġdelivery": 8370,
      "Ġdisagree": 8371,
      "Ġraw": 8372,
      "ĠLittle": 8373,
      "Ġremem": 8374,
      "ĠConference": 8375,
      "Ġreducing": 8376,
      "obs": 8377,
      "Ġlogic": 8378,
      "dri": 8379,
      "ĠAle": 8380,
      "Ġinflation": 8381,
      "Ġspiritual": 8382,
      "]:": 8383,
      "ĠBon": 8384,
      "Ġriver": 8385,
      "rient": 8386,
      "Ġlands": 8387,
      "Ġbehaviour": 8388,
      "ĠHD": 8389,
      "Ġaccus": 8390,
      "ĠIraqi": 8391,
      "ĠCommunity": 8392,
      "Ġdepends": 8393,
      "ĠPlus": 8394,
      "ĠMcG": 8395,
      "Ġcust": 8396,
      "imb": 8397,
      "ĠHay": 8398,
      "ĠEs": 8399,
      "Ġupset": 8400,
      "Ġstatistics": 8401,
      "ijing": 8402,
      "ĠâĤ¬": 8403,
      "otype": 8404,
      "ĠRadio": 8405,
      "::": 8406,
      "Look": 8407,
      "Ġsteal": 8408,
      "Ġdescription": 8409,
      "Ġlegitimate": 8410,
      "Ġinterface": 8411,
      "Ġoffices": 8412,
      "ĠPatrick": 8413,
      "Ġgift": 8414,
      "Ġgathered": 8415,
      "agg": 8416,
      "Ġalien": 8417,
      "usted": 8418,
      "Ġignore": 8419,
      "uten": 8420,
      "Ġincidents": 8421,
      "Ġfailing": 8422,
      "dem": 8423,
      "ĠPent": 8424,
      "Ġpersons": 8425,
      "Ġframework": 8426,
      "Ġpetition": 8427,
      "cific": 8428,
      "Ġthrown": 8429,
      "Ġgear": 8430,
      "Ġranks": 8431,
      "Ġneck": 8432,
      "Ġsymptoms": 8433,
      "ÅŁ": 8434,
      "ĠRos": 8435,
      "ĠMinistry": 8436,
      "Ġcontributions": 8437,
      "worth": 8438,
      "icity": 8439,
      "ĠBeach": 8440,
      "News": 8441,
      "Ġinject": 8442,
      "Ġgains": 8443,
      "eters": 8444,
      "ira": 8445,
      "Ġsalary": 8446,
      "Ġconnections": 8447,
      "Ġcogn": 8448,
      "ĠTri": 8449,
      "ĠCore": 8450,
      "ĠCost": 8451,
      "Ġreviews": 8452,
      "Ġillness": 8453,
      "Ġbub": 8454,
      "ĠSuch": 8455,
      "Ġexternal": 8456,
      "throp": 8457,
      "Ġcovers": 8458,
      "ĠPrice": 8459,
      "Ġinquir": 8460,
      "ĠHon": 8461,
      "Ġdivor": 8462,
      "Ġtickets": 8463,
      "Ġcontroversy": 8464,
      "ĠRoss": 8465,
      "ĠPhilipp": 8466,
      "Ġparalle": 8467,
      "Ġcovering": 8468,
      "Ġmountain": 8469,
      "Ġadvocates": 8470,
      "Ġappreciate": 8471,
      "Ġscholars": 8472,
      "ormon": 8473,
      "Ġimprovements": 8474,
      "ĠBernie": 8475,
      "Ġli": 8476,
      "Ġstake": 8477,
      "omes": 8478,
      "ĠAD": 8479,
      "Ġtechnique": 8480,
      "Ġextraord": 8481,
      "ĠIII": 8482,
      "Ġguarantee": 8483,
      "Part": 8484,
      "alia": 8485,
      "ĠLo": 8486,
      "ĠCheck": 8487,
      "ĠBron": 8488,
      "ĠDid": 8489,
      "ika": 8490,
      "Ġlanguages": 8491,
      "ĠBang": 8492,
      "ivals": 8493,
      "Related": 8494,
      "aver": 8495,
      "hot": 8496,
      "yo": 8497,
      "Ġusage": 8498,
      "Ġfallen": 8499,
      "ĠEmpire": 8500,
      "Ġluck": 8501,
      "Ġrevel": 8502,
      "Ġbrill": 8503,
      "ĠMexican": 8504,
      "Ġfeaturing": 8505,
      "Ġingred": 8506,
      "Ġserves": 8507,
      "ĠAssad": 8508,
      "ĠTurkish": 8509,
      "Ġloyal": 8510,
      "Ġneuro": 8511,
      "Ġpresum": 8512,
      "ĠConnect": 8513,
      "Ġactivist": 8514,
      "Ġ52": 8515,
      "Ġpromises": 8516,
      "Ġresource": 8517,
      "Ġimplemented": 8518,
      "Ġentertainment": 8519,
      "ective": 8520,
      "Ġscreens": 8521,
      "issue": 8522,
      "ĠArabia": 8523,
      "ĠGreece": 8524,
      "Ġsubstantial": 8525,
      "ĠVietnam": 8526,
      "reate": 8527,
      "Ġtheat": 8528,
      "Ġinvestigating": 8529,
      "ĠIllinois": 8530,
      "ĠAnthony": 8531,
      "BO": 8532,
      "ĠNever": 8533,
      "ĠWithout": 8534,
      "ĠMedical": 8535,
      "Ġbrothers": 8536,
      "ĠVegas": 8537,
      "Ġtransportation": 8538,
      "Ġfantastic": 8539,
      "ĠDutch": 8540,
      "Ġcoaches": 8541,
      "Ġconcrete": 8542,
      "PP": 8543,
      "Ġsoph": 8544,
      "Ġfed": 8545,
      "Ġfro": 8546,
      "owing": 8547,
      "Ġdefine": 8548,
      "Ġfantasy": 8549,
      "Where": 8550,
      "olph": 8551,
      "Ġrhet": 8552,
      "Ġjoke": 8553,
      "Ġrobot": 8554,
      "Ġhypot": 8555,
      "Ġskept": 8556,
      "ĠMuseum": 8557,
      "Ġamid": 8558,
      "Ġreferendum": 8559,
      "mad": 8560,
      "Ġranked": 8561,
      "Ġec": 8562,
      "ĠCall": 8563,
      "Ġchapter": 8564,
      "Ġprofits": 8565,
      "Ġlowest": 8566,
      "ĠAustin": 8567,
      "Ġtemporary": 8568,
      "Ġrequested": 8569,
      "Ġproposals": 8570,
      "62": 8571,
      "xit": 8572,
      "ĠForm": 8573,
      "Ġviewers": 8574,
      "Ġreplied": 8575,
      "Ġ51": 8576,
      "Ġviewed": 8577,
      "Ġthrew": 8578,
      "ammed": 8579,
      "Ġmining": 8580,
      "iences": 8581,
      "Ġpartnership": 8582,
      "89": 8583,
      "GE": 8584,
      "UL": 8585,
      "iture": 8586,
      "Ġpermit": 8587,
      "Ġsamples": 8588,
      "Ġgal": 8589,
      "Ġgirlfriend": 8590,
      "uts": 8591,
      "Ġattitude": 8592,
      "Ġencouraged": 8593,
      "Ġembarrass": 8594,
      "door": 8595,
      "Ġinner": 8596,
      "Ġyellow": 8597,
      "ĠGaza": 8598,
      "Ġprotecting": 8599,
      "ĠCustom": 8600,
      "Ġheading": 8601,
      "helsea": 8602,
      "73": 8603,
      "Ġfiction": 8604,
      "ĠStadium": 8605,
      "Ġsettings": 8606,
      "74": 8607,
      "Ġfulf": 8608,
      "imore": 8609,
      "ĠGetty": 8610,
      "ixed": 8611,
      "ĠHistory": 8612,
      "Back": 8613,
      "Ġtwenty": 8614,
      "ĠOlympic": 8615,
      "Ġsorry": 8616,
      "Ġreven": 8617,
      "osexual": 8618,
      "Ġdramatic": 8619,
      "GA": 8620,
      "Ġstrategic": 8621,
      "MP": 8622,
      "cr": 8623,
      "rapped": 8624,
      "iverpool": 8625,
      "Ġlocked": 8626,
      "ĠUlt": 8627,
      "nedy": 8628,
      "Ġdistributed": 8629,
      "Ġdynamic": 8630,
      "Ġfab": 8631,
      "oding": 8632,
      "Ġages": 8633,
      "ĠInformation": 8634,
      "iano": 8635,
      "Ġguest": 8636,
      "Ġaddressed": 8637,
      "Ġimprovement": 8638,
      "'.": 8639,
      "dit": 8640,
      "Ġinequ": 8641,
      "Ġnoting": 8642,
      "Ġpassengers": 8643,
      "annels": 8644,
      "Ġspeaks": 8645,
      "Ġboat": 8646,
      "Ġwww": 8647,
      "ĠWhich": 8648,
      "ĠShare": 8649,
      "Ġlucky": 8650,
      "aware": 8651,
      "ĠObamacare": 8652,
      "Ġepisodes": 8653,
      "Ġwrest": 8654,
      "Ġham": 8655,
      "ĠAward": 8656,
      "agic": 8657,
      "ĠHor": 8658,
      "Ġhandling": 8659,
      "Ġtemperatures": 8660,
      "ihad": 8661,
      "ĠJudge": 8662,
      "Ġtomorrow": 8663,
      "</": 8664,
      "Ġtone": 8665,
      "ĠLy": 8666,
      "Ġseemingly": 8667,
      "Ġultimate": 8668,
      "ĠBelg": 8669,
      "ĠProfessor": 8670,
      "ĠCameron": 8671,
      "Ġdad": 8672,
      "Ġclock": 8673,
      "Ġvoter": 8674,
      "Ġinvolves": 8675,
      "HS": 8676,
      "ĠOnt": 8677,
      "Ġovers": 8678,
      "ja": 8679,
      "Ġwaves": 8680,
      "Ġgrav": 8681,
      "ĠTai": 8682,
      "ĠHold": 8683,
      "Ġunc": 8684,
      "Ġmonitor": 8685,
      "Ġinsisted": 8686,
      "Ġtweeted": 8687,
      "Ġregister": 8688,
      "Ġmonthly": 8689,
      "Ø§": 8690,
      "ĠAction": 8691,
      "ĠLas": 8692,
      "Ġreprodu": 8693,
      "Ġabsor": 8694,
      "Ġspokesperson": 8695,
      "Ġrescue": 8696,
      "pa": 8697,
      "Ġfruit": 8698,
      "Ġstolen": 8699,
      "ĠMoon": 8700,
      "ĠPit": 8701,
      "Ġsear": 8702,
      "cover": 8703,
      "Ġreplacement": 8704,
      "ĠHawai": 8705,
      "itary": 8706,
      "oded": 8707,
      "ĠFamily": 8708,
      "Ġtrave": 8709,
      "pload": 8710,
      "Ġdeficit": 8711,
      "Ġimproving": 8712,
      "Please": 8713,
      "Ġlying": 8714,
      "agh": 8715,
      "ĠFreedom": 8716,
      "ĠNev": 8717,
      "ĠStat": 8718,
      "Ġcomplaints": 8719,
      "Ġconservatives": 8720,
      "Ġhint": 8721,
      "Ġexch": 8722,
      "ĠNATO": 8723,
      "ĠUse": 8724,
      "Ġinvestigators": 8725,
      "Ġattempting": 8726,
      "Ġentitled": 8727,
      "Sm": 8728,
      "Ġow": 8729,
      "sels": 8730,
      "ĠIndeed": 8731,
      "Ġmathem": 8732,
      "Ġmarks": 8733,
      "ĠDesign": 8734,
      "Ġappointed": 8735,
      "Ġholiday": 8736,
      "ĠTechnology": 8737,
      "ui": 8738,
      "ĠUr": 8739,
      "Ġguitar": 8740,
      "ĠProv": 8741,
      "Ġwages": 8742,
      "Ġstored": 8743,
      "keep": 8744,
      "Ġviolation": 8745,
      "ĠBroad": 8746,
      "low": 8747,
      "mo": 8748,
      "Ġcoc": 8749,
      "Ġdrew": 8750,
      "Ġbuff": 8751,
      "Ġdivided": 8752,
      "61": 8753,
      "encing": 8754,
      "Ġbacter": 8755,
      "Ġspaces": 8756,
      "Ġdisrupt": 8757,
      "Ġflags": 8758,
      "Ġfactory": 8759,
      "claim": 8760,
      "Ġmissile": 8761,
      "Ġauthent": 8762,
      "Her": 8763,
      "walk": 8764,
      "ĠChair": 8765,
      "Ġtries": 8766,
      "Ġportray": 8767,
      "Ġmechanism": 8768,
      "ĠSweden": 8769,
      "BN": 8770,
      "Ġinch": 8771,
      "ĠPD": 8772,
      "Ġspoken": 8773,
      "ĠFront": 8774,
      "Ġ1994": 8775,
      "Ġbreaks": 8776,
      "des": 8777,
      "ĠMake": 8778,
      "Ġshout": 8779,
      "Ġgrid": 8780,
      "Ġtactics": 8781,
      "ĠSanta": 8782,
      "Ġdominant": 8783,
      "yard": 8784,
      "ĠBrew": 8785,
      "ĠDig": 8786,
      "ources": 8787,
      "Ġcopies": 8788,
      "Ġconsciousness": 8789,
      "72": 8790,
      "Ġexit": 8791,
      "Ġplain": 8792,
      "Ġabsence": 8793,
      "ommod": 8794,
      "ĠPot": 8795,
      "Ġcriticized": 8796,
      "Ġacknowledged": 8797,
      "eding": 8798,
      "izer": 8799,
      "icking": 8800,
      "rooms": 8801,
      "63": 8802,
      "LC": 8803,
      "Your": 8804,
      "ĠBeijing": 8805,
      "ĠAnton": 8806,
      "usalem": 8807,
      "ĠAcc": 8808,
      "itionally": 8809,
      "Ġpredicted": 8810,
      "mary": 8811,
      "ped": 8812,
      "Ã±": 8813,
      "itting": 8814,
      "ieties": 8815,
      "ĠChristians": 8816,
      "ĠMean": 8817,
      "800": 8818,
      "ĠEngine": 8819,
      "ĠEnvironment": 8820,
      "Ġopinions": 8821,
      "Ġcelebrate": 8822,
      "lad": 8823,
      "Ġ00": 8824,
      "esty": 8825,
      "Ġouts": 8826,
      "phones": 8827,
      "Ġpopulations": 8828,
      "ĠXbox": 8829,
      "Ġsubsequent": 8830,
      "Ġconspiracy": 8831,
      "inch": 8832,
      "rets": 8833,
      "bridge": 8834,
      "ĠCooper": 8835,
      "uer": 8836,
      "ĠPoint": 8837,
      "Ġdepos": 8838,
      "ropri": 8839,
      "Ġconsistently": 8840,
      "Ġclothes": 8841,
      "WS": 8842,
      "iy": 8843,
      "serv": 8844,
      "âĤ¬": 8845,
      "ĠBa": 8846,
      "Ġterr": 8847,
      "Both": 8848,
      "PC": 8849,
      "was": 8850,
      "Ġjoy": 8851,
      "Ġclosing": 8852,
      "Ġracism": 8853,
      "case": 8854,
      "abeth": 8855,
      "const": 8856,
      "Ġmidfield": 8857,
      "Ð¼": 8858,
      "Ġrom": 8859,
      "ĠNOT": 8860,
      "geon": 8861,
      "ĠAdv": 8862,
      "Ġwealthy": 8863,
      "ho": 8864,
      "hop": 8865,
      "Ġstem": 8866,
      "Ġtrained": 8867,
      "Ġinvestigations": 8868,
      "Ġmedicine": 8869,
      "ĠSony": 8870,
      "ogs": 8871,
      "Ġjudges": 8872,
      "!)": 8873,
      "Ġdance": 8874,
      "ĠTro": 8875,
      "ĠAst": 8876,
      "Ġclassified": 8877,
      "Ġmenu": 8878,
      "Ġarrive": 8879,
      "ecutive": 8880,
      "ĠIce": 8881,
      "ĠAge": 8882,
      "ĠYang": 8883,
      "Ġ1992": 8884,
      "Ġpursue": 8885,
      "82": 8886,
      "Act": 8887,
      "hatt": 8888,
      "elling": 8889,
      "Ġmuseum": 8890,
      "ĠExt": 8891,
      "ĠAnderson": 8892,
      "Ġthrowing": 8893,
      "itol": 8894,
      "through": 8895,
      "elson": 8896,
      "ĠYeah": 8897,
      "Ġurged": 8898,
      "SC": 8899,
      "gener": 8900,
      "ĠDet": 8901,
      "Ġscar": 8902,
      "Ġscope": 8903,
      "Ġacquired": 8904,
      "leveland": 8905,
      "Ġbars": 8906,
      "Ġdiversity": 8907,
      "ĠWW": 8908,
      "ĠiOS": 8909,
      "ĠMatthew": 8910,
      "Ġtape": 8911,
      "Ġmoon": 8912,
      "Ġstages": 8913,
      "ĠJam": 8914,
      "Ġsettled": 8915,
      "itage": 8916,
      "ĠSon": 8917,
      "Ġheadquarters": 8918,
      "Ġvisitors": 8919,
      "81": 8920,
      "isa": 8921,
      "Ġbutt": 8922,
      "amsung": 8923,
      "Ġtrem": 8924,
      "Ġdrove": 8925,
      "Ġmortg": 8926,
      "isons": 8927,
      "section": 8928,
      "Ġstudied": 8929,
      "Ġ1995": 8930,
      "Ġmonitoring": 8931,
      "%,": 8932,
      "Ġtea": 8933,
      "Ġguidelines": 8934,
      "Ġsurvival": 8935,
      "https": 8936,
      "Ġdismissed": 8937,
      "erted": 8938,
      "Ġdemocratic": 8939,
      "ported": 8940,
      "Ġnoise": 8941,
      "Ġordinary": 8942,
      "EE": 8943,
      "Ġcul": 8944,
      "Ġdub": 8945,
      "Ġsubmit": 8946,
      "Ġlanding": 8947,
      "Ġcommonly": 8948,
      "GO": 8949,
      "Ġfighter": 8950,
      "oval": 8951,
      "Ġballot": 8952,
      "Ġawarded": 8953,
      "ĠSpring": 8954,
      "lined": 8955,
      "Ġbowl": 8956,
      "thodox": 8957,
      "ĠWeiss": 8958,
      "Ġwarn": 8959,
      "Ġdrone": 8960,
      "Ġfunded": 8961,
      "ĠGolden": 8962,
      "ĠAND": 8963,
      "ĠBox": 8964,
      "ikes": 8965,
      "Ġmuscle": 8966,
      "Ġignored": 8967,
      "Ġretirement": 8968,
      "Ġtestimony": 8969,
      "Sen": 8970,
      "mony": 8971,
      "yer": 8972,
      "inf": 8973,
      "uted": 8974,
      "ĠSus": 8975,
      "Ġaccommod": 8976,
      "Ge": 8977,
      "watch": 8978,
      "Ġprepar": 8979,
      "Ġlegacy": 8980,
      "ĠDoes": 8981,
      "ĠBatman": 8982,
      "maker": 8983,
      "ĠABC": 8984,
      "ctr": 8985,
      "emed": 8986,
      "Ġshoulder": 8987,
      "Ġvisiting": 8988,
      "Ġwine": 8989,
      "Ġapproached": 8990,
      "ĠPokÃ©": 8991,
      "92": 8992,
      "Äģ": 8993,
      "minute": 8994,
      "Ġauto": 8995,
      "EST": 8996,
      "Ġvoices": 8997,
      "ĠKennedy": 8998,
      "ais": 8999,
      "aeda": 9000,
      "atar": 9001,
      "Ġloans": 9002,
      "Ġsupplies": 9003,
      "ige": 9004,
      "Ġdispl": 9005,
      "Ġdiscount": 9006,
      "Ġanniversary": 9007,
      "Ġhoped": 9008,
      "erer": 9009,
      "ultane": 9010,
      "Are": 9011,
      "Post": 9012,
      "ĠCBS": 9013,
      "ĠLine": 9014,
      "Ġdiverse": 9015,
      "Ġresponses": 9016,
      "ĠCorpor": 9017,
      "93": 9018,
      "dated": 9019,
      "math": 9020,
      "Ġrear": 9021,
      "ĠSat": 9022,
      "ĠBad": 9023,
      "ĠWas": 9024,
      "Ġpolitically": 9025,
      "Ġmistakes": 9026,
      "bi": 9027,
      "Ġunions": 9028,
      "Ġperforming": 9029,
      "Ġphotograp": 9030,
      "ded": 9031,
      "Ġokay": 9032,
      "acket": 9033,
      "Ġje": 9034,
      "Ġefficiency": 9035,
      "Ġdesigns": 9036,
      "ĠSometimes": 9037,
      "unes": 9038,
      "Ġcolors": 9039,
      "Story": 9040,
      "Ġorigin": 9041,
      "Ġblocked": 9042,
      "ught": 9043,
      "Ġlunch": 9044,
      "ĠDeath": 9045,
      "Ġdemonstrated": 9046,
      "ntil": 9047,
      "Ġgrade": 9048,
      "Ġconventional": 9049,
      "Ġfestival": 9050,
      "iler": 9051,
      "Ġabroad": 9052,
      "ĠUnfortunately": 9053,
      "Ġpresidency": 9054,
      "Ġintervention": 9055,
      "Ġreads": 9056,
      "David": 9057,
      "iate": 9058,
      "igare": 9059,
      "abe": 9060,
      "Ġsenator": 9061,
      "ĠJerusalem": 9062,
      "Ġliterature": 9063,
      "ĠSilver": 9064,
      "Ġcongressional": 9065,
      "Cons": 9066,
      "Ġtap": 9067,
      "oln": 9068,
      "acted": 9069,
      "aval": 9070,
      "scale": 9071,
      "shire": 9072,
      "ĠCarter": 9073,
      "ompson": 9074,
      "Ġreforms": 9075,
      "Ġupgrade": 9076,
      "Ġshopping": 9077,
      "Ġwider": 9078,
      "ĠDivision": 9079,
      "Ġfiring": 9080,
      "ĠBuff": 9081,
      "sect": 9082,
      "ĠGT": 9083,
      "Ġcompare": 9084,
      "Ġquoted": 9085,
      "Ġdrama": 9086,
      "Ġinnovation": 9087,
      "Ġsemi": 9088,
      "ĠRevolution": 9089,
      "ifer": 9090,
      "ĠEth": 9091,
      "Ġmembership": 9092,
      "backs": 9093,
      "Ġfalls": 9094,
      "Ġhomeless": 9095,
      "Ġsavings": 9096,
      "ĠAC": 9097,
      "ppers": 9098,
      "ĠJay": 9099,
      "plate": 9100,
      "Ġsurely": 9101,
      "Ġarguing": 9102,
      "rell": 9103,
      "Ġnin": 9104,
      "igate": 9105,
      "Ġchannels": 9106,
      "Ġcounts": 9107,
      "Ġmodule": 9108,
      "theless": 9109,
      "ĠSupport": 9110,
      "ĠEdward": 9111,
      "Ġbeauty": 9112,
      "Ġnaturally": 9113,
      "acco": 9114,
      "Ġramp": 9115,
      "Ġcomedy": 9116,
      "Ġassign": 9117,
      "Ġassessment": 9118,
      "Ġaccomplish": 9119,
      "Ġfossil": 9120,
      "Ġshadow": 9121,
      "Ġabst": 9122,
      "***": 9123,
      "Ġbonus": 9124,
      "held": 9125,
      "asty": 9126,
      "Ġrook": 9127,
      "Ġhealthcare": 9128,
      "Ġ1993": 9129,
      "izabeth": 9130,
      "Ġspan": 9131,
      "hesis": 9132,
      "Ġrepresenting": 9133,
      "ĠControl": 9134,
      "84": 9135,
      "ĠCH": 9136,
      "Ġwhenever": 9137,
      "Ġsmile": 9138,
      "Ġemployed": 9139,
      "Ġnomination": 9140,
      "Facebook": 9141,
      "repre": 9142,
      "ĠCook": 9143,
      "ĠHop": 9144,
      "Ġinitiative": 9145,
      "intendo": 9146,
      "\",\"": 9147,
      "RL": 9148,
      "rec": 9149,
      "Ġformation": 9150,
      "ĠIranian": 9151,
      "Ġtie": 9152,
      "ĠAud": 9153,
      "thon": 9154,
      "Ġwhereas": 9155,
      "Ġsubur": 9156,
      "Ġcivilian": 9157,
      "ĠFootball": 9158,
      "Comp": 9159,
      "Ġweigh": 9160,
      "ĠHospital": 9161,
      "Ġpreparing": 9162,
      "hire": 9163,
      "pie": 9164,
      "ĠPop": 9165,
      "ĠDave": 9166,
      "ĠLt": 9167,
      "ounce": 9168,
      "Ste": 9169,
      "ĠPass": 9170,
      "ĠVill": 9171,
      "Ġprisoners": 9172,
      "Ġmaintained": 9173,
      "Ġans": 9174,
      "Ġnic": 9175,
      "Ġweekly": 9176,
      "Ġproviders": 9177,
      "Ġpopularity": 9178,
      "Ġtargeting": 9179,
      "Ġkilomet": 9180,
      "âĸ": 9181,
      "Ġdying": 9182,
      "ificial": 9183,
      "comes": 9184,
      "Ġtherapy": 9185,
      "fund": 9186,
      "zed": 9187,
      "oret": 9188,
      "Ġcompe": 9189,
      "onder": 9190,
      "Ġgenerations": 9191,
      "Ġimportantly": 9192,
      "ĠAbb": 9193,
      "Ġdeny": 9194,
      "ĠMedicaid": 9195,
      "oice": 9196,
      "aki": 9197,
      "Ġwaters": 9198,
      "oenix": 9199,
      "reprene": 9200,
      "king": 9201,
      "only": 9202,
      "Ġrevers": 9203,
      "ĠSet": 9204,
      "ĠBureau": 9205,
      "ĠHa": 9206,
      "ĠGO": 9207,
      "ĠJean": 9208,
      "Ġcenters": 9209,
      "Ġprogramme": 9210,
      "Ġstreaming": 9211,
      "Ġsuspects": 9212,
      "Ġphenomenon": 9213,
      "ĠBruce": 9214,
      "NS": 9215,
      "inator": 9216,
      "Ġmad": 9217,
      "Ġmos": 9218,
      "Ġbeating": 9219,
      "Though": 9220,
      "Ġsmoking": 9221,
      "Mark": 9222,
      "ĠTrust": 9223,
      "ĠIndust": 9224,
      "high": 9225,
      "ĠSix": 9226,
      "ĠCleveland": 9227,
      "ista": 9228,
      "Ġsaving": 9229,
      "Ġcance": 9230,
      "Ġsubmitted": 9231,
      "ĠMaryland": 9232,
      "arms": 9233,
      "Ġhung": 9234,
      "ĠOrig": 9235,
      "Ġfunctional": 9236,
      "Ġdemanding": 9237,
      "Ġoverseas": 9238,
      "ĠBible": 9239,
      "Ġpref": 9240,
      "Ġreleases": 9241,
      "ĠMarvel": 9242,
      "Ġdeadly": 9243,
      "ĠBaltimore": 9244,
      "Ġdates": 9245,
      "Ġthorough": 9246,
      "acts": 9247,
      "Ġprovision": 9248,
      "ĠLeader": 9249,
      "Ġceremony": 9250,
      "ĠGraham": 9251,
      "omy": 9252,
      "ĠChelsea": 9253,
      "ĠHead": 9254,
      "ĠLeon": 9255,
      "enez": 9256,
      "Ġremarkable": 9257,
      "hall": 9258,
      "igious": 9259,
      "ributes": 9260,
      "ĠAmong": 9261,
      "Ġinnocent": 9262,
      "uction": 9263,
      "Ġbin": 9264,
      "plus": 9265,
      "Ġactively": 9266,
      "Ġhyper": 9267,
      "Ġphrase": 9268,
      "Ġcro": 9269,
      "ito": 9270,
      "Ġfool": 9271,
      "Ġbeings": 9272,
      "ĠFall": 9273,
      "umble": 9274,
      "ounding": 9275,
      "Ġministry": 9276,
      "Ġswim": 9277,
      "ĠStart": 9278,
      "Ġbanking": 9279,
      "Ġdocumentary": 9280,
      "Ġutility": 9281,
      "Ġprosecutors": 9282,
      "Ġuniversal": 9283,
      "Ġtonight": 9284,
      "igenous": 9285,
      "Ġburning": 9286,
      "Ġblast": 9287,
      "Ġequality": 9288,
[...]
